<s>	0
</s>	0
<unk>	0
<pad>	0
ng	-0
▁t	-1
▁c	-2
▁đ	-3
nh	-4
▁v	-5
▁th	-6
▁l	-7
▁ch	-8
▁h	-9
▁m	-10
▁b	-11
▁k	-12
▁tr	-13
▁s	-14
▁nh	-15
▁n	-16
▁g	-17
▁kh	-18
▁ng	-19
▁và	-20
ác	-21
▁d	-22
▁p	-23
▁T	-24
▁ph	-25
iệ	-26
▁C	-27
ông	-28
▁củ	-29
▁gi	-30
▁của	-31
ên	-32
▁là	-33
ời	-34
▁các	-35
ột	-36
▁r	-37
ượ	-38
▁N	-39
iế	-40
▁có	-41
qu	-42
▁x	-43
ới	-44
▁một	-45
ất	-46
an	-47
▁qu	-48
ong	-49
ôi	-50
ại	-51
úng	-52
▁M	-53
ình	-54
uy	-55
ược	-56
iề	-57
ười	-58
▁2	-59
▁1	-60
in	-61
▁được	-62
▁cho	-63
ch	-64
ững	-65
▁trong	-66
▁B	-67
▁chúng	-68
▁người	-69
▁tôi	-70
ạn	-71
▁H	-72
▁S	-73
ày	-74
▁V	-75
▁những	-76
▁Đ	-77
▁không	-78
▁ngh	-79
iều	-80
▁với	-81
▁họ	-82
iên	-83
ân	-84
▁ta	-85
on	-86
ải	-87
ao	-88
▁để	-89
▁Ch	-90
▁thể	-91
▁L	-92
▁P	-93
ướ	-94
00	-95
ang	-96
▁,	-97
▁đã	-98
▁Th	-99
er	-100
anh	-101
ần	-102
ản	-103
iện	-104
▁bạn	-105
ung	-106
ay	-107
ến	-108
iể	-109
ai	-110
▁K	-111
▁ho	-112
ài	-113
ành	-114
ươ	-115
iết	-116
▁Tr	-117
inh	-118
ực	-119
ống	-120
ầu	-121
ước	-122
▁G	-123
▁cả	-124
ối	-125
▁như	-126
▁đó	-127
▁này	-128
▁(	-129
ận	-130
▁độ	-131
▁sự	-132
am	-133
àn	-134
ật	-135
ương	-136
ấy	-137
ây	-138
▁D	-139
ườ	-140
▁làm	-141
ằng	-142
ức	-143
ường	-144
▁nă	-145
01	-146
▁-	-147
em	-148
áng	-149
▁A	-150
▁nó	-151
▁về	-152
▁.	-153
▁sẽ	-154
ết	-155
▁đến	-156
àng	-157
ơn	-158
ính	-159
en	-160
▁khi	-161
áy	-162
▁công	-163
ốc	-164
▁Nh	-165
ar	-166
ặc	-167
ào	-168
ội	-169
▁ra	-170
▁dụ	-171
iệc	-172
▁/	-173
au	-174
▁từ	-175
áo	-176
▁mà	-177
▁điều	-178
▁khác	-179
êu	-180
ập	-181
át	-182
ích	-183
oại	-184
iệu	-185
▁nhà	-186
▁201	-187
▁3	-188
▁việc	-189
▁thu	-190
▁vào	-191
▁trên	-192
▁Ng	-193
ái	-194
eo	-195
▁R	-196
▁ở	-197
or	-198
▁thế	-199
ấp	-200
ục	-201
▁Q	-202
iệt	-203
▁bị	-204
ùng	-205
es	-206
▁mình	-207
at	-208
iến	-209
▁phải	-210
ền	-211
ổi	-212
ộc	-213
òng	-214
▁số	-215
▁đầu	-216
▁động	-217
▁thành	-218
▁chuy	-219
▁dụng	-220
▁cách	-221
▁xu	-222
ượng	-223
▁rằng	-224
ánh	-225
al	-226
án	-227
âu	-228
ạo	-229
▁năm	-230
▁gia	-231
▁nghiệ	-232
▁hơn	-233
ứng	-234
▁con	-235
▁chỉ	-236
▁nhiều	-237
úc	-238
▁em	-239
ăn	-240
▁học	-241
▁lại	-242
▁cu	-243
ôn	-244
ảo	-245
as	-246
▁Qu	-247
▁Kh	-248
▁máy	-249
▁quan	-250
▁Ph	-251
ịch	-252
▁sản	-253
et	-254
▁tại	-255
▁hàng	-256
▁nào	-257
▁Gi	-258
ơi	-259
ồng	-260
ặt	-261
ăng	-262
▁thấy	-263
ắt	-264
▁F	-265
ũng	-266
▁y	-267
▁hoặc	-268
âm	-269
áp	-270
ách	-271
ưở	-272
iển	-273
▁tiế	-274
ếu	-275
ot	-276
▁nhất	-277
ưởng	-278
ốn	-279
▁5	-280
▁hình	-281
▁quy	-282
..	-283
▁to	-284
▁ngày	-285
ol	-286
ảng	-287
▁đị	-288
ạt	-289
▁cũng	-290
it	-291
ắc	-292
▁sử	-293
ợp	-294
ọng	-295
▁E	-296
▁biết	-297
▁nhận	-298
▁4	-299
el	-300
ốt	-301
▁theo	-302
▁xuất	-303
▁anh	-304
ỗi	-305
▁đề	-306
▁chính	-307
▁I	-308
▁do	-309
▁cấp	-310
ac	-311
▁hợp	-312
▁cao	-313
ẩm	-314
▁thực	-315
ic	-316
▁đi	-317
iểm	-318
▁nói	-319
▁vì	-320
ẫn	-321
▁đang	-322
▁năng	-323
▁Và	-324
ện	-325
▁sống	-326
▁mu	-327
▁thời	-328
▁dự	-329
▁lượng	-330
ấn	-331
ọi	-332
▁Chúng	-333
▁tin	-334
▁Các	-335
▁chị	-336
▁nhân	-337
ing	-338
ậy	-339
▁gì	-340
ữa	-341
▁kho	-342
▁bằng	-343
▁thông	-344
▁phẩm	-345
ọc	-346
▁6	-347
ạnh	-348
▁giới	-349
▁W	-350
▁nghiệp	-351
▁lớ	-352
im	-353
ro	-354
▁hội	-355
le	-356
iểu	-357
st	-358
▁nước	-359
▁thiết	-360
▁phát	-361
ia	-362
iêu	-363
▁cuộc	-364
▁định	-365
▁hiện	-366
▁loại	-367
ép	-368
▁X	-369
▁Trung	-370
▁lu	-371
▁kết	-372
▁cơ	-373
▁U	-374
iễ	-375
▁qua	-376
▁tiếp	-377
id	-378
▁tuy	-379
▁cùng	-380
▁ông	-381
▁gian	-382
▁tự	-383
▁cảm	-384
▁nghĩ	-385
iền	-386
▁tế	-387
▁tạo	-388
▁cứ	-389
▁lý	-390
▁điện	-391
ỏi	-392
▁tất	-393
om	-394
▁cần	-395
òn	-396
êm	-397
▁cầu	-398
ạc	-399
ăm	-400
▁trình	-401
▁giá	-402
▁“	-403
▁phí	-404
▁Quốc	-405
▁đồng	-406
▁rất	-407
▁liệu	-408
▁toàn	-409
ởi	-410
▁hành	-411
iễn	-412
▁phần	-413
▁đây	-414
▁kinh	-415
▁trường	-416
▁thì	-417
▁8	-418
▁lời	-419
▁nên	-420
▁vụ	-421
▁trọng	-422
▁cung	-423
▁mới	-424
▁hệ	-425
▁tốt	-426
▁tính	-427
▁tu	-428
▁lớn	-429
▁yêu	-430
mm	-431
▁đối	-432
▁tháng	-433
▁bao	-434
▁sinh	-435
▁_	-436
ảnh	-437
ou	-438
ọn	-439
▁dân	-440
▁muốn	-441
ed	-442
ộng	-443
il	-444
▁ấy	-445
▁nhưng	-446
▁J	-447
ìm	-448
úp	-449
▁hai	-450
▁Nam	-451
ad	-452
ấu	-453
▁&	-454
ồi	-455
▁giờ	-456
▁chất	-457
▁Tôi	-458
▁bảo	-459
ắn	-460
▁...	-461
▁trước	-462
▁sau	-463
eb	-464
ợi	-465
▁Ngài	-466
▁bộ	-467
ưa	-468
▁O	-469
▁viên	-470
ãy	-471
óa	-472
▁thứ	-473
▁7	-474
▁đổi	-475
ướng	-476
▁giúp	-477
▁triển	-478
▁10	-479
▁lên	-480
▁bất	-481
▁Một	-482
ắng	-483
▁vậy	-484
út	-485
▁bản	-486
▁tâm	-487
▁ảnh	-488
▁thương	-489
▁liên	-490
▁trang	-491
▁trở	-492
is	-493
▁0	-494
ẩn	-495
000	-496
ồn	-497
▁còn	-498
▁nhau	-499
▁ý	-500
▁in	-501
▁tài	-502
▁dịch	-503
ter	-504
▁tình	-505
▁tổ	-506
▁bu	-507
▁bắt	-508
▁ty	-509
▁lòng	-510
ạng	-511
▁tìm	-512
▁Máy	-513
▁Việt	-514
20	-515
▁thoại	-516
▁nguy	-517
ur	-518
▁Công	-519
▁thức	-520
êng	-521
▁giải	-522
▁lực	-523
▁thường	-524
▁bởi	-525
▁chủ	-526
▁chuyện	-527
▁dẫn	-528
ển	-529
ảm	-530
▁9	-531
▁cái	-532
ụi	-533
oài	-534
▁giáo	-535
▁sáng	-536
▁mặt	-537
▁cứu	-538
ạch	-539
▁vật	-540
▁w	-541
▁khu	-542
▁đường	-543
▁tác	-544
▁$	-545
▁Tháng	-546
iêng	-547
▁đình	-548
▁nhiên	-549
▁Trong	-550
▁chu	-551
▁vị	-552
oo	-553
▁quyền	-554
ét	-555
ưu	-556
▁chức	-557
▁truy	-558
▁an	-559
úi	-560
ám	-561
▁bụi	-562
▁vu	-563
▁hay	-564
▁sao	-565
▁doanh	-566
ửa	-567
ảy	-568
▁thuật	-569
▁thị	-570
▁20	-571
▁thống	-572
▁tiên	-573
▁hoàn	-574
▁quả	-575
óng	-576
▁tiền	-577
▁kế	-578
▁quốc	-579
▁hiệu	-580
▁sách	-581
▁điểm	-582
ưng	-583
▁nơi	-584
▁trung	-585
▁trợ	-586
▁tư	-587
▁nghiệm	-588
▁trị	-589
▁thay	-590
▁mạnh	-591
▁đo	-592
▁giao	-593
▁nếu	-594
▁ứng	-595
▁mọi	-596
ir	-597
ấm	-598
ack	-599
ệt	-600
▁ăn	-601
▁Y	-602
▁tập	-603
▁tiêu	-604
▁lập	-605
▁xe	-606
▁thật	-607
50	-608
ạy	-609
▁phục	-610
▁báo	-611
▁khí	-612
ắp	-613
▁*	-614
ừng	-615
ig	-616
ẳng	-617
▁xem	-618
▁đặt	-619
▁kỳ	-620
ệnh	-621
▁su	-622
ầy	-623
▁hoạt	-624
▁Co	-625
▁tham	-626
▁phụ	-627
▁thích	-628
-1	-629
ow	-630
▁nghệ	-631
▁pháp	-632
▁hỏi	-633
ag	-634
us	-635
▁trực	-636
▁tăng	-637
▁chọn	-638
ín	-639
▁12	-640
▁vấn	-641
óc	-642
▁–	-643
ent	-644
ion	-645
▁lọc	-646
▁chứng	-647
ựa	-648
un	-649
▁nay	-650
▁phố	-651
ec	-652
▁tay	-653
▁chuyển	-654
▁+	-655
▁mỗi	-656
▁2018	-657
▁vực	-658
▁lo	-659
▁chế	-660
▁biệt	-661
iệm	-662
ìn	-663
ứa	-664
▁Hội	-665
ip	-666
▁trẻ	-667
ầm	-668
▁phân	-669
▁hướng	-670
▁đại	-671
▁Khi	-672
▁câu	-673
os	-674
▁Nếu	-675
▁hóa	-676
▁khách	-677
iếu	-678
▁quá	-679
▁nữa	-680
▁>	-681
▁chơi	-682
▁"	-683
▁bỏ	-684
▁so	-685
▁lần	-686
▁Bộ	-687
▁Nhà	-688
▁cố	-689
▁mục	-690
▁11	-691
ồm	-692
▁cha	-693
▁đều	-694
ĩnh	-695
ưới	-696
▁Bạn	-697
▁nhỏ	-698
▁đạo	-699
▁Những	-700
▁phương	-701
▁19	-702
▁gồm	-703
▁lã	-704
th	-705
201	-706
▁kỹ	-707
▁hiểu	-708
▁quyết	-709
ôm	-710
▁bình	-711
.1	-712
▁bên	-713
▁biến	-714
▁mẹ	-715
▁nhìn	-716
▁Điện	-717
▁Nó	-718
ạm	-719
▁đặc	-720
iếm	-721
▁gọi	-722
re	-723
▁In	-724
▁phòng	-725
▁tục	-726
▁web	-727
.0	-728
▁trò	-729
▁tiết	-730
ino	-731
▁cụ	-732
▁tuyến	-733
▁kiện	-734
lo	-735
▁trí	-736
▁nữ	-737
áu	-738
▁bay	-739
▁nghiên	-740
▁sức	-741
▁tưởng	-742
ữu	-743
▁15	-744
▁truyền	-745
▁miễn	-746
▁đơn	-747
▁đầy	-748
ap	-749
▁Châu	-750
▁thân	-751
▁US	-752
ặp	-753
▁chi	-754
▁vô	-755
▁Nhưng	-756
ủy	-757
▁xác	-758
▁rộng	-759
▁sở	-760
óm	-761
▁dữ	-762
▁lúc	-763
▁Điều	-764
▁đánh	-765
▁thanh	-766
▁hạn	-767
▁hết	-768
▁vui	-769
▁hữu	-770
▁Có	-771
asino	-772
▁mang	-773
▁thuộc	-774
▁chuẩn	-775
▁thước	-776
▁xét	-777
▁đất	-778
▁di	-779
▁tới	-780
▁dựng	-781
▁ban	-782
ess	-783
ine	-784
▁phép	-785
▁chiến	-786
▁áp	-787
▁tích	-788
ẫu	-789
and	-790
▁khả	-791
▁khó	-792
▁tiến	-793
▁tiếng	-794
▁ngay	-795
▁nghĩa	-796
▁vệ	-797
▁gh	-798
▁lịch	-799
▁Trang	-800
▁thêm	-801
▁ba	-802
▁dùng	-803
▁ngoài	-804
▁tương	-805
▁dễ	-806
▁cá	-807
ãi	-808
NG	-809
▁luôn	-810
▁tuổi	-811
▁âm	-812
▁xây	-813
▁chuyên	-814
▁cô	-815
▁bài	-816
▁giữa	-817
▁200	-818
▁lợi	-819
▁bán	-820
▁tải	-821
▁hãy	-822
one	-823
▁kiểm	-824
▁tối	-825
▁chương	-826
▁Ho	-827
ươi	-828
▁đời	-829
▁gó	-830
uyên	-831
iềm	-832
com	-833
▁dục	-834
▁tức	-835
▁dài	-836
▁màu	-837
▁tinh	-838
▁chống	-839
▁bệnh	-840
▁cảnh	-841
ỉnh	-842
▁ai	-843
▁mở	-844
▁chí	-845
ail	-846
▁2019	-847
10	-848
op	-849
▁văn	-850
▁địa	-851
▁cuối	-852
ain	-853
▁tuyệt	-854
▁vi	-855
▁Hãy	-856
ri	-857
▁2017	-858
▁tử	-859
▁gần	-860
▁lưu	-861
▁nghe	-862
▁100	-863
▁thư	-864
.5	-865
▁giữ	-866
ab	-867
ht	-868
▁An	-869
ặng	-870
▁minh	-871
àu	-872
30	-873
▁St	-874
ex	-875
▁lẽ	-876
▁khỏi	-877
▁đáng	-878
àm	-879
um	-880
▁chết	-881
of	-882
▁Đại	-883
▁túi	-884
ắm	-885
▁kiếm	-886
▁18	-887
ít	-888
▁đưa	-889
ằm	-890
▁đủ	-891
▁tín	-892
ul	-893
▁án	-894
▁trả	-895
▁Không	-896
▁dạy	-897
▁quản	-898
▁mô	-899
ut	-900
ẹp	-901
▁16	-902
▁30	-903
▁Z	-904
▁đồ	-905
▁USD	-906
).	-907
▁cửa	-908
▁Giáo	-909
▁viết	-910
▁hỗ	-911
86	-912
ak	-913
ẩu	-914
âng	-915
ềm	-916
▁thờ	-917
▁Họ	-918
▁nguyên	-919
▁yếu	-920
▁đóng	-921
▁xuống	-922
▁cập	-923
▁luận	-924
▁tượng	-925
▁thần	-926
▁khoản	-927
▁Anh	-928
ẵn	-929
▁hưởng	-930
▁Â	-931
quot	-932
▁Vì	-933
▁dù	-934
▁ống	-935
▁thép	-936
▁giảng	-937
▁giống	-938
ổng	-939
▁nhiệt	-940
▁linh	-941
▁hộ	-942
▁thưởng	-943
▁đàn	-944
▁phúc	-945
▁sẵn	-946
▁Sh	-947
▁xảy	-948
▁kẻ	-949
▁mềm	-950
▁cộng	-951
▁chỉnh	-952
▁dây	-953
),	-954
▁cải	-955
▁sát	-956
▁xăm	-957
▁[	-958
▁lễ	-959
-2	-960
.2	-961
ck	-962
ight	-963
ượt	-964
▁bà	-965
▁tra	-966
▁tội	-967
▁đạt	-968
▁nhóm	-969
▁kim	-970
▁đau	-971
av	-972
art	-973
▁trưởng	-974
▁thử	-975
▁f	-976
▁ước	-977
ừa	-978
▁Á	-979
▁vài	-980
▁Sự	-981
òa	-982
▁diễn	-983
▁tuần	-984
▁sĩ	-985
▁Người	-986
▁khẩu	-987
▁nhanh	-988
▁kể	-989
▁thúc	-990
ep	-991
▁danh	-992
▁cây	-993
▁vẫn	-994
▁diện	-995
ie	-996
▁:	-997
▁tù	-998
ửi	-999
▁tranh	-1000
▁nhập	-1001
▁14	-1002
▁riêng	-1003
▁Mỹ	-1004
td	-1005
▁lệ	-1006
▁Âu	-1007
▁cáo	-1008
▁lỗi	-1009
▁xung	-1010
ẩy	-1011
▁ký	-1012
▁buổi	-1013
od	-1014
ậm	-1015
▁mất	-1016
▁khoảng	-1017
▁chân	-1018
▁xã	-1019
▁13	-1020
▁kiến	-1021
uồn	-1022
▁kích	-1023
80	-1024
▁vời	-1025
▁chia	-1026
▁2016	-1027
uyến	-1028
▁nhiệm	-1029
▁nhớ	-1030
▁ích	-1031
ian	-1032
▁Đông	-1033
▁nghị	-1034
▁toán	-1035
▁vọng	-1036
▁dưới	-1037
▁giảm	-1038
▁Chủ	-1039
▁nguyện	-1040
▁dành	-1041
ct	-1042
ate	-1043
iv	-1044
12	-1045
ộn	-1046
▁25	-1047
▁Tất	-1048
ạp	-1049
▁đứa	-1050
▁£	-1051
▁gặp	-1052
▁gây	-1053
▁tấm	-1054
▁trời	-1055
Ch	-1056
▁Kích	-1057
▁24	-1058
▁rồi	-1059
▁tên	-1060
▁Tải	-1061
▁biểu	-1062
▁thiện	-1063
▁chịu	-1064
ob	-1065
oh	-1066
▁nội	-1067
▁mức	-1068
▁triệu	-1069
ideo	-1070
▁suất	-1071
1,	-1072
60	-1073
▁chung	-1074
ậu	-1075
▁Làm	-1076
▁Sau	-1077
▁Tuy	-1078
▁mặc	-1079
▁mạng	-1080
▁50	-1081
▁xử	-1082
▁lấy	-1083
▁mại	-1084
iệp	-1085
▁lạc	-1086
▁trái	-1087
NH	-1088
▁17	-1089
▁Ô	-1090
▁gửi	-1091
▁môi	-1092
▁Ltd	-1093
▁nhu	-1094
▁gắng	-1095
co	-1096
ust	-1097
▁nền	-1098
ra	-1099
▁ít	-1100
▁hút	-1101
99	-1102
iêm	-1103
▁đảm	-1104
▁u	-1105
▁niên	-1106
▁duy	-1107
▁lành	-1108
ub	-1109
▁thiên	-1110
▁bé	-1111
▁tả	-1112
▁đa	-1113
▁Mar	-1114
▁lãnh	-1115
▁Sản	-1116
▁Liên	-1117
▁ánh	-1118
ox	-1119
▁Để	-1120
iếc	-1121
▁áo	-1122
▁sắc	-1123
ill	-1124
▁mù	-1125
▁Đối	-1126
▁phản	-1127
ers	-1128
▁nổi	-1129
▁bóng	-1130
▁đẹp	-1131
ard	-1132
▁xin	-1133
est	-1134
▁rõ	-1135
▁suy	-1136
yp	-1137
▁Loại	-1138
▁nguồn	-1139
▁càng	-1140
▁bạc	-1141
ax	-1142
úa	-1143
”.	-1144
▁đỡ	-1145
▁vận	-1146
▁xa	-1147
▁luật	-1148
▁sợi	-1149
ưỡ	-1150
eng	-1151
▁chưa	-1152
.3	-1153
▁--	-1154
▁cực	-1155
▁phong	-1156
▁đông	-1157
▁ngành	-1158
▁sẻ	-1159
▁trai	-1160
yl	-1161
▁mối	-1162
▁thiếu	-1163
.000	-1164
▁đúng	-1165
▁Đây	-1166
og	-1167
▁phạm	-1168
▁ơn	-1169
▁chẳng	-1170
▁hôm	-1171
="	-1172
▁hôn	-1173
▁khoa	-1174
▁từng	-1175
▁ngươi	-1176
▁độc	-1177
Th	-1178
▁#	-1179
iếng	-1180
▁chắc	-1181
▁phía	-1182
▁đôi	-1183
ua	-1184
▁ké	-1185
▁dàng	-1186
11	-1187
SO	-1188
▁đá	-1189
▁nối	-1190
▁thánh	-1191
▁hy	-1192
▁gái	-1193
iz	-1194
,5	-1195
ãn	-1196
▁Đó	-1197
▁chấp	-1198
▁tùy	-1199
ếp	-1200
▁mua	-1201
▁loạt	-1202
▁lao	-1203
AN	-1204
▁Van	-1205
all	-1206
ect	-1207
▁Với	-1208
▁tho	-1209
▁Số	-1210
▁mắt	-1211
▁nỗi	-1212
▁hoạch	-1213
▁Phi	-1214
▁khai	-1215
▁bàn	-1216
45	-1217
40	-1218
▁Đị	-1219
▁chiếc	-1220
ell	-1221
▁bảng	-1222
▁Cu	-1223
▁Ngày	-1224
▁ngôn	-1225
▁niềm	-1226
▁lựa	-1227
▁họp	-1228
▁đẩy	-1229
▁phá	-1230
▁quý	-1231
▁xúc	-1232
èn	-1233
▁Tại	-1234
▁thảo	-1235
▁tiện	-1236
▁cắt	-1237
▁đăng	-1238
ord	-1239
▁phủ	-1240
▁Bản	-1241
▁ghi	-1242
▁Man	-1243
▁giả	-1244
▁cử	-1245
▁khổ	-1246
iếp	-1247
ment	-1248
▁tôn	-1249
▁thất	-1250
if	-1251
▁phù	-1252
▁nặng	-1253
▁hồ	-1254
▁tỉnh	-1255
ib	-1256
ook	-1257
▁đứng	-1258
▁Hack	-1259
▁vợ	-1260
▁Phần	-1261
▁vùng	-1262
▁casino	-1263
▁Giá	-1264
▁Trước	-1265
uyết	-1266
▁quân	-1267
▁quanh	-1268
▁khăn	-1269
ist	-1270
▁giác	-1271
▁phối	-1272
▁du	-1273
▁đọc	-1274
▁nhựa	-1275
-5	-1276
▁giản	-1277
▁dạng	-1278
▁bày	-1279
▁La	-1280
▁dung	-1281
25	-1282
▁đáp	-1283
▁bước	-1284
▁lớp	-1285
▁mật	-1286
▁kính	-1287
▁thiệu	-1288
cm	-1289
▁Thiết	-1290
SE	-1291
õi	-1292
▁đoàn	-1293
ew	-1294
▁mẫu	-1295
▁thú	-1296
ver	-1297
▁gói	-1298
▁nhật	-1299
▁sang	-1300
▁chạy	-1301
▁tịch	-1302
▁nhạc	-1303
▁phút	-1304
.7	-1305
▁tốc	-1306
...	-1307
ind	-1308
▁cạnh	-1309
▁mừng	-1310
dro	-1311
uôi	-1312
net	-1313
▁Ro	-1314
▁nằm	-1315
▁Ông	-1316
ỏng	-1317
▁kỷ	-1318
▁thấp	-1319
▁biển	-1320
ach	-1321
▁thủy	-1322
sh	-1323
▁tổng	-1324
uyện	-1325
▁Pr	-1326
19	-1327
▁60	-1328
▁phước	-1329
15	-1330
▁lâu	-1331
▁mong	-1332
▁chiều	-1333
▁đấu	-1334
▁Nhận	-1335
▁bố	-1336
▁xứ	-1337
▁thách	-1338
▁Casino	-1339
▁vv	-1340
▁lĩnh	-1341
▁Hai	-1342
ph	-1343
▁thủ	-1344
16	-1345
▁Kỳ	-1346
▁trách	-1347
.6	-1348
▁TNH	-1349
▁Địa	-1350
▁chắn	-1351
▁sợ	-1352
▁Min	-1353
▁TNHH	-1354
▁vòng	-1355
▁Hoa	-1356
▁Pro	-1357
-0	-1358
▁22	-1359
▁st	-1360
▁ngữ	-1361
▁khiển	-1362
▁nâng	-1363
▁sạch	-1364
▁hồi	-1365
▁vải	-1366
▁Thời	-1367
▁email	-1368
▁°	-1369
ưỡng	-1370
▁video	-1371
-3	-1372
▁?	-1373
▁Do	-1374
▁ngoại	-1375
ão	-1376
ort	-1377
▁40	-1378
▁thậm	-1379
▁bánh	-1380
ik	-1381
oft	-1382
▁nam	-1383
▁2015	-1384
▁nuôi	-1385
▁Thành	-1386
▁©	-1387
▁giám	-1388
▁thăm	-1389
▁Việc	-1390
▁đích	-1391
▁vẻ	-1392
▁hại	-1393
se	-1394
▁đô	-1395
▁đội	-1396
▁vĩnh	-1397
▁mm	-1398
▁ISO	-1399
▁đoạn	-1400
▁Al	-1401
▁Bl	-1402
ina	-1403
▁sơ	-1404
▁bây	-1405
▁tắc	-1406
▁sứ	-1407
▁sai	-1408
▁sâu	-1409
▁giấy	-1410
▁hoá	-1411
--	-1412
▁tỷ	-1413
▁khắp	-1414
▁khiến	-1415
ation	-1416
▁dòng	-1417
▁thuận	-1418
▁Chính	-1419
13	-1420
▁Độ	-1421
▁chú	-1422
▁thi	-1423
▁i	-1424
▁mai	-1425
▁<	-1426
▁Hà	-1427
▁ấn	-1428
▁đền	-1429
▁Theo	-1430
.,	-1431
ash	-1432
▁Danh	-1433
▁vàng	-1434
▁xanh	-1435
▁Chúa	-1436
▁Sp	-1437
▁đêm	-1438
▁Chiều	-1439
▁Nê	-1440
▁trải	-1441
▁chồng	-1442
-8	-1443
▁ràng	-1444
▁thiêng	-1445
ah	-1446
▁thuốc	-1447
bo	-1448
▁2014	-1449
▁dấu	-1450
▁mười	-1451
▁Con	-1452
▁soát	-1453
uyền	-1454
▁Ngh	-1455
▁hầu	-1456
▁phổ	-1457
▁liêng	-1458
.4	-1459
▁Pl	-1460
▁dựa	-1461
▁góp	-1462
▁Ban	-1463
▁cấu	-1464
▁đức	-1465
▁tỏ	-1466
▁Thứ	-1467
▁khắc	-1468
ev	-1469
ick	-1470
▁Vậy	-1471
▁Un	-1472
▁buồn	-1473
▁thập	-1474
▁khóa	-1475
▁Từ	-1476
▁xo	-1477
▁hạnh	-1478
▁loài	-1479
▁vai	-1480
oc	-1481
aser	-1482
▁Túi	-1483
▁nỗ	-1484
▁phi	-1485
▁trì	-1486
▁Cách	-1487
òi	-1488
▁hủy	-1489
.9	-1490
pp	-1491
ót	-1492
▁86	-1493
ress	-1494
▁cam	-1495
▁phim	-1496
▁suốt	-1497
eg	-1498
▁tri	-1499
▁nạn	-1500
▁ổ	-1501
▁bào	-1502
▁dõi	-1503
eat	-1504
▁Tổng	-1505
▁mã	-1506
▁hậu	-1507
75	-1508
▁Mười	-1509
▁quay	-1510
▁thao	-1511
▁Bắc	-1512
▁23	-1513
▁la	-1514
▁đào	-1515
▁Ar	-1516
▁2013	-1517
▁Thái	-1518
▁gỉ	-1519
▁Tin	-1520
ey	-1521
▁€	-1522
▁Lan	-1523
▁mùa	-1524
▁mẽ	-1525
▁mời	-1526
▁hiểm	-1527
ile	-1528
lot	-1529
oly	-1530
▁Tây	-1531
▁trao	-1532
▁Mã	-1533
▁xếp	-1534
▁'	-1535
ech	-1536
▁(2	-1537
▁21	-1538
▁dị	-1539
ff	-1540
▁and	-1541
▁hồn	-1542
▁chữa	-1543
ei	-1544
▁Thông	-1545
▁kéo	-1546
▁vua	-1547
▁~	-1548
▁TH	-1549
▁chăm	-1550
tr	-1551
▁×	-1552
▁Kho	-1553
▁tuân	-1554
ón	-1555
▁ác	-1556
▁sắp	-1557
▁sửa	-1558
▁tảng	-1559
▁(1	-1560
▁diệt	-1561
▁ưu	-1562
▁trạng	-1563
900	-1564
▁by	-1565
▁hơi	-1566
▁Trên	-1567
XL	-1568
▁phê	-1569
oi	-1570
ww	-1571
▁nóng	-1572
23	-1573
▁màn	-1574
ester	-1575
▁châu	-1576
▁hu	-1577
▁lắng	-1578
der	-1579
▁sư	-1580
▁lai	-1581
ert	-1582
▁lẫn	-1583
▁En	-1584
▁ngo	-1585
ói	-1586
ẹn	-1587
ant	-1588
▁To	-1589
▁mát	-1590
▁thái	-1591
▁khích	-1592
.00	-1593
▁CN	-1594
▁hoa	-1595
▁gỗ	-1596
▁bức	-1597
▁Nhật	-1598
▁vững	-1599
▁1,	-1600
SEAN	-1601
▁Nội	-1602
▁dầu	-1603
▁Trọng	-1604
▁tận	-1605
70	-1606
▁Khu	-1607
▁chuyến	-1608
kg	-1609
ast	-1610
▁trữ	-1611
▁chóng	-1612
▁Koh	-1613
▁khuyến	-1614
▁00	-1615
.8	-1616
droid	-1617
▁viện	-1618
ug	-1619
ows	-1620
▁cổ	-1621
ity	-1622
▁26	-1623
▁cửu	-1624
▁hòa	-1625
▁nông	-1626
▁chỗ	-1627
▁hộp	-1628
▁Col	-1629
ov	-1630
▁lái	-1631
▁đâu	-1632
▁niệm	-1633
▁trắng	-1634
▁xuyên	-1635
ủng	-1636
▁thẻ	-1637
▁Wind	-1638
▁Cl	-1639
▁Mc	-1640
▁Car	-1641
▁ngài	-1642
90	-1643
▁sàng	-1644
ies	-1645
▁van	-1646
▁Inter	-1647
ass	-1648
▁35	-1649
▁băng	-1650
ED	-1651
▁cánh	-1652
▁phận	-1653
▁Ngoài	-1654
▁da	-1655
▁cận	-1656
▁Nhiều	-1657
-4	-1658
▁For	-1659
▁CH	-1660
2018	-1661
▁500	-1662
▁hát	-1663
▁may	-1664
▁tránh	-1665
▁Em	-1666
amp	-1667
uổi	-1668
▁ví	-1669
▁sáu	-1670
▁Phụ	-1671
▁cứng	-1672
ce	-1673
▁phiên	-1674
ich	-1675
▁mái	-1676
▁vượt	-1677
▁thí	-1678
35	-1679
▁sóc	-1680
▁tầm	-1681
▁Mark	-1682
-6	-1683
ss	-1684
night	-1685
▁đoán	-1686
▁Quảng	-1687
24	-1688
ru	-1689
ơm	-1690
88	-1691
▁bè	-1692
▁Màu	-1693
▁nhằm	-1694
▁khuyên	-1695
▁Ả	-1696
▁nghỉ	-1697
▁ASEAN	-1698
▁chiếu	-1699
up	-1700
ọt	-1701
ish	-1702
own	-1703
▁tàu	-1704
▁tiểu	-1705
ầng	-1706
▁Cơ	-1707
▁Bài	-1708
▁thuyết	-1709
ite	-1710
.”	-1711
▁ô	-1712
ide	-1713
▁Hồ	-1714
▁cm	-1715
▁2020	-1716
▁ngồi	-1717
▁Hải	-1718
▁tộc	-1719
▁Lu	-1720
lect	-1721
te	-1722
ore	-1723
▁Rong	-1724
▁nhẹ	-1725
▁lệnh	-1726
▁bổ	-1727
▁tệ	-1728
▁bốn	-1729
▁Kinh	-1730
▁miêu	-1731
▁né	-1732
▁hối	-1733
▁lửa	-1734
▁trụ	-1735
▁vừa	-1736
▁ngắn	-1737
ủi	-1738
tt	-1739
▁vũ	-1740
▁a	-1741
▁khỏ	-1742
▁ngôi	-1743
▁lạnh	-1744
▁luyện	-1745
èo	-1746
▁xấu	-1747
▁quang	-1748
▁Android	-1749
14	-1750
▁lược	-1751
▁trận	-1752
oun	-1753
▁Hệ	-1754
▁Fac	-1755
▁Fl	-1756
▁buộc	-1757
▁khởi	-1758
▁McK	-1759
▁Sơn	-1760
▁Thể	-1761
▁Windows	-1762
▁kêu	-1763
▁Nước	-1764
AC	-1765
▁(3	-1766
▁bang	-1767
▁hảo	-1768
▁McKnight	-1769
▁70	-1770
▁New	-1771
▁Năm	-1772
▁nghi	-1773
▁uống	-1774
▁đốc	-1775
▁cuốn	-1776
▁thuê	-1777
74	-1778
▁2,	-1779
▁khảo	-1780
8,	-1781
ok	-1782
▁Thế	-1783
▁căn	-1784
▁núi	-1785
▁Slot	-1786
▁thẳng	-1787
IN	-1788
▁tố	-1789
▁Chỉ	-1790
▁trúc	-1791
▁Thanh	-1792
▁trông	-1793
▁lạ	-1794
▁dường	-1795
ps	-1796
▁cư	-1797
▁Bit	-1798
▁nhờ	-1799
▁khỏe	-1800
coin	-1801
▁cường	-1802
▁al	-1803
▁cân	-1804
▁Hình	-1805
▁phán	-1806
▁thắng	-1807
77	-1808
ix	-1809
▁than	-1810
▁sạn	-1811
▁khuôn	-1812
eth	-1813
▁đèn	-1814
ef	-1815
ặn	-1816
▁đám	-1817
▁start	-1818
▁CO	-1819
▁Như	-1820
▁tạp	-1821
▁Tiếp	-1822
▁chứa	-1823
▁trăm	-1824
age	-1825
▁bì	-1826
ator	-1827
▁đảo	-1828
▁quần	-1829
">	-1830
22	-1831
▁lộ	-1832
▁Đức	-1833
▁tường	-1834
▁Ba	-1835
▁300	-1836
▁Mặc	-1837
ans	-1838
ựng	-1839
▁ổn	-1840
▁trừ	-1841
▁cậy	-1842
▁lắp	-1843
▁lưới	-1844
▁thải	-1845
▁e	-1846
▁lầm	-1847
▁Chương	-1848
▁Thu	-1849
▁cài	-1850
▁dur	-1851
▁sân	-1852
▁chút	-1853
▁bác	-1854
▁lương	-1855
ùn	-1856
ber	-1857
▁(201	-1858
▁Chất	-1859
▁Phát	-1860
VC	-1861
icro	-1862
▁Vào	-1863
▁mãi	-1864
▁ngủ	-1865
▁khối	-1866
ud	-1867
▁hoang	-1868
▁Am	-1869
▁lá	-1870
▁gốc	-1871
▁Minn	-1872
▁dưỡng	-1873
18	-1874
▁dày	-1875
▁não	-1876
▁tai	-1877
▁Thiên	-1878
ER	-1879
▁27	-1880
▁kê	-1881
▁Thủ	-1882
17	-1883
TD	-1884
▁EU	-1885
▁ẩn	-1886
▁bột	-1887
▁hắn	-1888
▁Giới	-1889
▁lò	-1890
▁hạt	-1891
▁đen	-1892
ly	-1893
our	-1894
▁Ex	-1895
▁hàn	-1896
,000	-1897
China	-1898
▁Main	-1899
▁Road	-1900
▁Hol	-1901
▁j	-1902
ames	-1903
▁ngăn	-1904
zh	-1905
▁•	-1906
200	-1907
▁Minh	-1908
▁Ning	-1909
▁Chứng	-1910
cr	-1911
▁Kế	-1912
▁tụ	-1913
▁thụ	-1914
▁tấn	-1915
▁sổ	-1916
▁kia	-1917
▁thù	-1918
▁khám	-1919
:/	-1920
io	-1921
▁Gh	-1922
▁hấp	-1923
ection	-1924
▁Thương	-1925
28	-1926
gle	-1927
▁Cr	-1928
▁bền	-1929
▁nhôm	-1930
33	-1931
▁Ad	-1932
▁Com	-1933
▁PC	-1934
▁Air	-1935
▁Mai	-1936
▁Dịch	-1937
2,	-1938
du	-1939
ge	-1940
://	-1941
▁Sử	-1942
line	-1943
▁họa	-1944
ụp	-1945
▁You	-1946
▁gió	-1947
▁khung	-1948
26	-1949
▁»	-1950
▁Ý	-1951
ườn	-1952
lock	-1953
▁bảy	-1954
▁Đăng	-1955
▁nghiêm	-1956
ẹo	-1957
ớn	-1958
:00	-1959
▁Ser	-1960
▁ngạc	-1961
▁trần	-1962
▁Phòng	-1963
▁Thánh	-1964
are	-1965
ive	-1966
per	-1967
▁Mỗi	-1968
▁hiển	-1969
▁liệt	-1970
▁đựng	-1971
az	-1972
▁=	-1973
▁gắn	-1974
▁Bitcoin	-1975
9,	-1976
att	-1977
ost	-1978
▁tồn	-1979
▁Ningbo	-1980
Tr	-1981
▁Tên	-1982
▁móc	-1983
▁giết	-1984
▁Giang	-1985
▁Can	-1986
oogle	-1987
▁Prot	-1988
▁giận	-1989
▁chuyền	-1990
ame	-1991
▁Gr	-1992
▁Quỹ	-1993
▁phun	-1994
OS	-1995
▁ac	-1996
▁ca	-1997
▁Sam	-1998
Ph	-1999
ứt	-2000
▁hạ	-2001
▁mươi	-2002
36	-2003
▁món	-2004
▁điệp	-2005
▁thượng	-2006
▁Br	-2007
▁cà	-2008
▁of	-2009
ID	-2010
ark	-2011
▁máu	-2012
▁đợi	-2013
▁cháu	-2014
▁tĩnh	-2015
▁Forex	-2016
ath	-2017
▁bại	-2018
▁mực	-2019
iss	-2020
▁dỗ	-2021
olog	-2022
▁Bởi	-2023
▁ép	-2024
▁Ảnh	-2025
▁quảng	-2026
ota	-2027
▁PH	-2028
▁đòi	-2029
▁trục	-2030
▁đỉnh	-2031
▁hứa	-2032
▁Thật	-2033
▁nghiền	-2034
▁80	-2035
▁quà	-2036
▁tướng	-2037
85	-2038
bon	-2039
man	-2040
ork	-2041
ypt	-2042
▁Lào	-2043
▁Văn	-2044
▁sắt	-2045
▁gương	-2046
ice	-2047
ith	-2048
▁LTD	-2049
▁Yêu	-2050
▁thôi	-2051
ton	-2052
▁Xem	-2053
▁sung	-2054
▁Dương	-2055
▁Về	-2056
▁Bot	-2057
▁can	-2058
▁htt	-2059
▁tòa	-2060
▁Ấ	-2061
▁Dòng	-2062
▁1000	-2063
▁tầng	-2064
▁chăng	-2065
AM	-2066
▁TR	-2067
▁đổ	-2068
▁cầm	-2069
▁đừng	-2070
ĩa	-2071
▁ngờ	-2072
▁Trời	-2073
▁Vess	-2074
▁khôn	-2075
▁ngân	-2076
▁sóng	-2077
▁Vessoft	-2078
EM	-2079
▁nén	-2080
▁Được	-2081
ue	-2082
▁AP	-2083
▁No	-2084
▁Ví	-2085
▁ly	-2086
▁Cho	-2087
▁bơm	-2088
▁đem	-2089
▁kiên	-2090
▁bề	-2091
▁Mẫu	-2092
▁100%	-2093
lector	-2094
21	-2095
org	-2096
▁Câu	-2097
▁150	-2098
▁Xin	-2099
▁chờ	-2100
▁tái	-2101
▁quen	-2102
ens	-2103
ượu	-2104
▁Bon	-2105
▁vốn	-2106
▁Bằng	-2107
▁cuộn	-2108
▁giai	-2109
olyester	-2110
95	-2111
AS	-2112
▁GB	-2113
▁ân	-2114
▁cược	-2115
▁đuổi	-2116
94	-2117
EC	-2118
ộp	-2119
▁LED	-2120
▁mến	-2121
▁kiệm	-2122
▁Micro	-2123
▁dương	-2124
ếm	-2125
ont	-2126
▁1.	-2127
▁Ấn	-2128
▁phó	-2129
▁rối	-2130
▁chào	-2131
ET	-2132
kh	-2133
▁±	-2134
▁lối	-2135
▁Internet	-2136
▁lãm	-2137
▁mắc	-2138
ead	-2139
▁Equ	-2140
▁cơn	-2141
▁nhấn	-2142
old	-2143
▁cờ	-2144
echn	-2145
▁28	-2146
ilic	-2147
▁rao	-2148
▁siêu	-2149
▁Minnes	-2150
▁Trường	-2151
ry	-2152
▁On	-2153
▁Chí	-2154
▁Kết	-2155
▁hài	-2156
▁tiềm	-2157
ipment	-2158
▁ngoan	-2159
let	-2160
▁Hu	-2161
▁đột	-2162
▁ngược	-2163
GH	-2164
ear	-2165
vir	-2166
▁che	-2167
Tiếng	-2168
▁Thực	-2169
▁tha	-2170
▁vân	-2171
▁hack	-2172
▁tách	-2173
ỏa	-2174
ớm	-2175
▁Ở	-2176
▁CNC	-2177
▁bật	-2178
▁nhắc	-2179
tor	-2180
▁Xu	-2181
▁dệt	-2182
▁tán	-2183
ee	-2184
▁36	-2185
aric	-2186
▁coi	-2187
▁tặng	-2188
aw	-2189
ank	-2190
▁45	-2191
hình	-2192
▁PVC	-2193
▁Bình	-2194
▁thoát	-2195
yr	-2196
ẫm	-2197
log	-2198
▁3,	-2199
▁đỏ	-2200
▁tắt	-2201
▁Equipment	-2202
▁EUR	-2203
▁rãi	-2204
▁vinh	-2205
ipp	-2206
▁90	-2207
▁Khoa	-2208
▁Slots	-2209
▁Collector	-2210
press	-2211
▁Nhân	-2212
ram	-2213
rop	-2214
▁Tám	-2215
▁kiểu	-2216
▁kháng	-2217
▁Protection	-2218
▁mạ	-2219
▁Hướng	-2220
▁thang	-2221
▁Thường	-2222
ins	-2223
▁0,	-2224
▁nhị	-2225
ology	-2226
▁Cuối	-2227
▁biên	-2228
▁Minnesota	-2229
Heb	-2230
int	-2231
▁Cô	-2232
▁cám	-2233
▁huy	-2234
▁Mach	-2235
▁Pháp	-2236
▁Botou	-2237
▁tuyên	-2238
76	-2239
ock	-2240
▁Bán	-2241
▁Bảo	-2242
▁Giờ	-2243
▁tổn	-2244
viron	-2245
vironment	-2246
ẽm	-2247
▁Phó	-2248
▁Vải	-2249
▁bầu	-2250
▁đón	-2251
▁Thượng	-2252
vironmental	-2253
▁tim	-2254
▁Environmental	-2255
ml	-2256
▁tắm	-2257
▁sông	-2258
▁Tư	-2259
▁dã	-2260
▁môn	-2261
▁ráp	-2262
▁Đầu	-2263
▁thác	-2264
▁tùng	-2265
▁laser	-2266
eal	-2267
▁Du	-2268
uyển	-2269
▁Mục	-2270
▁sớm	-2271
▁hạng	-2272
96	-2273
af	-2274
▁Sk	-2275
▁bê	-2276
▁Ind	-2277
▁Lời	-2278
▁chữ	-2279
▁khá	-2280
▁kém	-2281
▁Giải	-2282
TA	-2283
/201	-2284
ower	-2285
▁dần	-2286
▁ghế	-2287
▁lục	-2288
▁đớn	-2289
Hebei	-2290
▁Ngay	-2291
▁Nguy	-2292
ía	-2293
▁hãi	-2294
▁mòn	-2295
▁sánh	-2296
3,	-2297
CH	-2298
ren	-2299
▁Hỗ	-2300
▁Vật	-2301
▁ngũ	-2302
▁pha	-2303
▁rào	-2304
▁Google	-2305
▁32	-2306
▁ox	-2307
▁Dav	-2308
▁ngàn	-2309
ial	-2310
ush	-2311
▁75	-2312
▁rơi	-2313
▁Đảo	-2314
▁Thay	-2315
PS	-2316
cl	-2317
duct	-2318
▁Báo	-2319
▁khiêm	-2320
▁Đường	-2321
▁vĩ	-2322
▁rời	-2323
▁chặt	-2324
▁nghề	-2325
▁tràn	-2326
DF	-2327
ebook	-2328
▁Long	-2329
▁thận	-2330
sm	-2331
ets	-2332
uan	-2333
▁Dự	-2334
▁xi	-2335
▁Đen	-2336
▁cháy	-2337
▁nhiễ	-2338
MP	-2339
eel	-2340
▁Fr	-2341
▁hò	-2342
▁Bây	-2343
▁Pay	-2344
▁Sol	-2345
▁Thị	-2346
▁Tài	-2347
▁Hiệp	-2348
▁mạch	-2349
2)	-2350
7,	-2351
AR	-2352
ure	-2353
▁HD	-2354
▁Mô	-2355
▁góc	-2356
▁rượu	-2357
▁phiếu	-2358
echnology	-2359
by	-2360
ube	-2361
▁AC	-2362
▁Thẻ	-2363
▁củng	-2364
▁Quyến	-2365
▁thiểu	-2366
ve	-2367
ane	-2368
ean	-2369
▁29	-2370
▁Or	-2371
▁Cuộc	-2372
▁loạn	-2373
▁Bonus	-2374
▁hương	-2375
▁Chuyển	-2376
44	-2377
Nh	-2378
▁DC	-2379
ated	-2380
▁cáp	-2381
▁rút	-2382
▁Sinh	-2383
go	-2384
ấng	-2385
▁Là	-2386
▁Cop	-2387
▁Kit	-2388
▁Tìm	-2389
▁hẹn	-2390
enn	-2391
▁Tu	-2392
▁nắm	-2393
▁Thâm	-2394
▁chụp	-2395
▁thầy	-2396
▁tiêm	-2397
▁vuông	-2398
eed	-2399
▁IP	-2400
▁Gia	-2401
▁Nga	-2402
chain	-2403
▁Hàng	-2404
▁diệu	-2405
▁cs	-2406
▁khô	-2407
▁mét	-2408
▁giây	-2409
▁gánh	-2410
▁nhẫn	-2411
TT	-2412
▁cất	-2413
▁kẽm	-2414
▁tóc	-2415
▁Dust	-2416
/0	-2417
▁Cam	-2418
▁tàn	-2419
▁ngọn	-2420
▁ninh	-2421
▁Video	-2422
▁ngang	-2423
▁phẳng	-2424
▁Ma	-2425
▁ma	-2426
▁cặp	-2427
obile	-2428
▁Chơi	-2429
▁viễn	-2430
ery	-2431
▁sp	-2432
▁Gen	-2433
▁Chín	-2434
▁căng	-2435
89	-2436
:5	-2437
ốm	-2438
ớt	-2439
ada	-2440
uch	-2441
▁Web	-2442
▁nửa	-2443
▁đĩa	-2444
▁inch	-2445
▁nhắn	-2446
):	-2447
1%	-2448
CL	-2449
lex	-2450
▁Su	-2451
▁Par	-2452
▁Đôi	-2453
▁chủng	-2454
▁duyệt	-2455
pc	-2456
▁0086	-2457
▁Holm	-2458
▁Tiền	-2459
▁tròn	-2460
▁đương	-2461
▁31	-2462
▁CE	-2463
▁bí	-2464
▁cr	-2465
▁chép	-2466
▁thịt	-2467
▁trại	-2468
▁chiếm	-2469
èm	-2470
orm	-2471
ric	-2472
▁buôn	-2473
▁cười	-2474
▁trọn	-2475
▁ương	-2476
▁Laser	-2477
lockchain	-2478
ons	-2479
rom	-2480
▁Wh	-2481
▁tô	-2482
ille	-2483
▁thấm	-2484
▁David	-2485
▁trưng	-2486
ụy	-2487
▁mơ	-2488
iang	-2489
▁Bao	-2490
▁đốt	-2491
ink	-2492
load	-2493
▁miền	-2494
ace	-2495
erb	-2496
▁CS	-2497
▁Gl	-2498
▁Chu	-2499
▁Lưu	-2500
▁Cộng	-2501
▁nhảy	-2502
▁phức	-2503
73	-2504
▁cũ	-2505
▁App	-2506
▁Hơn	-2507
▁đai	-2508
IC	-2509
ọa	-2510
▁Sc	-2511
▁khử	-2512
▁soi	-2513
▁Tool	-2514
▁phấn	-2515
▁nhiêu	-2516
▁Rồi	-2517
▁chứ	-2518
▁Quản	-2519
▁chảy	-2520
▁phỏng	-2521
cy	-2522
end	-2523
ond	-2524
osh	-2525
▁2.	-2526
▁et	-2527
▁Cao	-2528
▁Thư	-2529
▁thô	-2530
▁đạp	-2531
▁lỏng	-2532
éo	-2533
▁o	-2534
Máy	-2535
▁ẩm	-2536
▁Dây	-2537
▁Jet	-2538
▁Nhãn	-2539
▁Quận	-2540
▁hùng	-2541
▁lãng	-2542
▁điển	-2543
55	-2544
ùa	-2545
ary	-2546
oid	-2547
▁am	-2548
▁dọc	-2549
▁ủng	-2550
ducts	-2551
▁khẩn	-2552
▁quên	-2553
▁răng	-2554
▁ngừng	-2555
32	-2556
ade	-2557
▁XL	-2558
rist	-2559
▁Chị	-2560
▁Val	-2561
▁dâm	-2562
▁mạc	-2563
▁2011	-2564
▁xương	-2565
?—	-2566
IL	-2567
TC	-2568
-10	-2569
100	-2570
ase	-2571
▁Zh	-2572
▁Đã	-2573
soft	-2574
▁lừa	-2575
▁Giao	-2576
▁chuột	-2577
▁Polyester	-2578
▁Gu	-2579
▁lẻ	-2580
ater	-2581
▁Bột	-2582
▁tật	-2583
▁Miễn	-2584
▁chặn	-2585
▁khủng	-2586
▁Sáu	-2587
▁gía	-2588
▁cổng	-2589
▁Đánh	-2590
▁Chiết	-2591
▁khiêu	-2592
4,	-2593
OB	-2594
PC	-2595
ST	-2596
-20	-2597
able	-2598
land	-2599
▁Mua	-2600
▁đúc	-2601
▁Tiêu	-2602
▁huấn	-2603
▁trượt	-2604
ui	-2605
ễn	-2606
▁Bà	-2607
▁bó	-2608
▁ro	-2609
▁600	-2610
▁Nói	-2611
▁chó	-2612
▁lão	-2613
▁tan	-2614
▁Xanh	-2615
▁Nhiệt	-2616
▁nhánh	-2617
!!	-2618
46	-2619
Kh	-2620
▁—	-2621
erts	-2622
▁+86	-2623
▁yên	-2624
ookie	-2625
▁thoải	-2626
▁trích	-2627
▁Technology	-2628
29	-2629
▁ảo	-2630
atch	-2631
▁pin	-2632
▁vâng	-2633
▁trống	-2634
ộm	-2635
act	-2636
ene	-2637
ner	-2638
▁Tw	-2639
▁mê	-2640
▁xả	-2641
▁250	-2642
▁bùn	-2643
▁cán	-2644
▁gấp	-2645
▁Giấy	-2646
▁Ngân	-2647
▁ngại	-2648
ậc	-2649
▁≤	-2650
ree	-2651
▁NH	-2652
▁Sa	-2653
▁gỡ	-2654
▁120	-2655
▁trộn	-2656
▁Cheat	-2657
▁Facebook	-2658
ìa	-2659
ướp	-2660
▁Hi	-2661
▁Bàn	-2662
▁Trò	-2663
▁bơi	-2664
▁2010	-2665
▁quán	-2666
▁Khách	-2667
▁trồng	-2668
5,	-2669
▁Hy	-2670
▁cắm	-2671
▁oxy	-2672
▁sơn	-2673
▁đáo	-2674
▁Phải	-2675
▁giàu	-2676
▁vườn	-2677
▁Đồng	-2678
▁nhiễm	-2679
▁nhuận	-2680
▁Nguyễn	-2681
▁Ủ	-2682
▁●	-2683
eph	-2684
ờng	-2685
▁bữa	-2686
▁dậy	-2687
▁Tiến	-2688
▁game	-2689
den	-2690
out	-2691
▁Lo	-2692
-201	-2693
▁Cảm	-2694
▁Nha	-2695
▁trú	-2696
▁Hiện	-2697
▁thảm	-2698
▁trôi	-2699
▁nghèo	-2700
ốp	-2701
▁Tự	-2702
▁UV	-2703
▁kg	-2704
▁bậc	-2705
▁cản	-2706
▁xách	-2707
▁nhường	-2708
su	-2709
▁GI	-2710
▁Si	-2711
▁tị	-2712
▁Hàn	-2713
▁ngập	-2714
▁Đừng	-2715
▁Games	-2716
▁Giáng	-2717
39	-2718
SM	-2719
▁KH	-2720
▁dối	-2721
▁vết	-2722
▁Bảng	-2723
▁Chào	-2724
▁chuỗi	-2725
66	-2726
oll	-2727
oth	-2728
ụng	-2729
▁Dù	-2730
▁mũ	-2731
▁1500	-2732
▁Kiểm	-2733
▁giày	-2734
▁ngẫu	-2735
5)	-2736
ON	-2737
ãnh	-2738
▁lốc	-2739
▁mảnh	-2740
▁certs	-2741
AP	-2742
ium	-2743
▁IT	-2744
▁Ủy	-2745
▁800	-2746
▁Mac	-2747
▁bão	-2748
▁Giám	-2749
▁Triển	-2750
27	-2751
38	-2752
CC	-2753
eta	-2754
▁Tổ	-2755
▁hề	-2756
▁tà	-2757
▁400	-2758
▁70%	-2759
▁Mal	-2760
▁Tập	-2761
9001,	-2762
▁Word	-2763
▁thỏa	-2764
▁Products	-2765
▁Rel	-2766
▁cát	-2767
▁lăn	-2768
▁mấy	-2769
edust	-2770
▁2000	-2771
▁cướp	-2772
▁trùng	-2773
▁Microsoft	-2774
mp	-2775
ướt	-2776
▁Ac	-2777
▁lan	-2778
▁rỗi	-2779
▁chối	-2780
▁khát	-2781
▁phóng	-2782
▁Mobile	-2783
ull	-2784
▁ax	-2785
▁tờ	-2786
▁vỡ	-2787
▁ấm	-2788
▁Bất	-2789
▁the	-2790
▁Camp	-2791
▁Chọn	-2792
▁hiệp	-2793
▁nhãn	-2794
▁chiên	-2795
67	-2796
ớp	-2797
ics	-2798
▁Sm	-2799
▁Cân	-2800
▁Cập	-2801
▁chín	-2802
▁lồng	-2803
ne	-2804
ux	-2805
▁lỗ	-2806
▁lặp	-2807
▁Khóa	-2808
▁giành	-2809
▁giường	-2810
34	-2811
:0	-2812
iet	-2813
▁nọ	-2814
▁pl	-2815
▁Town	-2816
▁lông	-2817
▁ngẫm	-2818
▁xoáy	-2819
▁xứng	-2820
▁nghịch	-2821
2.	-2822
98	-2823
SA	-2824
ưỡi	-2825
▁FX	-2826
ella	-2827
▁Học	-2828
▁Kim	-2829
▁uốn	-2830
▁chăn	-2831
▁chấm	-2832
▁xuân	-2833
▁lề	-2834
ited	-2835
▁Pet	-2836
▁Đặc	-2837
▁biện	-2838
▁chai	-2839
▁hồng	-2840
▁Chẳng	-2841
▁Trắng	-2842
▁khẳng	-2843
pl	-2844
riv	-2845
▁Max	-2846
▁quỹ	-2847
▁sót	-2848
▁phượng	-2849
CN	-2850
IỆ	-2851
ound	-2852
▁gốm	-2853
▁rủi	-2854
▁Luật	-2855
▁Thụy	-2856
Ng	-2857
UM	-2858
ãng	-2859
▁Bu	-2860
ized	-2861
▁OEM	-2862
▁Heng	-2863
▁tuyết	-2864
37	-2865
6,	-2866
68	-2867
ero	-2868
ood	-2869
ướm	-2870
▁El	-2871
▁cl	-2872
▁Thép	-2873
▁Tính	-2874
▁Tiếng	-2875
47	-2876
Hz	-2877
▁Ứ	-2878
500	-2879
ats	-2880
ays	-2881
era	-2882
ere	-2883
isa	-2884
ohn	-2885
und	-2886
▁ngã	-2887
▁Đặt	-2888
▁Đọc	-2889
▁Thêm	-2890
▁dừng	-2891
▁hứng	-2892
▁khóc	-2893
▁lượt	-2894
▁khiết	-2895
9)	-2896
AD	-2897
ti	-2898
▁3.	-2899
▁6,	-2900
▁Áp	-2901
▁cẩn	-2902
▁sàn	-2903
▁Cũng	-2904
▁chim	-2905
▁Power	-2906
▁Vương	-2907
▁tuyển	-2908
▁thuyền	-2909
In	-2910
”,	-2911
esh	-2912
▁4,	-2913
▁bọn	-2914
▁dứt	-2915
▁rắn	-2916
▁ngựa	-2917
▁phiền	-2918
▁8,	-2919
▁lồ	-2920
▁PDF	-2921
▁súc	-2922
▁Chiến	-2923
4)	-2924
ủa	-2925
▁rẻ	-2926
▁20%	-2927
▁Hyp	-2928
▁chợ	-2929
▁đói	-2930
yptoc	-2931
▁Sáng	-2932
▁thùng	-2933
een	-2934
ron	-2935
▁Sw	-2936
....	-2937
uchia	-2938
▁Nghệ	-2939
31	-2940
AT	-2941
OT	-2942
ẳn	-2943
iệng	-2944
▁Tòa	-2945
▁tám	-2946
▁Ứng	-2947
▁Viện	-2948
IT	-2949
ft	-2950
pcs	-2951
▁CP	-2952
ines	-2953
▁car	-2954
▁Thưa	-2955
▁Tình	-2956
▁Đấng	-2957
ale	-2958
yst	-2959
▁PR	-2960
▁Hot	-2961
▁Lin	-2962
▁cai	-2963
▁binh	-2964
▁thừa	-2965
ES	-2966
SD	-2967
.10	-2968
ode	-2969
urg	-2970
▁Giê	-2971
▁Môn	-2972
▁The	-2973
▁bắc	-2974
▁gom	-2975
itter	-2976
▁mệnh	-2977
ein	-2978
ÔNG	-2979
▁37	-2980
▁sh	-2981
▁ủi	-2982
tain	-2983
▁Bag	-2984
▁cột	-2985
▁mãn	-2986
▁nút	-2987
-7	-2988
to	-2989
ươm	-2990
▁hổ	-2991
▁lũ	-2992
▁kín	-2993
▁www	-2994
ville	-2995
uk	-2996
▁‘	-2997
lim	-2998
ome	-2999
▁Be	-3000
ical	-3001
▁HGH	-3002
▁Rou	-3003
▁bạo	-3004
▁kèm	-3005
▁túc	-3006
▁vẹn	-3007
▁Đơn	-3008
▁Black	-3009
▁Dedust	-3010
▁Machin	-3011
65	-3012
BS	-3013
ma	-3014
▁CD	-3015
▁sa	-3016
▁Bảy	-3017
▁Tag	-3018
▁Kitô	-3019
▁màng	-3020
▁xoắn	-3021
▁chàng	-3022
OR	-3023
ho	-3024
ỡi	-3025
cel	-3026
▁5,	-3027
ider	-3028
▁Mặt	-3029
▁Top	-3030
▁bãi	-3031
▁dại	-3032
▁mây	-3033
▁2012	-3034
▁bông	-3035
▁liền	-3036
▁tông	-3037
91	-3038
www	-3039
▁(5	-3040
▁Bo	-3041
▁PM	-3042
▁ad	-3043
▁at	-3044
ford	-3045
▁(1)	-3046
▁Sức	-3047
▁Tấm	-3048
▁USB	-3049
▁War	-3050
▁bối	-3051
▁già	-3052
▁lâm	-3053
▁Inst	-3054
▁bướm	-3055
▁đẳng	-3056
Gi	-3057
ipt	-3058
orn	-3059
ose	-3060
▁Me	-3061
▁vẽ	-3062
▁Ben	-3063
▁Net	-3064
▁cốt	-3065
▁mắn	-3066
▁đồi	-3067
Phone	-3068
▁hoan	-3069
▁http	-3070
▁nghiện	-3071
ordpress	-3072
41	-3073
ẫy	-3074
ibb	-3075
ire	-3076
les	-3077
pro	-3078
▁Di	-3079
uang	-3080
▁220	-3081
▁phú	-3082
▁List	-3083
▁Tiệc	-3084
▁măng	-3085
▁song	-3086
Bộ	-3087
EN	-3088
rui	-3089
▁Vị	-3090
▁mì	-3091
▁vỏ	-3092
obot	-3093
otor	-3094
▁vít	-3095
▁Bill	-3096
▁dược	-3097
▁lanh	-3098
▁Canada	-3099
irt	-3100
ley	-3101
ênh	-3102
▁hè	-3103
ylon	-3104
arton	-3105
▁Diễn	-3106
▁Quần	-3107
▁lính	-3108
▁sòng	-3109
▁khổng	-3110
3)	-3111
▁Ú	-3112
▁ID	-3113
▁fl	-3114
▁đấy	-3115
▁đếm	-3116
▁hiến	-3117
▁hoạn	-3118
▁phẫu	-3119
▁hoàng	-3120
▁https	-3121
6)	-3122
SS	-3123
ept	-3124
▁01	-3125
▁55	-3126
▁Ai	-3127
▁bò	-3128
▁Cốc	-3129
▁sưu	-3130
▁Đào	-3131
urren	-3132
▁Miss	-3133
▁Tham	-3134
erbaric	-3135
yptocurren	-3136
8)	-3137
fl	-3138
xy	-3139
ấc	-3140
▁bi	-3141
▁Úc	-3142
▁rửa	-3143
▁tia	-3144
▁John	-3145
▁trấn	-3146
▁Online	-3147
▁Campuchia	-3148
▁@	-3149
▁→	-3150
▁>>	-3151
▁as	-3152
▁cỏ	-3153
▁mộ	-3154
▁Cầu	-3155
▁San	-3156
▁hào	-3157
▁tốn	-3158
▁đua	-3159
▁trắc	-3160
▁huống	-3161
▁vương	-3162
ise	-3163
”.—	-3164
▁SM	-3165
▁Uk	-3166
▁ak	-3167
▁cậu	-3168
▁sấy	-3169
▁Phân	-3170
▁thuế	-3171
▁thổi	-3172
▁Tương	-3173
-9	-3174
72	-3175
LC	-3176
ka	-3177
rm	-3178
con	-3179
oss	-3180
▁May	-3181
▁hẳn	-3182
▁iOS	-3183
▁csgo	-3184
▁huyện	-3185
▁thiệt	-3186
IP	-3187
ifi	-3188
▁33	-3189
▁tứ	-3190
▁Áo	-3191
▁ủy	-3192
▁0.1	-3193
▁61%	-3194
▁đài	-3195
▁Quan	-3196
▁khen	-3197
▁thẩm	-3198
▁Đóng	-3199
▁chuộc	-3200
▁Christ	-3201
▁cookie	-3202
▁Related	-3203
ger	-3204
nam	-3205
▁Lễ	-3206
▁MI	-3207
▁PP	-3208
▁nổ	-3209
Tube	-3210
tory	-3211
▁Ang	-3212
▁Khả	-3213
▁Mới	-3214
▁dán	-3215
▁khe	-3216
▁Jack	-3217
▁Năng	-3218
▁thói	-3219
▁·	-3220
345	-3221
▁1:	-3222
▁38	-3223
▁Xe	-3224
▁hư	-3225
▁nô	-3226
▁Hôm	-3227
▁Hầu	-3228
▁Lọc	-3229
▁tạm	-3230
▁ung	-3231
▁Cung	-3232
▁Lịch	-3233
▁Phúc	-3234
▁khoan	-3235
▁Hengrui	-3236
CO	-3237
HS	-3238
ara	-3239
▁Cy	-3240
ones	-3241
▁Vàng	-3242
▁chìm	-3243
▁liều	-3244
▁thai	-3245
▁iPhone	-3246
sk	-3247
---	-3248
han	-3249
olt	-3250
son	-3251
▁7,	-3252
▁Op	-3253
▁Tỉ	-3254
▁gọn	-3255
▁tần	-3256
cript	-3257
lette	-3258
▁tour	-3259
9.	-3260
AL	-3261
IF	-3262
pr	-3263
Các	-3264
gor	-3265
pot	-3266
▁dò	-3267
▁ga	-3268
▁ốc	-3269
▁1.5	-3270
▁FOB	-3271
▁Red	-3272
▁Tan	-3273
▁lộn	-3274
▁Băng	-3275
▁Dưới	-3276
▁Nhóm	-3277
▁khái	-3278
▁ngừa	-3279
▁xinh	-3280
▁xong	-3281
▁Hyperbaric	-3282
48	-3283
GO	-3284
da	-3285
gi	-3286
mg	-3287
-12	-3288
iel	-3289
ype	-3290
▁4.	-3291
▁Lê	-3292
▁nợ	-3293
▁19,	-3294
▁Cửa	-3295
▁PCB	-3296
▁Tạo	-3297
▁lận	-3298
▁đãi	-3299
▁đùn	-3300
▁Tatt	-3301
▁trốn	-3302
ibbean	-3303
▁miệng	-3304
▁quyển	-3305
MC	-3306
PP	-3307
de	-3308
▁;	-3309
/12	-3310
ưởi	-3311
▁cỡ	-3312
▁Đo	-3313
▁Chi	-3314
▁Mọi	-3315
▁Rất	-3316
▁Tốc	-3317
▁chở	-3318
▁tây	-3319
▁xóm	-3320
▁Char	-3321
▁axit	-3322
▁khía	-3323
▁Caribbean	-3324
7)	-3325
St	-3326
cc	-3327
eet	-3328
▁FS	-3329
▁Tô	-3330
▁tú	-3331
▁Bên	-3332
▁Pal	-3333
▁bếp	-3334
▁dịp	-3335
▁sôi	-3336
▁gươm	-3337
▁Phiên	-3338
▁Tattoo	-3339
▁Machinery	-3340
78	-3341
EL	-3342
-15	-3343
aul	-3344
min	-3345
uit	-3346
xin	-3347
▁de	-3348
▁mi	-3349
ster	-3350
▁lót	-3351
▁lạm	-3352
▁chán	-3353
▁khải	-3354
▁miếng	-3355
kw	-3356
na	-3357
ẤT	-3358
ỗng	-3359
▁34	-3360
▁Sơ	-3361
▁tủ	-3362
▁Xây	-3363
▁bớt	-3364
▁mưa	-3365
▁86-5	-3366
▁Live	-3367
ternet	-3368
▁YouTube	-3369
ML	-3370
ke	-3371
ble	-3372
ime	-3373
▁39	-3374
▁ex	-3375
▁pr	-3376
loem	-3377
olor	-3378
▁Bas	-3379
▁Gre	-3380
▁Res	-3381
▁lợp	-3382
▁mỏi	-3383
oster	-3384
▁Hành	-3385
▁chậm	-3386
▁hằng	-3387
▁rung	-3388
▁thịnh	-3389
▁Nghiên	-3390
▁Phương	-3391
▁carbon	-3392
TF	-3393
▁z	-3394
gen	-3395
▁co	-3396
irus	-3397
▁110	-3398
▁Hộp	-3399
▁khứ	-3400
▁kẹo	-3401
▁mod	-3402
▁nấu	-3403
▁Dong	-3404
▁nhạy	-3405
▁nhấp	-3406
▁tươi	-3407
▁Light	-3408
▁Factory	-3409
Sh	-3410
va	-3411
ùi	-3412
ùm	-3413
▁OD	-3414
▁Geo	-3415
▁ham	-3416
▁thổ	-3417
▁Hiệu	-3418
▁Hoặc	-3419
▁Đảng	-3420
ek	-3421
ake	-3422
raz	-3423
▁Le	-3424
▁bờ	-3425
mail	-3426
▁12,	-3427
▁Gọi	-3428
▁Mat	-3429
▁Off	-3430
▁for	-3431
▁mùi	-3432
▁ser	-3433
Press	-3434
▁Phil	-3435
▁Giống	-3436
▁Quyền	-3437
▁ngưỡng	-3438
93	-3439
AMI	-3440
byg	-3441
ico	-3442
jian	-3443
▁Aut	-3444
▁Bar	-3445
▁Hợp	-3446
▁Lên	-3447
▁Tốt	-3448
▁mệt	-3449
không	-3450
▁Samloem	-3451
5.	-3452
br	-3453
và	-3454
anc	-3455
oph	-3456
▁ru	-3457
▁10,	-3458
▁900	-3459
▁Lúc	-3460
▁Sch	-3461
▁báu	-3462
▁nản	-3463
▁ướt	-3464
▁Sách	-3465
▁dính	-3466
▁giấu	-3467
▁kịch	-3468
▁Nguồn	-3469
▁khiếp	-3470
limited	-3471
300	-3472
eck	-3473
iao	-3474
uro	-3475
▁05	-3476
▁My	-3477
▁SP	-3478
▁Ta	-3479
▁cú	-3480
▁Đồ	-3481
▁ức	-3482
▁Gal	-3483
▁Kar	-3484
▁Pre	-3485
▁sạc	-3486
enoid	-3487
▁Comp	-3488
▁Mini	-3489
▁Xuân	-3490
▁York	-3491
▁kênh	-3492
▁làng	-3493
▁Điển	-3494
bygden	-3495
ilicon	-3496
84	-3497
▁\	-3498
App	-3499
aph	-3500
inj	-3501
▁VÀ	-3502
▁mờ	-3503
▁10%	-3504
▁11,	-3505
▁Dân	-3506
▁Này	-3507
▁Qua	-3508
▁mài	-3509
▁mạo	-3510
▁nêu	-3511
▁thơ	-3512
▁nhịn	-3513
▁Giêng	-3514
▁cheat	-3515
SP	-3516
ệm	-3517
ool	-3518
▁($	-3519
▁65	-3520
▁Is	-3521
▁RF	-3522
oint	-3523
▁Cor	-3524
▁Win	-3525
▁bọc	-3526
▁lôi	-3527
▁vòi	-3528
▁chạm	-3529
▁Động	-3530
erator	-3531
▁Youjian	-3532
69	-3533
QS	-3534
-19	-3535
▁CF	-3536
▁MH	-3537
▁un	-3538
▁0.0	-3539
▁Bel	-3540
▁Pin	-3541
▁Tối	-3542
▁chẽ	-3543
▁leo	-3544
▁Play	-3545
▁Sing	-3546
▁giấc	-3547
▁gạch	-3548
▁horm	-3549
▁lưng	-3550
1)	-3551
61	-3552
CS	-3553
ds	-3554
sp	-3555
air	-3556
itt	-3557
the	-3558
▁Ly	-3559
▁NO	-3560
▁mỏ	-3561
▁ưa	-3562
ount	-3563
▁1.0	-3564
▁11%	-3565
▁Str	-3566
▁Tân	-3567
▁dọn	-3568
▁gen	-3569
▁nộp	-3570
▁2018,	-3571
▁Holmbygden	-3572
TS	-3573
ier	-3574
▁48	-3575
▁64	-3576
▁Vũ	-3577
▁Ôn	-3578
9002	-3579
▁2.5	-3580
▁Dis	-3581
▁dao	-3582
▁men	-3583
▁sốt	-3584
▁Tour	-3585
▁khói	-3586
▁niêm	-3587
ategor	-3588
▁Chang	-3589
aricella	-3590
="1	-3591
Tôi	-3592
ari	-3593
gan	-3594
igh	-3595
ild	-3596
ual	-3597
▁Kể	-3598
▁Sn	-3599
▁(2)	-3600
▁Jos	-3601
▁Met	-3602
▁bận	-3603
▁cục	-3604
▁hỗn	-3605
ethyl	-3606
▁FAMI	-3607
▁Priv	-3608
▁phạt	-3609
▁soạn	-3610
▁Nguyên	-3611
nc	-3612
pe	-3613
pm	-3614
ùy	-3615
▁LÀ	-3616
▁QU	-3617
▁Đi	-3618
sung	-3619
▁2.0	-3620
▁Har	-3621
▁sắm	-3622
-2018	-3623
agram	-3624
▁Mình	-3625
▁Phạm	-3626
▁luân	-3627
▁nhạo	-3628
▁xoay	-3629
▁điệu	-3630
▁lường	-3631
app	-3632
ize	-3633
▁03	-3634
▁Ab	-3635
▁tớ	-3636
acks	-3637
▁Cal	-3638
▁hoà	-3639
▁xưa	-3640
▁Copy	-3641
▁Port	-3642
▁Shen	-3643
▁nồng	-3644
▁sưởi	-3645
tainer	-3646
▁Khung	-3647
▁Thuốc	-3648
▁WordPress	-3649
yptocurrency	-3650
,”	-3651
64	-3652
IA	-3653
OM	-3654
ld	-3655
mer	-3656
một	-3657
▁0.	-3658
▁8:	-3659
▁9,	-3660
▁De	-3661
▁Kỹ	-3662
oooo	-3663
▁Lim	-3664
▁Mag	-3665
▁xâm	-3666
▁xóa	-3667
▁Lượt	-3668
▁ghép	-3669
▁ngọt	-3670
▁rừng	-3671
▁tháp	-3672
▁treo	-3673
▁trộm	-3674
▁ngạch	-3675
▁Trưởng	-3676
▁Twitter	-3677
▁Varicella	-3678
".	-3679
PE	-3680
▁09	-3681
▁9:	-3682
▁20,	-3683
▁Box	-3684
▁hàm	-3685
▁lắm	-3686
▁Đến	-3687
▁châm	-3688
▁tàng	-3689
▁2018.	-3690
▁cương	-3691
▁khuyết	-3692
▁xămhình	-3693
▁wordpress	-3694
GB	-3695
ano	-3696
uối	-3697
▁1/	-3698
▁Pe	-3699
▁ar	-3700
▁Led	-3701
▁lều	-3702
▁Đội	-3703
▁Glass	-3704
▁Trans	-3705
SI	-3706
cá	-3707
ym	-3708
ặm	-3709
▁Ố	-3710
755	-3711
ott	-3712
ury	-3713
▁5.	-3714
▁85	-3715
▁Bi	-3716
▁SD	-3717
▁uy	-3718
read	-3719
shop	-3720
ugin	-3721
▁Mon	-3722
▁đập	-3723
▁FXCL	-3724
▁lưỡi	-3725
ational	-3726
▁Private	-3727
▁Samsung	-3728
ali	-3729
ged	-3730
▁AT	-3731
▁lụ	-3732
ingd	-3733
▁Gro	-3734
▁Sao	-3735
▁com	-3736
▁vây	-3737
▁đắp	-3738
▁internet	-3739
);	-3740
lt	-3741
’.	-3742
amb	-3743
iec	-3744
▁2:	-3745
▁49	-3746
▁Dr	-3747
▁nở	-3748
▁tỉ	-3749
edia	-3750
ypto	-3751
▁(1,	-3752
▁Còn	-3753
▁Sàn	-3754
▁cãi	-3755
▁Blog	-3756
▁Down	-3757
▁thầu	-3758
▁trạm	-3759
▁Đình	-3760
▁robot	-3761
▁vượng	-3762
▁anhững	-3763
▁Generator	-3764
1-	-3765
82	-3766
ya	-3767
ỚI	-3768
.99	-3769
800	-3770
ava	-3771
emo	-3772
ica	-3773
▁(4	-3774
▁Mở	-3775
▁Xã	-3776
▁iP	-3777
▁vả	-3778
azon	-3779
elet	-3780
ylic	-3781
▁All	-3782
▁Bur	-3783
▁cốc	-3784
▁nhở	-3785
▁rác	-3786
▁thọ	-3787
▁xót	-3788
clone	-3789
▁3000	-3790
▁Seal	-3791
▁phái	-3792
▁Doanh	-3793
▁Giêsu	-3794
▁Khuôn	-3795
▁Joseph	-3796
▁carton	-3797
osterone	-3798
▁Instagram	-3799
0)	-3800
4:	-3801
CD	-3802
ca	-3803
★★	-3804
203	-3805
600	-3806
▁DN	-3807
▁HÀ	-3808
▁Ru	-3809
▁ái	-3810
----	-3811
-200	-3812
ling	-3813
zhou	-3814
▁Bro	-3815
▁Mas	-3816
▁bắn	-3817
▁bọt	-3818
▁côn	-3819
▁dịu	-3820
▁gợi	-3821
▁ong	-3822
▁pro	-3823
▁thả	-3824
▁Toàn	-3825
▁cảng	-3826
▁kiềm	-3827
▁Định	-3828
▁Ngoại	-3829
▁thạch	-3830
▁trứng	-3831
."	-3832
71	-3833
CI	-3834
KW	-3835
Qu	-3836
xi	-3837
ann	-3838
ous	-3839
▁DM	-3840
▁PE	-3841
▁on	-3842
▁rỉ	-3843
▁Đỏ	-3844
ings	-3845
reak	-3846
▁4.0	-3847
▁Tai	-3848
▁City	-3849
▁Trái	-3850
▁khao	-3851
▁ngon	-3852
▁thôn	-3853
▁giọng	-3854
▁Indust	-3855
▁Series	-3856
63	-3857
▁Ê	-3858
axy	-3859
cam	-3860
▁MB	-3861
▁NG	-3862
▁Up	-3863
▁dư	-3864
▁vé	-3865
ence	-3866
iber	-3867
▁Quy	-3868
▁thợ	-3869
▁tuệ	-3870
▁Bang	-3871
▁Phật	-3872
▁Vâng	-3873
▁Đoàn	-3874
▁Lượng	-3875
▁Valve	-3876
▁Khoảng	-3877
79	-3878
VN	-3879
fo	-3880
nd	-3881
ẻo	-3882
ừu	-3883
▁%	-3884
▁)	-3885
/10	-3886
ING	-3887
ign	-3888
lor	-3889
ola	-3890
oud	-3891
stR	-3892
▁5:	-3893
▁EV	-3894
▁Ed	-3895
▁vá	-3896
hoặc	-3897
▁Bow	-3898
▁hẹp	-3899
▁túy	-3900
▁tọa	-3901
▁Ống	-3902
ement	-3903
▁(200	-3904
▁Chắc	-3905
▁khuy	-3906
yright	-3907
▁hoảng	-3908
▁tráng	-3909
stRider	-3910
▁truyện	-3911
▁Cyclone	-3912
?”	-3913
AI	-3914
eh	-3915
oz	-3916
UMX	-3917
▁&#	-3918
▁SE	-3919
▁gà	-3920
Tiếp	-3921
ance	-3922
tion	-3923
▁Cần	-3924
▁Mul	-3925
▁Nhờ	-3926
▁Ref	-3927
▁THƯ	-3928
▁XXL	-3929
▁cọc	-3930
▁rắc	-3931
▁đeo	-3932
▁Buổi	-3933
▁Hong	-3934
▁khoẻ	-3935
▁Whats	-3936
▁Truyền	-3937
estosterone	-3938
62	-3939
DA	-3940
OL	-3941
ys	-3942
▁≥	-3943
Bet	-3944
lin	-3945
▁TP	-3946
▁Đà	-3947
jack	-3948
▁17,	-3949
▁Set	-3950
▁Trị	-3951
▁Vận	-3952
▁ném	-3953
▁nảy	-3954
▁vay	-3955
▁Bước	-3956
▁Free	-3957
▁Tầng	-3958
▁Viet	-3959
▁bạch	-3960
▁mỏng	-3961
▁buồng	-3962
▁Copyshop	-3963
▁Copyright	-3964
ÊN	-3965
-01	-3966
.70	-3967
any	-3968
raw	-3969
uts	-3970
▁AD	-3971
▁Dĩ	-3972
▁XX	-3973
▁en	-3974
▁lô	-3975
▁rỡ	-3976
▁ám	-3977
▁380	-3978
▁cấm	-3979
▁nho	-3980
▁sữa	-3981
▁vất	-3982
▁đậu	-3983
▁Chia	-3984
▁giãn	-3985
▁quận	-3986
▁vang	-3987
▁Elect	-3988
▁Motor	-3989
▁Phong	-3990
▁khoác	-3991
lu	-3992
ÁC	-3993
▁{	-3994
arm	-3995
box	-3996
ips	-3997
▁MT	-3998
▁ab	-3999
▁óc	-4000
▁ồn	-4001
ader	-4002
aint	-4003
ulse	-4004
▁Nhĩ	-4005
▁Tur	-4006
▁bẩn	-4007
▁giỏ	-4008
những	-4009
▁APEC	-4010
▁Bệnh	-4011
▁Hoạt	-4012
▁Mich	-4013
▁Mạng	-4014
▁Paul	-4015
▁Tian	-4016
▁Vang	-4017
▁tiệc	-4018
▁việt	-4019
▁thiệp	-4020
▁Chuyến	-4021
FF	-4022
RO	-4023
▁Ap	-4024
NUMX	-4025
site	-4026
▁Vui	-4027
▁cừu	-4028
▁hỡi	-4029
▁min	-4030
▁mũi	-4031
▁nạp	-4032
Chúng	-4033
▁Hồng	-4034
▁Phục	-4035
▁dâng	-4036
▁lang	-4037
▁điên	-4038
▁Server	-4039
7.	-4040
GS	-4041
]:	-4042
la	-4043
wh	-4044
ím	-4045
-30	-4046
▁Ir	-4047
▁Li	-4048
▁MC	-4049
▁SH	-4050
amin	-4051
▁1.2	-4052
▁18,	-4053
▁Cap	-4054
▁béo	-4055
▁dắt	-4056
▁lõi	-4057
apore	-4058
▁CNTT	-4059
▁Hiến	-4060
▁giặt	-4061
▁ngón	-4062
▁thấu	-4063
▁xướng	-4064
▁Galaxy	-4065
▁hormone	-4066
▁Blockchain	-4067
",	-4068
/5	-4069
BC	-4070
MM	-4071
VD	-4072
ẠN	-4073
ỄN	-4074
ợn	-4075
.75	-4076
Nhà	-4077
The	-4078
els	-4079
rol	-4080
umb	-4081
▁Sĩ	-4082
▁mỹ	-4083
▁Âm	-4084
itch	-4085
ware	-4086
▁16,	-4087
▁450	-4088
▁Kẹo	-4089
▁Lao	-4090
▁PHÍ	-4091
▁rực	-4092
▁săn	-4093
▁Sand	-4094
▁Tăng	-4095
▁Vòng	-4096
▁Xuất	-4097
▁hoại	-4098
▁ngạo	-4099
▁nhắm	-4100
▁quét	-4101
▁trầm	-4102
▁Điểm	-4103
▁Amazon	-4104
▁thoảng	-4105
.)	-4106
6.	-4107
-18	-4108
eap	-4109
iam	-4110
▁3:	-4111
▁HP	-4112
9001	-4113
shan	-4114
▁21,	-4115
▁Môi	-4116
▁Thổ	-4117
▁cắp	-4118
▁kem	-4119
▁nắp	-4120
▁đầm	-4121
ector	-4122
ified	-4123
▁ITIL	-4124
▁Ninh	-4125
▁Nông	-4126
▁Stre	-4127
▁tiếc	-4128
ikoooo	-4129
▁Trình	-4130
%.	-4131
4.	-4132
EF	-4133
OP	-4134
QL	-4135
li	-4136
én	-4137
▁Φ	-4138
ele	-4139
uss	-4140
▁BS	-4141
▁TV	-4142
▁hà	-4143
▁im	-4144
.0.2	-4145
udio	-4146
zhen	-4147
▁1,5	-4148
▁Rob	-4149
▁Sim	-4150
▁Tín	-4151
▁mạn	-4152
▁vội	-4153
▁Đài	-4154
▁đáy	-4155
▁Hoàn	-4156
▁Quân	-4157
▁Tháp	-4158
▁bụng	-4159
▁hỏng	-4160
▁kiêu	-4161
▁lặng	-4162
▁poly	-4163
▁trào	-4164
onesia	-4165
▁Plane	-4166
▁Steel	-4167
▁huyết	-4168
▁huyền	-4169
▁Machine	-4170
▁Deduster	-4171
49	-4172
51	-4173
ts	-4174
wn	-4175
ịp	-4176
VID	-4177
alk	-4178
way	-4179
▁.:	-4180
▁66	-4181
▁CB	-4182
▁Hộ	-4183
▁Se	-4184
▁bá	-4185
▁Đề	-4186
olis	-4187
▁Bắt	-4188
▁Dub	-4189
▁FSX	-4190
▁chì	-4191
▁dập	-4192
▁rộn	-4193
▁đam	-4194
aysia	-4195
▁cưới	-4196
▁dũng	-4197
▁Basel	-4198
▁khuynh	-4199
43	-4200
HC	-4201
II	-4202
km	-4203
ýt	-4204
ũi	-4205
▁Ư	-4206
▁฿	-4207
+00	-4208
VAC	-4209
ext	-4210
oon	-4211
đun	-4212
▁CA	-4213
▁xạ	-4214
2019	-4215
atin	-4216
ouse	-4217
▁API	-4218
▁Ghế	-4219
▁Int	-4220
▁Mod	-4221
▁bội	-4222
▁kép	-4223
▁nát	-4224
▁đậm	-4225
▁đỗi	-4226
▁MIỄN	-4227
▁Park	-4228
▁giỏi	-4229
+00:00	-4230
▁Apple	-4231
▁phiêu	-4232
▁sương	-4233
▁trăng	-4234
▁virus	-4235
▁Intern	-4236
▁Tagged	-4237
▁Singapore	-4238
54	-4239
pa	-4240
lob	-4241
▁EN	-4242
▁JW	-4243
▁sỹ	-4244
.0.1	-4245
ange	-4246
▁14,	-4247
▁And	-4248
▁Eng	-4249
▁Mẹo	-4250
▁ben	-4251
▁bìa	-4252
▁giơ	-4253
▁thở	-4254
▁Đèn	-4255
▁Chức	-4256
▁Coin	-4257
▁Gold	-4258
▁Trực	-4259
▁XXXL	-4260
▁chẩn	-4261
▁giam	-4262
▁hiếm	-4263
▁hãng	-4264
▁12345	-4265
▁Nylon	-4266
▁chừng	-4267
▁nướng	-4268
▁Roulette	-4269
yn	-4270
Xem	-4271
alt	-4272
ata	-4273
elt	-4274
gsm	-4275
▁02	-4276
▁DR	-4277
▁OS	-4278
▁Xử	-4279
▁ko	-4280
▁mẻ	-4281
▁nề	-4282
form	-4283
orld	-4284
work	-4285
▁22,	-4286
▁Cái	-4287
▁Hat	-4288
▁Hay	-4289
▁Huệ	-4290
▁Mật	-4291
▁Roy	-4292
▁bút	-4293
▁dọa	-4294
▁gsm	-4295
▁nét	-4296
▁quỷ	-4297
▁tệp	-4298
istan	-4299
người	-4300
▁Lòng	-4301
▁Mill	-4302
▁lệch	-4303
▁muộn	-4304
▁ngục	-4305
▁rãnh	-4306
▁thăng	-4307
▁Carbon	-4308
▁Malaysia	-4309
▁container	-4310
92	-4311
AY	-4312
ky	-4313
ye	-4314
íp	-4315
ana	-4316
ern	-4317
▁SS	-4318
▁TM	-4319
▁pm	-4320
▁tá	-4321
▁130	-4322
▁Cấu	-4323
▁Lạp	-4324
▁Màn	-4325
▁dặm	-4326
▁hái	-4327
▁lũy	-4328
Thiết	-4329
ition	-4330
ivers	-4331
razil	-4332
▁Giảm	-4333
▁giục	-4334
▁thắc	-4335
▁10000	-4336
▁COVID	-4337
▁Dubai	-4338
▁nhuộm	-4339
▁nhàng	-4340
▁xưởng	-4341
FC	-4342
US	-4343
ẠI	-4344
ẵng	-4345
▁Jo	-4346
▁TC	-4347
▁nụ	-4348
2020	-4349
ates	-4350
idge	-4351
ital	-4352
ooth	-4353
port	-4354
▁180	-4355
▁Gói	-4356
▁dồi	-4357
▁Ánh	-4358
raine	-4359
▁Blue	-4360
▁lùng	-4361
▁phím	-4362
▁Email	-4363
Blockchain	-4364
▁Unlimited	-4365
RP	-4366
sự	-4367
-25	-4368
-40	-4369
Pro	-4370
ati	-4371
omb	-4372
oto	-4373
top	-4374
▁4:	-4375
▁58	-4376
▁95	-4377
▁As	-4378
▁Lý	-4379
▁kệ	-4380
...]	-4381
anta	-4382
posh	-4383
▁15,	-4384
▁3.0	-4385
▁Blu	-4386
▁Bly	-4387
▁Fil	-4388
▁Neo	-4389
▁Per	-4390
▁Tác	-4391
▁bit	-4392
▁hải	-4393
▁say	-4394
▁sen	-4395
▁tẩy	-4396
▁đắt	-4397
ction	-4398
▁Aria	-4399
▁lũng	-4400
▁prot	-4401
▁đằng	-4402
ecolor	-4403
▁.....	-4404
▁nghìn	-4405
▁Download	-4406
++	-4407
OG	-4408
gs	-4409
ls	-4410
XVN	-4411
car	-4412
ral	-4413
ỞNG	-4414
▁6:	-4415
▁Av	-4416
▁CR	-4417
▁Gỗ	-4418
▁HB	-4419
▁IN	-4420
▁cự	-4421
▁is	-4422
▁lỡ	-4423
▁ôm	-4424
egas	-4425
iger	-4426
ness	-4427
ouch	-4428
ston	-4429
▁0,5	-4430
▁125	-4431
▁24,	-4432
▁Arm	-4433
▁Hua	-4434
▁Pan	-4435
▁Tùy	-4436
▁acr	-4437
▁bắp	-4438
▁dải	-4439
▁dốc	-4440
▁lam	-4441
▁mọc	-4442
▁sụp	-4443
▁đệm	-4444
board	-4445
ender	-4446
▁Nẵng	-4447
▁chục	-4448
▁quạt	-4449
▁đoạt	-4450
▁sướng	-4451
▁trinh	-4452
▁viếng	-4453
▁Brazil	-4454
▁cryptocurrency	-4455
0%	-4456
ny	-4457
-86	-4458
pal	-4459
uck	-4460
uri	-4461
▁52	-4462
▁Da	-4463
▁Mẹ	-4464
▁Re	-4465
▁TI	-4466
▁ag	-4467
▁mg	-4468
eset	-4469
rain	-4470
▁25,	-4471
▁Boh	-4472
▁Key	-4473
▁Mos	-4474
▁Rep	-4475
▁Rập	-4476
▁len	-4477
▁ngu	-4478
iforn	-4479
▁Poly	-4480
▁blog	-4481
▁bổng	-4482
▁nàng	-4483
▁Hoàng	-4484
▁[...]	-4485
inecolor	-4486
oundation	-4487
ategorized	-4488
▁International	-4489
/4	-4490
3.	-4491
BO	-4492
MS	-4493
-11	-4494
="2	-4495
▁06	-4496
▁Mu	-4497
▁Od	-4498
▁TG	-4499
▁ađ	-4500
burg	-4501
inyl	-4502
▁Inc	-4503
▁Mùa	-4504
▁Pat	-4505
▁kil	-4506
▁mèo	-4507
▁noi	-4508
▁quê	-4509
▁sol	-4510
▁tro	-4511
▁ván	-4512
allet	-4513
ating	-4514
▁Bóng	-4515
▁Kiến	-4516
▁With	-4517
▁chìa	-4518
▁khốn	-4519
▁ngợi	-4520
▁xích	-4521
▁Linux	-4522
▁Smith	-4523
▁khiếu	-4524
ifornia	-4525
▁Chuyên	-4526
▁khoảnh	-4527
▁Indonesia	-4528
/1	-4529
AE	-4530
IV	-4531
iu	-4532
ms	-4533
ằn	-4534
ida	-4535
ếch	-4536
▁04	-4537
▁MP	-4538
▁kì	-4539
enny	-4540
ient	-4541
isco	-4542
▁0.5	-4543
▁23,	-4544
▁26,	-4545
▁28,	-4546
▁Cắt	-4547
▁Des	-4548
▁Gửi	-4549
▁Lợi	-4550
▁bổn	-4551
▁góa	-4552
▁lốp	-4553
▁xám	-4554
▁1200	-4555
▁Near	-4556
▁Post	-4557
▁Visa	-4558
▁buýt	-4559
▁ghét	-4560
▁tháo	-4561
▁điền	-4562
▁Solom	-4563
▁California	-4564
MA	-4565
OW	-4566
có	-4567
vo	-4568
TFE	-4569
ave	-4570
lon	-4571
oop	-4572
▁Fo	-4573
▁TT	-4574
▁tw	-4575
ania	-4576
fish	-4577
raft	-4578
rial	-4579
▁Bấy	-4580
▁Cro	-4581
▁Jan	-4582
▁Đếm	-4583
▁CSGO	-4584
▁Diện	-4585
▁Giai	-4586
▁Kiểu	-4587
▁Song	-4588
▁Star	-4589
▁dinh	-4590
▁khán	-4591
▁đống	-4592
▁Chuỗi	-4593
▁khoán	-4594
▁Ukraine	-4595
▁Shenzhen	-4596
▁WhatsApp	-4597
58	-4598
OC	-4599
fg	-4600
ịn	-4601
-00	-4602
-13	-4603
.34	-4604
bet	-4605
ouk	-4606
▁51	-4607
▁At	-4608
▁Cả	-4609
▁TS	-4610
▁ap	-4611
oney	-4612
xBet	-4613
▁Bút	-4614
▁Cài	-4615
▁Log	-4616
▁Lớp	-4617
▁Quá	-4618
▁kịp	-4619
▁rau	-4620
▁tím	-4621
▁tóm	-4622
▁tỏa	-4623
otrop	-4624
▁Auto	-4625
▁Khối	-4626
▁Màng	-4627
▁RoHS	-4628
▁chúc	-4629
▁gián	-4630
▁khôi	-4631
▁ngơi	-4632
▁trưa	-4633
▁Đang	-4634
▁Chống	-4635
▁Stand	-4636
▁chước	-4637
▁khuất	-4638
▁thỉnh	-4639
▁Blythe	-4640
▁Blackjack	-4641
1.	-4642
LE	-4643
UY	-4644
zz	-4645
Tất	-4646
USD	-4647
Van	-4648
rat	-4649
▁42	-4650
▁Az	-4651
▁BI	-4652
▁DS	-4653
▁MÃ	-4654
▁PU	-4655
▁đe	-4656
ippi	-4657
▁(10	-4658
▁0.2	-4659
▁350	-4660
▁ABS	-4661
▁Bụi	-4662
▁CHO	-4663
▁Cup	-4664
▁Dri	-4665
▁Gần	-4666
▁bar	-4667
▁bóc	-4668
▁bực	-4669
▁dám	-4670
▁gìn	-4671
▁lật	-4672
▁nhi	-4673
▁nồi	-4674
▁Độc	-4675
elash	-4676
ember	-4677
irect	-4678
jiang	-4679
ocket	-4680
▁Biển	-4681
▁Full	-4682
▁PTFE	-4683
▁Thậm	-4684
▁Excel	-4685
▁Paris	-4686
▁Under	-4687
▁Zhong	-4688
eapolis	-4689
issippi	-4690
▁THƯỞNG	-4691
▁Charter	-4692
▁Minneapolis	-4693
**	-4694
42	-4695
8.	-4696
Co	-4697
rg	-4698
ẢN	-4699
IỆN	-4700
ama	-4701
eco	-4702
ili	-4703
yan	-4704
▁7:	-4705
▁UN	-4706
▁gõ	-4707
▁mỡ	-4708
-100	-4709
atal	-4710
dong	-4711
inch	-4712
olyp	-4713
▁Sar	-4714
▁Sup	-4715
▁Tim	-4716
▁Trẻ	-4717
▁ath	-4718
▁gai	-4719
▁gặt	-4720
▁hoạ	-4721
▁nit	-4722
▁rou	-4723
Người	-4724
▁(3,5	-4725
▁Aust	-4726
▁Nghị	-4727
▁nắng	-4728
▁rỗng	-4729
▁trơn	-4730
▁đàng	-4731
eleton	-4732
hanouk	-4733
▁Group	-4734
▁phanh	-4735
▁acrylic	-4736
▁polyester	-4737
▁Mississippi	-4738
IS	-4739
he	-4740
ÔI	-4741
4,5	-4742
Con	-4743
FTA	-4744
ago	-4745
bao	-4746
its	-4747
mar	-4748
ole	-4749
ỳnh	-4750
▁MS	-4751
▁Sở	-4752
ield	-4753
lymp	-4754
ngày	-4755
▁86-	-4756
▁Alb	-4757
▁Bát	-4758
▁Cục	-4759
▁Ghi	-4760
▁Lần	-4761
▁Sợi	-4762
▁Vua	-4763
▁asự	-4764
▁hận	-4765
▁tồi	-4766
allow	-4767
enter	-4768
▁HÀNG	-4769
▁Last	-4770
▁Lãnh	-4771
▁Mang	-4772
▁beta	-4773
▁canh	-4774
▁giọt	-4775
▁nhọc	-4776
▁súng	-4777
▁trân	-4778
▁2019.	-4779
▁khoang	-4780
▁Philipp	-4781
▁Solomons	-4782
9%	-4783
LL	-4784
UN	-4785
250	-4786
các	-4787
iff	-4788
ird	-4789
▁(6	-4790
▁08	-4791
▁43	-4792
▁AI	-4793
▁Cổ	-4794
▁Ox	-4795
▁pc	-4796
▁vã	-4797
▁Bay	-4798
▁Sex	-4799
▁cấy	-4800
▁dội	-4801
▁kẹp	-4802
▁mưu	-4803
▁ngụ	-4804
▁xao	-4805
exico	-4806
trong	-4807
▁2009	-4808
▁Best	-4809
▁Cùng	-4810
▁Home	-4811
▁Thăm	-4812
▁iPad	-4813
▁jack	-4814
▁2017,	-4815
▁Crack	-4816
▁quyến	-4817
▁123456	-4818
▁Lights	-4819
▁Magnet	-4820
▁Rikoooo	-4821
▁Skeleton	-4822
▁Foundation	-4823
▁Refinecolor	-4824
.:	-4825
WS	-4826
iw	-4827
▁【	-4828
eam	-4829
ham	-4830
iew	-4831
nar	-4832
▁46	-4833
▁Pu	-4834
▁km	-4835
▁us	-4836
▁xà	-4837
cont	-4838
ream	-4839
rome	-4840
tern	-4841
▁30,	-4842
▁360	-4843
▁Art	-4844
▁Imp	-4845
▁Khe	-4846
▁Scr	-4847
▁Sun	-4848
▁Tay	-4849
▁Thử	-4850
▁Unc	-4851
▁múa	-4852
▁sét	-4853
▁Biên	-4854
▁chải	-4855
▁khấu	-4856
▁ngặt	-4857
▁nhịp	-4858
▁thắt	-4859
ington	-4860
teroid	-4861
▁Bohem	-4862
▁Chick	-4863
▁KHÔNG	-4864
▁Organ	-4865
ilicone	-4866
81	-4867
An	-4868
Pl	-4869
RC	-4870
ll	-4871
ợt	-4872
ONG	-4873
ney	-4874
▁41	-4875
▁44	-4876
▁NY	-4877
▁We	-4878
▁XU	-4879
▁ss	-4880
alls	-4881
auda	-4882
flex	-4883
izer	-4884
▁11:	-4885
▁199	-4886
▁3.5	-4887
▁Cas	-4888
▁Dãy	-4889
▁PET	-4890
▁dàn	-4891
▁nón	-4892
▁you	-4893
▁Đàn	-4894
ruity	-4895
thank	-4896
▁6000	-4897
▁Cage	-4898
▁Hand	-4899
▁Prin	-4900
▁Vườn	-4901
▁ngầm	-4902
▁tiễn	-4903
▁2020,	-4904
▁Multi	-4905
▁Warin	-4906
▁luồng	-4907
▁thiêu	-4908
▁Flight	-4909
hanoukville	-4910
DP	-4911
EX	-4912
bl	-4913
ih	-4914
ji	-4915
▁ố	-4916
113	-4917
Túi	-4918
aki	-4919
ife	-4920
lam	-4921
olf	-4922
ora	-4923
ote	-4924
ươn	-4925
▁PL	-4926
▁sỉ	-4927
▁vú	-4928
abin	-4929
less	-4930
user	-4931
vent	-4932
▁101	-4933
▁10:	-4934
▁30%	-4935
▁Gặp	-4936
▁ODM	-4937
▁Pox	-4938
▁Roo	-4939
▁Tàu	-4940
▁Vac	-4941
▁Vân	-4942
▁bám	-4943
▁bầy	-4944
▁non	-4945
amine	-4946
▁File	-4947
▁Nhấn	-4948
▁Phim	-4949
▁Sòng	-4950
▁Will	-4951
▁hoài	-4952
▁lánh	-4953
▁nhục	-4954
▁thâm	-4955
▁Pulse	-4956
▁Thạch	-4957
▁Thống	-4958
▁Bowflex	-4959
▁Chicken	-4960
▁Dedusting	-4961
▁Uncategorized	-4962
hi	-4963
vc	-4964
ví	-4965
.20	-4966
/11	-4967
/19	-4968
400	-4969
949	-4970
▁Bí	-4971
▁CT	-4972
▁ST	-4973
▁le	-4974
▁op	-4975
.4.1	-4976
anda	-4977
ping	-4978
pson	-4979
▁160	-4980
▁230	-4981
▁700	-4982
▁Bul	-4983
▁Bãi	-4984
▁BẠN	-4985
▁Bốn	-4986
▁Gas	-4987
▁Khí	-4988
▁Vấn	-4989
▁bèn	-4990
▁gạt	-4991
▁hầm	-4992
▁nại	-4993
▁vắc	-4994
/2018	-4995
▁Flat	-4996
▁Nhìn	-4997
▁Nhựa	-4998
▁Para	-4999
▁đuối	-5000
▁Union	-5001
▁ngoái	-5002
▁nhúng	-5003
▁Mexico	-5004
87	-5005
CE	-5006
PA	-5007
yd	-5008
za	-5009
ƯỜ	-5010
ẹt	-5011
als	-5012
ape	-5013
hai	-5014
hua	-5015
kgs	-5016
ody	-5017
▁6.	-5018
▁Uy	-5019
▁Xi	-5020
▁bl	-5021
▁lí	-5022
atic	-5023
oard	-5024
stan	-5025
▁0.3	-5026
▁12:	-5027
▁170	-5028
▁190	-5029
▁240	-5030
▁Ber	-5031
▁Sân	-5032
▁TIN	-5033
▁cụm	-5034
▁dãy	-5035
▁mịn	-5036
▁váy	-5037
▁đắn	-5038
▁2021	-5039
▁Cool	-5040
▁CÔNG	-5041
▁Khẩn	-5042
▁King	-5043
▁Linh	-5044
▁Tinh	-5045
▁Tuần	-5046
▁báng	-5047
▁cống	-5048
estern	-5049
etooth	-5050
▁James	-5051
▁Saint	-5052
▁(2015)	-5053
▁0086-5	-5054
▁86-574	-5055
▁Bohemian	-5056
,,	-5057
BA	-5058
BR	-5059
JS	-5060
OV	-5061
RE	-5062
-05	-5063
-60	-5064
ANG	-5065
iph	-5066
que	-5067
une	-5068
▁..	-5069
▁Dễ	-5070
▁So	-5071
ixel	-5072
osit	-5073
▁29,	-5074
▁Cấp	-5075
▁Dig	-5076
▁Eth	-5077
▁Men	-5078
▁Rot	-5079
▁Sal	-5080
▁Trở	-5081
▁TÔI	-5082
▁bấy	-5083
▁ghé	-5084
▁lúa	-5085
▁thự	-5086
▁vat	-5087
▁đàm	-5088
/2017	-5089
utter	-5090
▁Bánh	-5091
▁Java	-5092
▁Liệu	-5093
▁Nhấp	-5094
▁Vịnh	-5095
▁cong	-5096
▁hước	-5097
▁khơi	-5098
▁trói	-5099
olding	-5100
▁2017.	-5101
▁Olymp	-5102
▁Touch	-5103
▁Pocket	-5104
▁cheats	-5105
▁trương	-5106
83	-5107
UV	-5108
ệ	-5109
ẬT	-5110
ỦA	-5111
ily	-5112
isc	-5113
ler	-5114
uel	-5115
▁QC	-5116
▁bệ	-5117
▁rồ	-5118
2005	-5119
ions	-5120
star	-5121
▁1.6	-5122
▁60%	-5123
▁CHÚ	-5124
▁Cle	-5125
▁Cov	-5126
▁CỦA	-5127
▁Ray	-5128
▁Trả	-5129
▁bồi	-5130
▁dẹp	-5131
▁gay	-5132
▁gũi	-5133
▁lân	-5134
▁lứa	-5135
▁neo	-5136
▁tăm	-5137
raina	-5138
ustom	-5139
▁Chai	-5140
▁Lưới	-5141
▁Siêu	-5142
▁Soft	-5143
▁Thom	-5144
▁Trần	-5145
▁dáng	-5146
▁khớp	-5147
▁thuỷ	-5148
▁vươn	-5149
▁XNUMX	-5150
▁flash	-5151
content	-5152
▁Cheats	-5153
▁Khuyến	-5154
▁crypto	-5155
▁khoáng	-5156
▁modified	-5157
▁Philippines	-5158
OD	-5159
RL	-5160
Vì	-5161
oa	-5162
vi	-5163
-16	-5164
Com	-5165
ald	-5166
mon	-5167
ray	-5168
▁63	-5169
▁By	-5170
▁It	-5171
▁PA	-5172
▁sô	-5173
ager	-5174
eles	-5175
ômét	-5176
▁(19	-5177
▁000	-5178
▁1-8	-5179
▁750	-5180
▁Cây	-5181
▁Dep	-5182
▁Dou	-5183
▁GPS	-5184
▁Out	-5185
▁Sửa	-5186
▁Tor	-5187
▁lấp	-5188
▁off	-5189
▁sáo	-5190
Guang	-5191
aming	-5192
wheel	-5193
▁2008	-5194
▁High	-5195
▁Kính	-5196
▁Line	-5197
▁nhặt	-5198
▁quái	-5199
▁điềm	-5200
▁2019,	-5201
▁thung	-5202
▁©2005	-5203
▁Karnar	-5204
▁Router	-5205
▁kilômét	-5206
▁Solenoid	-5207
▁solenoid	-5208
▁Sihanoukville	-5209
',	-5210
ki	-5211
▁!	-5212
-50	-5213
ike	-5214
met	-5215
ory	-5216
str	-5217
win	-5218
▁AM	-5219
▁HO	-5220
▁Rd	-5221
▁SA	-5222
▁Ti	-5223
▁dĩ	-5224
▁vs	-5225
/12,	-5226
ards	-5227
ific	-5228
igan	-5229
orts	-5230
▁13,	-5231
▁CBD	-5232
▁Day	-5233
▁Giữ	-5234
▁Góc	-5235
▁Lux	-5236
▁Lựa	-5237
▁Nơi	-5238
▁Rad	-5239
▁tựa	-5240
▁đùa	-5241
erson	-5242
lines	-5243
olone	-5244
▁2005	-5245
▁Canh	-5246
▁Game	-5247
▁Mesh	-5248
▁Nhôm	-5249
▁Them	-5250
▁Truy	-5251
▁Vill	-5252
▁loan	-5253
▁mãnh	-5254
▁vong	-5255
▁Đúng	-5256
ingdao	-5257
▁Super	-5258
▁World	-5259
▁siêng	-5260
▁triết	-5261
▁triều	-5262
▁trừng	-5263
▁website	-5264
▁Transposh	-5265
▁Industrial	-5266
▁©2005-2018	-5267
IM	-5268
KG	-5269
aj	-5270
-02	-5271
ISO	-5272
Jar	-5273
Một	-5274
cer	-5275
che	-5276
ids	-5277
ump	-5278
▁CẢ	-5279
▁UL	-5280
▁ah	-5281
▁dạ	-5282
▁el	-5283
▁hô	-5284
▁Đa	-5285
▁ấu	-5286
Công	-5287
Hình	-5288
Liên	-5289
ailb	-5290
arin	-5291
asma	-5292
mont	-5293
ular	-5294
very	-5295
yuan	-5296
▁0.6	-5297
▁1.1	-5298
▁Dựa	-5299
▁Eva	-5300
▁Fir	-5301
▁Gió	-5302
▁LLC	-5303
▁Mad	-5304
▁Mời	-5305
▁dào	-5306
▁dẻo	-5307
▁gạo	-5308
▁quạ	-5309
▁xảo	-5310
▁1800	-5311
▁Arch	-5312
▁Cash	-5313
▁Cent	-5314
▁Loan	-5315
▁bênh	-5316
▁giáp	-5317
▁hung	-5318
▁khúc	-5319
▁quát	-5320
▁suối	-5321
▁sườn	-5322
▁thạo	-5323
▁visa	-5324
▁2014,	-5325
▁Beach	-5326
▁Cloud	-5327
▁giáng	-5328
▁huỳnh	-5329
▁khuẩn	-5330
▁lưỡng	-5331
▁Posted	-5332
▁Street	-5333
▁series	-5334
osilicon	-5335
▁SlotJar	-5336
▁nghiêng	-5337
▁protein	-5338
▁Electric	-5339
▁Standard	-5340
57	-5341
59	-5342
DS	-5343
FS	-5344
HD	-5345
bs	-5346
fu	-5347
wp	-5348
ÂY	-5349
-80	-5350
150	-5351
2.1	-5352
nhà	-5353
▁(0	-5354
▁2)	-5355
▁76	-5356
▁CI	-5357
▁Lò	-5358
▁RO	-5359
▁bã	-5360
▁ms	-5361
▁px	-5362
▁uế	-5363
▁ĐÁ	-5364
acle	-5365
berg	-5366
elin	-5367
inja	-5368
ming	-5369
ters	-5370
▁0.9	-5371
▁140	-5372
▁DVD	-5373
▁Duy	-5374
▁Gir	-5375
▁Lit	-5376
▁Lớn	-5377
▁Nor	-5378
▁Rod	-5379
▁SAP	-5380
▁Sai	-5381
▁Vắc	-5382
▁Wik	-5383
▁cởi	-5384
▁hâm	-5385
▁nấm	-5386
▁nến	-5387
▁sốc	-5388
▁táo	-5389
▁đòn	-5390
Chang	-5391
ieces	-5392
ondon	-5393
▁Biểu	-5394
▁Hang	-5395
▁Quay	-5396
▁Wire	-5397
▁thoả	-5398
▁thêu	-5399
▁2019!	-5400
▁Speed	-5401
▁Paypal	-5402
▁plugin	-5403
▁Jackpot	-5404
▁Qingdao	-5405
▁Western	-5406
/7	-5407
56	-5408
bu	-5409
ÀY	-5410
éc	-5411
101	-5412
24.	-5413
▁-.	-5414
▁1%	-5415
▁DA	-5416
▁Kn	-5417
▁VI	-5418
▁rũ	-5419
▁xé	-5420
▁âu	-5421
elle	-5422
fter	-5423
lish	-5424
oker	-5425
tính	-5426
điểm	-5427
▁Căn	-5428
▁Del	-5429
▁Dệt	-5430
▁FCC	-5431
▁Han	-5432
▁Hỏi	-5433
▁Hữu	-5434
▁Inf	-5435
▁Koo	-5436
▁Lâm	-5437
▁MAC	-5438
▁Mid	-5439
▁Tạp	-5440
▁Xám	-5441
▁bẫy	-5442
▁chà	-5443
▁dép	-5444
▁oán	-5445
▁Đan	-5446
▁đấm	-5447
Không	-5448
Tháng	-5449
etate	-5450
store	-5451
ystem	-5452
▁4000	-5453
▁5000	-5454
▁Euro	-5455
▁Hiển	-5456
▁Nick	-5457
▁Remo	-5458
▁Test	-5459
▁West	-5460
▁card	-5461
▁chat	-5462
▁cưng	-5463
▁móng	-5464
▁nang	-5465
▁nitơ	-5466
▁trật	-5467
▁túng	-5468
▁địch	-5469
▁chiết	-5470
▁Thưởng	-5471
Guangdong	-5472
▁Bluetooth	-5473
/3	-5474
/9	-5475
AF	-5476
TH	-5477
UD	-5478
yu	-5479
ễu	-5480
ỷu	-5481
-17	-5482
.91	-5483
ala	-5484
cho	-5485
get	-5486
par	-5487
rew	-5488
▁CM	-5489
▁CẬ	-5490
▁RS	-5491
▁Tế	-5492
▁Tỷ	-5493
▁Vợ	-5494
▁av	-5495
▁bù	-5496
▁đẻ	-5497
afil	-5498
evel	-5499
ject	-5500
onic	-5501
▁Ant	-5502
▁Chế	-5503
▁Cáp	-5504
▁Fin	-5505
▁Mer	-5506
▁Nov	-5507
▁bưu	-5508
▁cac	-5509
▁gan	-5510
▁lui	-5511
▁lát	-5512
▁lăm	-5513
▁tru	-5514
16949	-5515
ailer	-5516
ments	-5517
▁pháo	-5518
▁trùm	-5519
▁vạch	-5520
lamode	-5521
▁Clash	-5522
▁Intel	-5523
▁nghênh	-5524
ailbreak	-5525
▁Ukraina	-5526
Changeset	-5527
▁Misslamode	-5528
▁Organosilicon	-5529
CM	-5530
fa	-5531
me	-5532
we	-5533
ớc	-5534
ael	-5535
ars	-5536
axi	-5537
her	-5538
ini	-5539
rad	-5540
xăm	-5541
zer	-5542
ượn	-5543
▁!!	-5544
▁AR	-5545
▁Ag	-5546
▁Bh	-5547
▁CC	-5548
▁DJ	-5549
▁EM	-5550
▁FI	-5551
▁Go	-5552
▁II	-5553
▁Of	-5554
▁Wi	-5555
▁bể	-5556
▁lê	-5557
▁mò	-5558
▁or	-5559
ache	-5560
flix	-5561
oter	-5562
▁-20	-5563
▁4.5	-5564
▁DIN	-5565
▁Dec	-5566
▁Hun	-5567
▁Tab	-5568
▁Tuỳ	-5569
▁bia	-5570
▁bốc	-5571
▁gối	-5572
▁lụa	-5573
▁lụt	-5574
▁mốc	-5575
▁nàn	-5576
▁vặt	-5577
ature	-5578
▁0.86	-5579
▁Chen	-5580
▁Dũng	-5581
▁Feng	-5582
▁Flor	-5583
▁Ling	-5584
▁Meta	-5585
▁bách	-5586
▁thun	-5587
▁vành	-5588
▁đắng	-5589
otropin	-5590
▁Fruity	-5591
ashville	-5592
▁steroid	-5593
%,	-5594
,0	-5595
IỂ	-5596
PN	-5597
RI	-5598
be	-5599
gl	-5600
▁«	-5601
-03	-5602
aly	-5603
ett	-5604
for	-5605
lic	-5606
url	-5607
wei	-5608
▁07	-5609
▁47	-5610
▁98	-5611
▁99	-5612
▁BL	-5613
▁CL	-5614
▁bt	-5615
▁rễ	-5616
▁sk	-5617
▁sw	-5618
aper	-5619
arak	-5620
artr	-5621
enst	-5622
urga	-5623
▁Bác	-5624
▁Dan	-5625
▁Dầu	-5626
▁Exp	-5627
▁LCD	-5628
▁Leg	-5629
▁Phú	-5630
▁Sec	-5631
▁TED	-5632
▁akh	-5633
▁bôi	-5634
▁bẩy	-5635
▁lau	-5636
▁Đúc	-5637
▁Đạo	-5638
▁đan	-5639
▁đắm	-5640
▁đợt	-5641
arius	-5642
▁Nâng	-5643
▁Viết	-5644
▁chấn	-5645
▁chật	-5646
▁quấy	-5647
▁trẫm	-5648
▁vắng	-5649
▁đinh	-5650
entine	-5651
▁Niger	-5652
▁cưỡng	-5653
▁phụng	-5654
▁Nguyen	-5655
▁Remover	-5656
FL	-5657
MH	-5658
RB	-5659
ks	-5660
oy	-5661
ze	-5662
ƯỢ	-5663
▁Ă	-5664
】:	-5665
110	-5666
220	-5667
91;	-5668
:30	-5669
UNG	-5670
acy	-5671
ams	-5672
ift	-5673
ify	-5674
iễu	-5675
lov	-5676
rit	-5677
ros	-5678
vel	-5679
▁56	-5680
▁8.	-5681
▁AS	-5682
▁Bỉ	-5683
▁Cá	-5684
▁Sứ	-5685
▁WE	-5686
▁bế	-5687
▁kỉ	-5688
▁xổ	-5689
guan	-5690
rent	-5691
▁50%	-5692
▁Hel	-5693
▁Lau	-5694
▁Lou	-5695
▁Nev	-5696
▁One	-5697
▁Sou	-5698
▁bấm	-5699
▁keo	-5700
▁năn	-5701
▁nứt	-5702
▁quỉ	-5703
▁res	-5704
ereum	-5705
light	-5706
loads	-5707
▁2030	-5708
▁Cast	-5709
▁Dược	-5710
▁HBOT	-5711
▁Khai	-5712
▁Kông	-5713
▁Rock	-5714
▁bùng	-5715
▁chip	-5716
▁chổi	-5717
▁hoãn	-5718
▁ngọc	-5719
▁ruột	-5720
▁tang	-5721
▁thảy	-5722
▁trội	-5723
eptide	-5724
▁Azure	-5725
▁Tuyết	-5726
▁ngưng	-5727
▁nylon	-5728
▁Cookie	-5729
▁Office	-5730
▁Option	-5731
▁Netflix	-5732
▁Koowheel	-5733
::	-5734
We	-5735
di	-5736
gy	-5737
180	-5738
ACK	-5739
Air	-5740
mma	-5741
opp	-5742
ris	-5743
zip	-5744
▁54	-5745
▁57	-5746
▁72	-5747
▁CÓ	-5748
▁Cố	-5749
▁IB	-5750
▁Ky	-5751
▁TK	-5752
▁no	-5753
▁rổ	-5754
▁vờ	-5755
▁đế	-5756
agon	-5757
avas	-5758
etro	-5759
lots	-5760
▁115	-5761
▁316	-5762
▁Bìa	-5763
▁Bạc	-5764
▁Lad	-5765
▁Lat	-5766
▁Lập	-5767
▁Mel	-5768
▁Thí	-5769
▁Tần	-5770
▁ang	-5771
▁rèn	-5772
▁thề	-5773
▁Đổi	-5774
ropyl	-5775
▁2500	-5776
▁86-1	-5777
▁Amer	-5778
▁Cann	-5779
▁Code	-5780
▁Cảnh	-5781
▁Eliz	-5782
▁Mạch	-5783
▁Snap	-5784
▁Wars	-5785
▁Yout	-5786
▁phai	-5787
▁thầm	-5788
▁xông	-5789
ulator	-5790
▁Chuẩn	-5791
▁Proxy	-5792
▁Trịnh	-5793
▁Tường	-5794
▁buông	-5795
▁khuỷu	-5796
eyelash	-5797
▁Custom	-5798
▁khuếch	-5799
alloween	-5800
AA	-5801
GE	-5802
UT	-5803
Và	-5804
fr	-5805
kW	-5806
my	-5807
-90	-5808
.12	-5809
.15	-5810
aha	-5811
ais	-5812
ani	-5813
des	-5814
ema	-5815
eve	-5816
gin	-5817
▁Cà	-5818
▁Dữ	-5819
▁Ut	-5820
▁Vu	-5821
▁mồ	-5822
▁rò	-5823
▁xô	-5824
/10,	-5825
Mình	-5826
emon	-5827
iano	-5828
rael	-5829
rick	-5830
yang	-5831
ydro	-5832
▁10.	-5833
▁365	-5834
▁AAS	-5835
▁Atl	-5836
▁Cát	-5837
▁Hủy	-5838
▁Nền	-5839
▁Run	-5840
▁SMS	-5841
▁Suy	-5842
▁Sắp	-5843
▁Tel	-5844
▁Tem	-5845
▁Tôn	-5846
▁Vir	-5847
▁dẫy	-5848
▁eth	-5849
▁làn	-5850
▁mon	-5851
▁nếp	-5852
▁ray	-5853
▁ren	-5854
▁trá	-5855
▁tựu	-5856
▁đúp	-5857
otton	-5858
▁1080	-5859
▁2007	-5860
▁Diff	-5861
▁Fort	-5862
▁Khám	-5863
▁Mart	-5864
▁Rich	-5865
▁Toán	-5866
▁Virt	-5867
▁chày	-5868
▁chèn	-5869
▁thơm	-5870
▁đoan	-5871
▁đảng	-5872
▁Cauda	-5873
▁Filed	-5874
▁Green	-5875
▁Tuyên	-5876
▁micro	-5877
▁Thomas	-5878
▁nhượng	-5879
▁Youtube	-5880
▁roulette	-5881
/6	-5882
LP	-5883
ÁY	-5884
ẾT	-5885
ỀN	-5886
ịt	-5887
ỬA	-5888
-07	-5889
-14	-5890
-22	-5891
.78	-5892
10,	-5893
93;	-5894
GSM	-5895
Nếu	-5896
Pal	-5897
edu	-5898
elo	-5899
ena	-5900
lad	-5901
lan	-5902
như	-5903
rum	-5904
ser	-5905
▁53	-5906
▁78	-5907
▁AN	-5908
▁Cụ	-5909
▁JB	-5910
▁JP	-5911
▁Sẽ	-5912
▁be	-5913
▁bo	-5914
▁cớ	-5915
▁eo	-5916
▁êm	-5917
▁ĐỘ	-5918
anth	-5919
ayer	-5920
chat	-5921
erry	-5922
feng	-5923
ival	-5924
ƯỜNG	-5925
▁(11	-5926
▁1.3	-5927
▁105	-5928
▁2,5	-5929
▁315	-5930
▁Aqu	-5931
▁Aug	-5932
▁Bal	-5933
▁Fit	-5934
▁Huy	-5935
▁NGH	-5936
▁Rec	-5937
▁Sel	-5938
▁Soc	-5939
▁UAE	-5940
▁bom	-5941
▁bón	-5942
▁mâu	-5943
▁san	-5944
▁trễ	-5945
▁vấp	-5946
▁xua	-5947
-2019	-5948
/2019	-5949
aster	-5950
ipper	-5951
▁Ball	-5952
▁Chúc	-5953
▁Coil	-5954
▁Gióp	-5955
▁Head	-5956
▁Khác	-5957
▁Link	-5958
▁Lồng	-5959
▁More	-5960
▁Nhập	-5961
▁chùm	-5962
▁chốt	-5963
▁comp	-5964
▁down	-5965
▁găng	-5966
▁hang	-5967
▁info	-5968
▁khâu	-5969
▁lướt	-5970
▁muôn	-5971
▁phay	-5972
▁tags	-5973
▁tưới	-5974
verter	-5975
▁&#91;	-5976
▁&#93;	-5977
▁2012,	-5978
▁Adder	-5979
▁EVFTA	-5980
▁Grand	-5981
▁Phiếu	-5982
▁Quang	-5983
▁Water	-5984
▁thuần	-5985
▁thuẫn	-5986
▁Center	-5987
▁London	-5988
▁Oxford	-5989
........	-5990
artridge	-5991
▁Nigeria	-5992
▁jackpot	-5993
▁Airlines	-5994
▁blockchain	-5995
/8	-5996
??	-5997
Fi	-5998
__	-5999
do	-6000
mA	-6001
tu	-6002
ÂU	-6003
ụt	-6004
.77	-6005
.90	-6006
00,	-6007
12)	-6008
125	-6009
="0	-6010
="3	-6011
EMA	-6012
IFI	-6013
aya	-6014
bus	-6015
eld	-6016
kok	-6017
ope	-6018
urn	-6019
val	-6020
ÁCH	-6021
▁1)	-6022
▁3)	-6023
▁92	-6024
▁GT	-6025
▁Hạ	-6026
▁Im	-6027
▁LC	-6028
▁Ol	-6029
▁SI	-6030
▁ml	-6031
▁oz	-6032
aker	-6033
ians	-6034
iece	-6035
isha	-6036
iver	-6037
ning	-6038
ring	-6039
▁(3)	-6040
▁320	-6041
▁Big	-6042
▁Bus	-6043
▁Chó	-6044
▁CÁC	-6045
▁GBP	-6046
▁Los	-6047
▁Nic	-6048
▁Sur	-6049
▁hét	-6050
▁lây	-6051
▁pho	-6052
▁quỳ	-6053
▁rầu	-6054
▁voi	-6055
▁xôi	-6056
▁đồn	-6057
9001:	-6058
ASEAN	-6059
Point	-6060
▁1.0%	-6061
▁Alex	-6062
▁Mand	-6063
▁Nghỉ	-6064
▁Plus	-6065
▁Thức	-6066
▁Tiết	-6067
▁Vacc	-6068
▁chúa	-6069
▁khéo	-6070
▁spin	-6071
▁sửng	-6072
ilding	-6073
▁49.34	-6074
▁Fiber	-6075
▁Frank	-6076
▁Thích	-6077
▁hydro	-6078
▁nhiễu	-6079
uploads	-6080
▁(2012)	-6081
▁10.000	-6082
▁Chrome	-6083
▁Luxury	-6084
▁Plugin	-6085
▁Report	-6086
▁Austral	-6087
▁Virtual	-6088
avascript	-6089
▁testosterone	-6090
Cl	-6091
Cr	-6092
Ex	-6093
HA	-6094
MT	-6095
số	-6096
ен	-6097
▁←	-6098
-04	-6099
bag	-6100
ces	-6101
của	-6102
ona	-6103
sss	-6104
ulf	-6105
▁ES	-6106
▁GP	-6107
▁GW	-6108
▁He	-6109
▁IC	-6110
▁Kẻ	-6111
▁PS	-6112
▁RE	-6113
▁TY	-6114
▁eB	-6115
▁xơ	-6116
▁Đá	-6117
▁Đô	-6118
▁đà	-6119
9999	-6120
Outs	-6121
ally	-6122
atri	-6123
iday	-6124
rict	-6125
▁(2,	-6126
▁27,	-6127
▁3.2	-6128
▁BTC	-6129
▁Chữ	-6130
▁CẬY	-6131
▁HDL	-6132
▁Hồi	-6133
▁Lib	-6134
▁Mah	-6135
▁Pos	-6136
▁Quý	-6137
▁SGS	-6138
▁Seg	-6139
▁Yên	-6140
▁apk	-6141
▁cay	-6142
▁chớ	-6143
▁gậy	-6144
▁hòn	-6145
▁ngô	-6146
▁nâu	-6147
▁tân	-6148
▁đâm	-6149
-2017	-6150
Trong	-6151
actor	-6152
chiều	-6153
phere	-6154
phone	-6155
ution	-6156
▁Cell	-6157
▁Fair	-6158
▁Glob	-6159
▁Hiểu	-6160
▁Serv	-6161
▁Vùng	-6162
▁Wash	-6163
▁giàn	-6164
▁láng	-6165
▁nấng	-6166
▁thua	-6167
Trader	-6168
▁CHÚNG	-6169
▁Count	-6170
▁Dress	-6171
▁Shang	-6172
▁hoành	-6173
▁Darius	-6174
▁PayPal	-6175
▁Royale	-6176
▁Tablet	-6177
▁google	-6178
▁Belmont	-6179
▁William	-6180
olypropyl	-6181
▁Diffuser	-6182
eyelashstore	-6183
\)	-6184
mi	-6185
mo	-6186
ni	-6187
pu	-6188
sc	-6189
ta	-6190
▁✔	-6191
-21	-6192
.38	-6193
?”.	-6194
aig	-6195
can	-6196
jar	-6197
oro	-6198
pha	-6199
ura	-6200
war	-6201
▁59	-6202
▁68	-6203
▁94	-6204
▁KT	-6205
▁QR	-6206
▁Ra	-6207
▁Rõ	-6208
▁UK	-6209
▁Vi	-6210
▁\(	-6211
▁tò	-6212
2017	-6213
enia	-6214
list	-6215
▁0.8	-6216
▁2.2	-6217
▁877	-6218
▁AMP	-6219
▁Don	-6220
▁Fre	-6221
▁GMP	-6222
▁Hor	-6223
▁Huế	-6224
▁Hóa	-6225
▁Lấy	-6226
▁Mức	-6227
▁Phí	-6228
▁Zoo	-6229
▁mac	-6230
▁mộc	-6231
▁nài	-6232
▁sex	-6233
▁Đứa	-6234
755-2	-6235
abeth	-6236
izera	-6237
proof	-6238
▁Cand	-6239
▁Dung	-6240
▁Giúp	-6241
▁Găng	-6242
▁Mary	-6243
▁Phản	-6244
▁Rượu	-6245
▁Spot	-6246
▁Tail	-6247
▁Wall	-6248
▁ngực	-6249
Casino	-6250
cooter	-6251
ilized	-6252
urgaon	-6253
▁2013,	-6254
▁Catal	-6255
▁Cisco	-6256
▁Ngược	-6257
▁Phone	-6258
▁AASraw	-6259
▁webcam	-6260
--------	-6261
▁100.000	-6262
▁Bangkok	-6263
▁Unthank	-6264
▁Building	-6265
▁Dariusss	-6266
▁Australia	-6267
▁Elizabeth	-6268
▁Downloader	-6269
▁MetaTrader	-6270
4-	-6271
53	-6272
DC	-6273
HZ	-6274
eu	-6275
sa	-6276
zo	-6277
ƠN	-6278
ẨM	-6279
ẾN	-6280
ịa	-6281
▁Ổ	-6282
,5%	-6283
.01	-6284
.23	-6285
IỆU	-6286
bit	-6287
htt	-6288
kin	-6289
led	-6290
shi	-6291
ềng	-6292
▁$7	-6293
▁MD	-6294
▁NW	-6295
▁QT	-6296
▁dỡ	-6297
▁go	-6298
▁mỉ	-6299
▁tơ	-6300
▁xỉ	-6301
▁Ăn	-6302
1000	-6303
enna	-6304
exas	-6305
imer	-6306
ives	-6307
raph	-6308
xbet	-6309
▁280	-6310
▁304	-6311
▁Ass	-6312
▁DMF	-6313
▁Die	-6314
▁GDP	-6315
▁Gar	-6316
▁Hạt	-6317
▁Jin	-6318
▁Lee	-6319
▁Med	-6320
▁Mil	-6321
▁Mus	-6322
▁MÁY	-6323
▁Pot	-6324
▁Rom	-6325
▁Sub	-6326
▁Tâm	-6327
▁Tết	-6328
▁csg	-6329
▁hỏa	-6330
▁loa	-6331
▁lợn	-6332
▁ngộ	-6333
▁par	-6334
▁xốp	-6335
/2020	-6336
TTXVN	-6337
eting	-6338
iston	-6339
▁....	-6340
▁1600	-6341
▁Dist	-6342
▁Face	-6343
▁Foam	-6344
▁Land	-6345
▁Mont	-6346
▁Open	-6347
▁Scot	-6348
▁Shar	-6349
▁Thai	-6350
▁Type	-6351
▁chôn	-6352
▁clip	-6353
▁phàn	-6354
▁ĐÁNG	-6355
eboard	-6356
▁2015)	-6357
▁2016,	-6358
▁Georg	-6359
▁Hoang	-6360
▁Skype	-6361
▁giềng	-6362
aterial	-6363
▁Israel	-6364
▁Jizera	-6365
▁Village	-6366
wordpress	-6367
▁Magnetic	-6368
▁Silicone	-6369
▁Jailbreak	-6370
▁Washington	-6371
▁Dariussssss	-6372
52	-6373
DE	-6374
GL	-6375
HE	-6376
HT	-6377
JD	-6378
VA	-6379
ij	-6380
ém	-6381
та	-6382
ẬN	-6383
-06	-6384
.11	-6385
.95	-6386
/8,	-6387
015	-6388
="4	-6389
Pir	-6390
eff	-6391
enb	-6392
erv	-6393
etr	-6394
jin	-6395
off	-6396
rah	-6397
với	-6398
▁5-	-6399
▁61	-6400
▁7.	-6401
▁Ca	-6402
▁DX	-6403
▁Iq	-6404
▁Kr	-6405
▁LO	-6406
▁MO	-6407
▁Mo	-6408
▁Nữ	-6409
▁PN	-6410
▁SK	-6411
▁Sô	-6412
▁ZM	-6413
▁kề	-6414
▁rẽ	-6415
▁wh	-6416
aner	-6417
cast	-6418
ense	-6419
ette	-6420
▁(25	-6421
▁Act	-6422
▁Dev	-6423
▁End	-6424
▁Hỡi	-6425
▁Lạc	-6426
▁Lắp	-6427
▁OFF	-6428
▁Quê	-6429
▁Rev	-6430
▁SQL	-6431
▁Sil	-6432
▁Tam	-6433
▁Vis	-6434
▁XML	-6435
▁bát	-6436
▁est	-6437
▁etc	-6438
▁ghê	-6439
▁gót	-6440
▁nha	-6441
▁phô	-6442
hacks	-6443
izing	-6444
uitar	-6445
▁Card	-6446
▁Coca	-6447
▁Cont	-6448
▁Cổng	-6449
▁Door	-6450
▁Dùng	-6451
▁Hero	-6452
▁Hung	-6453
▁Page	-6454
▁Tang	-6455
▁Zeal	-6456
▁chén	-6457
▁khoe	-6458
▁logo	-6459
▁phơi	-6460
▁phổi	-6461
▁rách	-6462
▁rồng	-6463
▁tịnh	-6464
▁vách	-6465
itamin	-6466
ubarak	-6467
▁1.000	-6468
▁Enter	-6469
▁Epson	-6470
▁Franc	-6471
▁Money	-6472
▁Nhiệm	-6473
▁Press	-6474
▁Texas	-6475
▁Train	-6476
▁khoái	-6477
▁khăng	-6478
▁thừng	-6479
▁vegas	-6480
▁(2016)	-6481
▁Odisha	-6482
▁Studio	-6483
▁guitar	-6484
▁nghiệt	-6485
▁online	-6486
ateboard	-6487
▁Deposit	-6488
▁Gurgaon	-6489
▁Molding	-6490
▁Olympic	-6491
▁Zealand	-6492
▁Portable	-6493
▁Valentine	-6494
":	-6495
3%	-6496
97	-6497
CB	-6498
Có	-6499
RS	-6500
df	-6501
mẹ	-6502
yi	-6503
ẢI	-6504
.04	-6505
.64	-6506
/9,	-6507
Ltd	-6508
TPP	-6509
Tin	-6510
bul	-6511
ilm	-6512
ume	-6513
Ảnh	-6514
▁(8	-6515
▁87	-6516
▁88	-6517
▁Au	-6518
▁HS	-6519
▁MA	-6520
▁MN	-6521
▁dì	-6522
▁hố	-6523
▁nạ	-6524
▁ớt	-6525
-300	-6526
:51%	-6527
bank	-6528
công	-6529
item	-6530
izza	-6531
phần	-6532
ther	-6533
▁(0)	-6534
▁(13	-6535
▁---	-6536
▁650	-6537
▁Giô	-6538
▁Hòa	-6539
▁Jun	-6540
▁KCN	-6541
▁Pip	-6542
▁Ram	-6543
▁Sep	-6544
▁Ter	-6545
▁Trụ	-6546
▁Tóm	-6547
▁Tầm	-6548
▁Xác	-6549
▁bộc	-6550
▁cnc	-6551
▁gãy	-6552
▁ngõ	-6553
▁ngự	-6554
▁phà	-6555
▁rủa	-6556
▁xay	-6557
▁ách	-6558
▁Ước	-6559
etter	-6560
usher	-6561
▁Cuốn	-6562
▁Need	-6563
▁PHẨM	-6564
▁Pick	-6565
▁Read	-6566
▁Tech	-6567
▁Thủy	-6568
▁chèo	-6569
▁chóc	-6570
▁file	-6571
▁long	-6572
▁more	-6573
▁ranh	-6574
▁Đáng	-6575
injago	-6576
▁Khánh	-6577
▁Robot	-6578
▁khinh	-6579
▁(2010)	-6580
▁Carton	-6581
▁Hacker	-6582
▁Thread	-6583
▁English	-6584
▁Express	-6585
▁Mubarak	-6586
▁Vietnam	-6587
▁android	-6588
▁Dongguan	-6589
▁nashville	-6590
▁unlimited	-6591
Al	-6592
DN	-6593
HP	-6594
TO	-6595
ỨC	-6596
ỰC	-6597
-70	-6598
.18	-6599
350	-6600
OMO	-6601
bar	-6602
eon	-6603
orp	-6604
ots	-6605
set	-6606
tek	-6607
▁67	-6608
▁Ax	-6609
▁DI	-6610
▁EX	-6611
▁HT	-6612
▁NÓ	-6613
▁SN	-6614
▁UB	-6615
▁hi	-6616
▁má	-6617
▁ti	-6618
▁ôn	-6619
▁đố	-6620
Sets	-6621
Việt	-6622
ello	-6623
gang	-6624
iana	-6625
ishi	-6626
pper	-6627
umma	-6628
wood	-6629
▁6.0	-6630
▁ATV	-6631
▁Ash	-6632
▁Bab	-6633
▁Bai	-6634
▁Bir	-6635
▁Bơm	-6636
▁CAD	-6637
▁CAS	-6638
▁GIÁ	-6639
▁Inj	-6640
▁Kéo	-6641
▁SEA	-6642
▁SMD	-6643
▁Saf	-6644
▁SẢN	-6645
▁Sắt	-6646
▁Trợ	-6647
▁Vai	-6648
▁atr	-6649
▁bóp	-6650
▁dev	-6651
▁dạn	-6652
▁equ	-6653
▁mìn	-6654
▁mồi	-6655
▁sọc	-6656
▁tụy	-6657
▁Đêm	-6658
▁Đảm	-6659
▁đao	-6660
▁đứt	-6661
2.168	-6662
Những	-6663
abric	-6664
eland	-6665
ersey	-6666
iness	-6667
quare	-6668
▁Back	-6669
▁Chăm	-6670
▁Cạnh	-6671
▁Cảng	-6672
▁Giày	-6673
▁Marc	-6674
▁Sống	-6675
▁Tiêm	-6676
▁Tiểu	-6677
▁Tỉnh	-6678
▁Utah	-6679
▁Watt	-6680
▁Yong	-6681
▁acác	-6682
▁cành	-6683
▁gieo	-6684
▁ngần	-6685
▁nhăn	-6686
▁trút	-6687
atcher	-6688
▁Grill	-6689
▁Lyoph	-6690
▁Peter	-6691
▁huynh	-6692
Pirater	-6693
▁County	-6694
▁Crypto	-6695
▁Double	-6696
▁Digital	-6697
▁Vaccine	-6698
▁Genotropin	-6699
▁Lyophilized	-6700
!,	-6701
AO	-6702
DI	-6703
OX	-6704
On	-6705
TE	-6706
rs	-6707
ẤP	-6708
.25	-6709
/01	-6710
001	-6711
120	-6712
999	-6713
MPa	-6714
ems	-6715
ita	-6716
lut	-6717
oxy	-6718
ult	-6719
▁62	-6720
▁Mĩ	-6721
▁Ok	-6722
▁nu	-6723
▁sê	-6724
▁đẽ	-6725
▁Ưu	-6726
.05.	-6727
acet	-6728
ovel	-6729
▁-10	-6730
▁210	-6731
▁256	-6732
▁5.5	-6733
▁CEO	-6734
▁CPU	-6735
▁ECN	-6736
▁Giả	-6737
▁Nan	-6738
▁Nên	-6739
▁Pad	-6740
▁Quả	-6741
▁Ren	-6742
▁Sem	-6743
▁Seo	-6744
▁VIP	-6745
▁Xăm	-6746
▁ach	-6747
▁búp	-6748
▁gào	-6749
▁pre	-6750
▁ten	-6751
▁Đền	-6752
astic	-6753
inger	-6754
ional	-6755
▁2006	-6756
▁Call	-6757
▁Cert	-6758
▁Chat	-6759
▁Chim	-6760
▁Iran	-6761
▁Khởi	-6762
▁Kênh	-6763
▁Matt	-6764
▁Roll	-6765
▁Răng	-6766
▁Size	-6767
▁Tong	-6768
▁Tích	-6769
▁chéo	-6770
▁cont	-6771
▁cưỡi	-6772
▁muối	-6773
▁nhàm	-6774
▁nhạt	-6775
▁tung	-6776
itemap	-6777
▁2016)	-6778
▁PROMO	-6779
▁Point	-6780
▁piano	-6781
▁pixel	-6782
▁silic	-6783
▁Burner	-6784
▁Camera	-6785
▁Nevada	-6786
▁Oracle	-6787
▁Virgin	-6788
▁Acetate	-6789
▁Manager	-6790
▁Scotland	-6791
olypropylene	-6792
▁Testosterone	-6793
02	-6794
HI	-6795
ND	-6796
PO	-6797
Ta	-6798
js	-6799
ty	-6800
òm	-6801
ụn	-6802
▁}	-6803
,00	-6804
-08	-6805
-09	-6806
.14	-6807
.19	-6808
700	-6809
Box	-6810
ORD	-6811
erm	-6812
làm	-6813
ran	-6814
rey	-6815
tle	-6816
ÍNH	-6817
̣ng	-6818
▁(7	-6819
▁EC	-6820
▁Er	-6821
▁MU	-6822
▁OK	-6823
▁RC	-6824
▁Vụ	-6825
▁Yu	-6826
▁xí	-6827
-800	-6828
.06.	-6829
/11,	-6830
Cola	-6831
ages	-6832
anol	-6833
ible	-6834
mark	-6835
reen	-6836
umin	-6837
được	-6838
▁123	-6839
▁135	-6840
▁188	-6841
▁2.4	-6842
▁31,	-6843
▁CCN	-6844
▁Cai	-6845
▁Cha	-6846
▁Giu	-6847
▁Ken	-6848
▁Lab	-6849
▁Pol	-6850
▁Rog	-6851
▁TGG	-6852
▁Yam	-6853
▁cõi	-6854
▁cối	-6855
▁dâu	-6856
▁fax	-6857
▁gắt	-6858
▁hân	-6859
▁man	-6860
▁not	-6861
▁sal	-6862
▁Đam	-6863
▁Đất	-6864
erate	-6865
ffeta	-6866
oline	-6867
osite	-6868
urity	-6869
▁Fran	-6870
▁GIỚI	-6871
▁Gang	-6872
▁Lĩnh	-6873
▁Ngọc	-6874
▁Oper	-6875
▁Part	-6876
▁Reed	-6877
▁Teen	-6878
▁Thuỵ	-6879
▁giễu	-6880
▁menu	-6881
▁nhầm	-6882
eather	-6883
▁2015,	-6884
▁2016.	-6885
▁Cryst	-6886
▁Dường	-6887
▁Louis	-6888
▁TTXVN	-6889
▁hover	-6890
acebook	-6891
▁Chuyện	-6892
▁Geocon	-6893
▁Phường	-6894
▁System	-6895
.05.2018	-6896
▁Patrick	-6897
▁Trailer	-6898
▁Meyelashstore	-6899
%;	-6900
AK	-6901
DM	-6902
EI	-6903
HO	-6904
Or	-6905
Sp	-6906
dh	-6907
ÀO	-6908
ỘT	-6909
′′	-6910
▁★	-6911
-24	-6912
.35	-6913
ART	-6914
Khi	-6915
Ray	-6916
eda	-6917
odi	-6918
tám	-6919
ule	-6920
ƠNG	-6921
▁$4	-6922
▁+1	-6923
▁2-	-6924
▁EA	-6925
▁Om	-6926
▁Tủ	-6927
▁nt	-6928
▁oh	-6929
apos	-6930
avel	-6931
chất	-6932
▁(3,	-6933
▁Bad	-6934
▁Bru	-6935
▁Bud	-6936
▁Den	-6937
▁FDA	-6938
▁Kaw	-6939
▁Lối	-6940
▁Sen	-6941
▁TPU	-6942
▁Vin	-6943
▁Wal	-6944
▁alt	-6945
▁cre	-6946
▁cựu	-6947
▁kẹt	-6948
▁mat	-6949
▁nhé	-6950
▁nom	-6951
▁rải	-6952
▁tab	-6953
▁trà	-6954
▁đạc	-6955
▁ưng	-6956
INGBO	-6957
Trang	-6958
Trung	-6959
berra	-6960
iller	-6961
▁...]	-6962
▁Body	-6963
▁Bung	-6964
▁Conn	-6965
▁Coun	-6966
▁Fest	-6967
▁Flex	-6968
▁Hill	-6969
▁Jing	-6970
▁NEMA	-6971
▁Ngôi	-6972
▁Ngôn	-6973
▁Show	-6974
▁Thần	-6975
▁Work	-6976
▁Yang	-6977
▁Zone	-6978
▁liêm	-6979
▁mini	-6980
▁ngắt	-6981
▁ruồi	-6982
▁thèm	-6983
▁tụng	-6984
▁viêm	-6985
eptine	-6986
ipedia	-6987
ormone	-6988
▁2008,	-6989
▁39.78	-6990
▁Coins	-6991
▁Flash	-6992
▁Giăng	-6993
▁Huafu	-6994
▁Istan	-6995
▁Penny	-6996
▁Poker	-6997
▁Royal	-6998
▁Share	-6999
▁Tours	-7000
▁Vinyl	-7001
▁Watts	-7002
▁hacks	-7003
▁ngoạn	-7004
▁nguội	-7005
▁vinyl	-7006
▁Cutter	-7007
▁Hunter	-7008
▁Rotary	-7009
▁thoáng	-7010
endering	-7011
▁192.168	-7012
▁Canberra	-7013
▁Istanbul	-7014
03	-7015
Fl	-7016
IỀ	-7017
MK	-7018
ỐC	-7019
40)	-7020
CỬA	-7021
Sản	-7022
add	-7023
ado	-7024
dio	-7025
ito	-7026
jet	-7027
▁#5	-7028
▁#6	-7029
▁Bồ	-7030
▁Fu	-7031
▁Vo	-7032
▁Xả	-7033
▁lơ	-7034
▁sc	-7035
▁tạ	-7036
▁vở	-7037
▁ĐỒ	-7038
0000	-7039
Time	-7040
aber	-7041
akes	-7042
atar	-7043
epad	-7044
idth	-7045
illa	-7046
itar	-7047
lege	-7048
ries	-7049
rine	-7050
▁(20	-7051
▁(30	-7052
▁1.8	-7053
▁11.	-7054
▁195	-7055
▁AST	-7056
▁Bob	-7057
▁Cre	-7058
▁Cực	-7059
▁Dom	-7060
▁Ham	-7061
▁Jim	-7062
▁Jul	-7063
▁Jum	-7064
▁Mix	-7065
▁NCS	-7066
▁Ros	-7067
▁Sok	-7068
▁Sus	-7069
▁Syr	-7070
▁TKT	-7071
▁Ten	-7072
▁Tho	-7073
▁Thơ	-7074
▁Vol	-7075
▁Zur	-7076
▁bến	-7077
▁cạo	-7078
▁cắn	-7079
▁lặn	-7080
▁ngỏ	-7081
▁ref	-7082
▁xộn	-7083
▁≥10	-7084
arger	-7085
asaki	-7086
entai	-7087
epper	-7088
field	-7089
ippie	-7090
namfg	-7091
stone	-7092
▁0.15	-7093
▁Beau	-7094
▁Biot	-7095
▁Dụng	-7096
▁HDPE	-7097
▁Inch	-7098
▁Lock	-7099
▁RFID	-7100
▁Real	-7101
▁Rose	-7102
▁Trip	-7103
▁Xing	-7104
▁chay	-7105
▁ganh	-7106
▁giật	-7107
▁hăng	-7108
▁ròng	-7109
▁đính	-7110
Script	-7111
Sphere	-7112
arator	-7113
compro	-7114
enturi	-7115
rument	-7116
terest	-7117
umenst	-7118
▁18.91	-7119
▁Haiti	-7120
▁Theme	-7121
▁nhiếp	-7122
▁nhược	-7123
▁quãng	-7124
▁(2011)	-7125
▁Nickel	-7126
▁Shovel	-7127
▁Tester	-7128
▁camera	-7129
▁Angeles	-7130
▁Company	-7131
▁Georgia	-7132
▁Limited	-7133
▁Network	-7134
▁Printer	-7135
umenstock	-7136
▁Comments	-7137
▁Instrument	-7138
!”	-7139
AB	-7140
CP	-7141
HQ	-7142
It	-7143
RT	-7144
UB	-7145
Un	-7146
ba	-7147
cu	-7148
rd	-7149
tn	-7150
ön	-7151
▁Í	-7152
!”.	-7153
.16	-7154
="5	-7155
IỀU	-7156
Mpa	-7157
ags	-7158
cks	-7159
day	-7160
ega	-7161
ker	-7162
oan	-7163
opt	-7164
oul	-7165
png	-7166
xml	-7167
ÌNH	-7168
ện	-7169
▁#>	-7170
▁96	-7171
▁Cứ	-7172
▁EP	-7173
▁GS	-7174
▁Kỷ	-7175
▁Mr	-7176
▁NC	-7177
▁Na	-7178
▁Oh	-7179
▁SF	-7180
▁Vô	-7181
▁cọ	-7182
▁lọ	-7183
5.86	-7184
aska	-7185
base	-7186
etch	-7187
face	-7188
ilin	-7189
link	-7190
trol	-7191
ward	-7192
Điều	-7193
▁198	-7194
▁260	-7195
▁270	-7196
▁7,5	-7197
▁7.5	-7198
▁AUD	-7199
▁BCH	-7200
▁Buy	-7201
▁Bọt	-7202
▁Của	-7203
▁Det	-7204
▁Dải	-7205
▁Fer	-7206
▁Ger	-7207
▁Hum	-7208
▁IEC	-7209
▁Kem	-7210
▁Kev	-7211
▁Loa	-7212
▁MUM	-7213
▁Mak	-7214
▁MỘT	-7215
▁Pak	-7216
▁Phổ	-7217
▁Pop	-7218
▁Tom	-7219
▁USA	-7220
▁Vài	-7221
▁WPC	-7222
▁Yan	-7223
▁bồn	-7224
▁cẩu	-7225
▁gục	-7226
▁log	-7227
▁mar	-7228
▁nếm	-7229
▁top	-7230
▁tột	-7231
▁vụn	-7232
eless	-7233
eller	-7234
older	-7235
tháng	-7236
▁1914	-7237
▁ASTM	-7238
▁Cook	-7239
▁Nhạc	-7240
▁Prog	-7241
▁Taxi	-7242
▁Trao	-7243
▁Trạm	-7244
▁Wtám	-7245
▁XUẤT	-7246
▁Xbox	-7247
▁Xiao	-7248
▁bích	-7249
▁chém	-7250
▁hiền	-7251
▁iPod	-7252
▁thám	-7253
▁xăng	-7254
▁đụng	-7255
androl	-7256
bright	-7257
ethane	-7258
iphone	-7259
ousine	-7260
▁2011)	-7261
▁Autom	-7262
▁Metal	-7263
▁Ngành	-7264
▁Riêng	-7265
▁Shell	-7266
▁South	-7267
▁Spong	-7268
▁Vegas	-7269
▁chênh	-7270
▁quặng	-7271
▁slots	-7272
▁Golden	-7273
▁Master	-7274
▁Player	-7275
▁Rooder	-7276
▁Yamaha	-7277
▁Zurich	-7278
▁pallet	-7279
▁Atlanta	-7280
▁Crystal	-7281
▁Florida	-7282
▁Michael	-7283
▁Kawasaki	-7284
▁download	-7285
▁ethereum	-7286
▁Biotechnology	-7287
?"	-7288
Ad	-7289
MI	-7290
OH	-7291
Si	-7292
cô	-7293
oe	-7294
uo	-7295
-2,	-7296
.30	-7297
10)	-7298
105	-7299
380	-7300
769	-7301
IỂM	-7302
Xin	-7303
atr	-7304
cow	-7305
ibo	-7306
iro	-7307
low	-7308
uốc	-7309
đại	-7310
▁++	-7311
▁77	-7312
▁89	-7313
▁<#	-7314
▁DV	-7315
▁IS	-7316
▁Ov	-7317
▁PT	-7318
▁TN	-7319
▁Te	-7320
▁Ub	-7321
▁ok	-7322
▁sả	-7323
Chat	-7324
acth	-7325
aria	-7326
arus	-7327
chun	-7328
ding	-7329
html	-7330
ican	-7331
iles	-7332
long	-7333
ongo	-7334
sson	-7335
well	-7336
▁2.6	-7337
▁2.7	-7338
▁777	-7339
▁Ann	-7340
▁Ele	-7341
▁HIV	-7342
▁Hẹn	-7343
▁Moz	-7344
▁Nex	-7345
▁Nob	-7346
▁Nồi	-7347
▁Oct	-7348
▁Rem	-7349
▁SSL	-7350
▁Séc	-7351
▁TẠI	-7352
▁VPN	-7353
▁Ven	-7354
▁VỚI	-7355
▁gal	-7356
▁las	-7357
▁leg	-7358
▁léo	-7359
▁lùi	-7360
▁lắc	-7361
▁mix	-7362
▁per	-7363
▁phu	-7364
▁sáp	-7365
apter	-7366
ative	-7367
cheng	-7368
ibbon	-7369
ights	-7370
▁(199	-7371
▁Acid	-7372
▁Anti	-7373
▁Bank	-7374
▁Chem	-7375
▁Ever	-7376
▁Hưng	-7377
▁Make	-7378
▁Nhất	-7379
▁Prec	-7380
▁Seat	-7381
▁Side	-7382
▁Stan	-7383
▁Sông	-7384
▁UBND	-7385
▁chua	-7386
▁gram	-7387
▁khép	-7388
▁ngột	-7389
▁vịnh	-7390
▁xước	-7391
▁ĐỒNG	-7392
Chương	-7393
arinet	-7394
change	-7395
drogen	-7396
▁37.64	-7397
▁Adele	-7398
▁Block	-7399
▁CPTPP	-7400
▁Chile	-7401
▁Class	-7402
▁Color	-7403
▁Media	-7404
▁Mount	-7405
▁Ninja	-7406
▁Parad	-7407
▁Plain	-7408
▁Quyết	-7409
▁Sheng	-7410
▁Thỉnh	-7411
▁Tread	-7412
▁thoái	-7413
▁trúng	-7414
▁động	-7415
,000.00	-7416
▁(2013)	-7417
▁Linked	-7418
▁Moscow	-7419
▁NINGBO	-7420
▁exacth	-7421
.000.000	-7422
▁College	-7423
▁Univers	-7424
ingdirect	-7425
▁Festival	-7426
▁Injection	-7427
▁Rendering	-7428
yptocurrenc	-7429
▁JavaScript	-7430
▁exacthacks	-7431
.’	-7432
09	-7433
1:	-7434
RH	-7435
UI	-7436
eB	-7437
ko	-7438
nm	-7439
ns	-7440
từ	-7441
yc	-7442
ÂN	-7443
õm	-7444
ẦN	-7445
”?	-7446
-26	-7447
/3,	-7448
/7,	-7449
160	-7450
Bro	-7451
Búp	-7452
IDS	-7453
ITE	-7454
Ind	-7455
LAN	-7456
PCS	-7457
Tìm	-7458
alo	-7459
ced	-7460
eau	-7461
ika	-7462
ngh	-7463
oga	-7464
ove	-7465
sey	-7466
tay	-7467
uba	-7468
urt	-7469
ịnh	-7470
▁(+	-7471
▁5%	-7472
▁Bề	-7473
▁Cử	-7474
▁DỤ	-7475
▁EL	-7476
▁Fe	-7477
▁GO	-7478
▁HG	-7479
▁HY	-7480
▁Ji	-7481
▁KG	-7482
▁Ke	-7483
▁Ms	-7484
▁Mạ	-7485
▁Py	-7486
▁TO	-7487
▁UP	-7488
▁dr	-7489
▁rơ	-7490
▁sờ	-7491
▁vỗ	-7492
▁xá	-7493
.08.	-7494
.500	-7495
2016	-7496
Cười	-7497
ffin	-7498
iant	-7499
ides	-7500
kers	-7501
okia	-7502
thon	-7503
▁1,2	-7504
▁108	-7505
▁12.	-7506
▁121	-7507
▁225	-7508
▁25%	-7509
▁80%	-7510
▁Add	-7511
▁Bos	-7512
▁Cnc	-7513
▁EVA	-7514
▁Ghé	-7515
▁Hou	-7516
▁Hán	-7517
▁Jon	-7518
▁Kon	-7519
▁Lot	-7520
▁PHP	-7521
▁PPS	-7522
▁Pen	-7523
▁Pil	-7524
▁QUY	-7525
▁Sle	-7526
▁TUV	-7527
▁Toy	-7528
▁VCI	-7529
▁dụm	-7530
▁gác	-7531
▁gấu	-7532
▁kèn	-7533
▁nan	-7534
▁nẩy	-7535
▁phả	-7536
▁Đời	-7537
▁đục	-7538
/2016	-7539
XNUMX	-7540
anmar	-7541
chúng	-7542
ecoin	-7543
inder	-7544
▁1950	-7545
▁2003	-7546
▁Book	-7547
▁Case	-7548
▁Diêu	-7549
▁Drop	-7550
▁Kids	-7551
▁Muốn	-7552
▁Niềm	-7553
▁Pack	-7554
▁Prof	-7555
▁Russ	-7556
▁Sund	-7557
▁Than	-7558
▁Thạc	-7559
▁Tiện	-7560
▁Tuổi	-7561
▁bing	-7562
▁gàng	-7563
▁kiệt	-7564
▁miện	-7565
▁nhồi	-7566
▁nhộn	-7567
▁taxi	-7568
▁thán	-7569
▁tước	-7570
alafil	-7571
entina	-7572
stonia	-7573
▁$5.86	-7574
▁2006,	-7575
▁Chain	-7576
▁Girls	-7577
▁Guang	-7578
▁Hương	-7579
▁Khoản	-7580
▁Nhanh	-7581
▁North	-7582
▁Pharm	-7583
▁Susan	-7584
▁White	-7585
▁cuồng	-7586
▁shopp	-7587
▁(2014)	-7588
▁Bungal	-7589
▁Covers	-7590
▁Giường	-7591
▁Guitar	-7592
▁choáng	-7593
▁iphone	-7594
▁Drifter	-7595
▁Russell	-7596
▁Spotify	-7597
▁Tattoos	-7598
▁peptide	-7599
▁sitemap	-7600
androlone	-7601
▁Morehacks	-7602
▁SharePoint	-7603
▁shoppingdirect	-7604
))	-7605
/-	-7606
/2	-7607
3-	-7608
Nm	-7609
UR	-7610
lô	-7611
ẶC	-7612
ởm	-7613
ụa	-7614
▁	-7615
!!!	-7616
.17	-7617
/5,	-7618
993	-7619
:86	-7620
BET	-7621
For	-7622
Giá	-7623
Hãy	-7624
UYỆ	-7625
Win	-7626
ato	-7627
ece	-7628
ela	-7629
emb	-7630
hen	-7631
itz	-7632
jan	-7633
men	-7634
màu	-7635
máy	-7636
osp	-7637
tan	-7638
ƯỢC	-7639
▁AL	-7640
▁DB	-7641
▁Eg	-7642
▁Ev	-7643
▁Ey	-7644
▁IV	-7645
▁Nô	-7646
▁Nụ	-7647
▁RH	-7648
▁XP	-7649
▁rể	-7650
▁up	-7651
▁xế	-7652
▁Ít	-7653
.09.	-7654
1390	-7655
2013	-7656
Miễn	-7657
abol	-7658
acen	-7659
acqu	-7660
aron	-7661
cess	-7662
côla	-7663
epro	-7664
ique	-7665
oman	-7666
omer	-7667
oros	-7668
oung	-7669
rich	-7670
thew	-7671
unny	-7672
ента	-7673
▁'01	-7674
▁(18	-7675
▁1/2	-7676
▁128	-7677
▁2.8	-7678
▁5.0	-7679
▁888	-7680
▁ATM	-7681
▁Adv	-7682
▁Ali	-7683
▁Are	-7684
▁Arg	-7685
▁CPA	-7686
▁Chì	-7687
▁Cậu	-7688
▁Cốp	-7689
▁Dar	-7690
▁Dấu	-7691
▁Ext	-7692
▁Flo	-7693
▁Ink	-7694
▁Iow	-7695
▁Las	-7696
▁Laz	-7697
▁Low	-7698
▁Mor	-7699
▁Mất	-7700
▁Mối	-7701
▁QTY	-7702
▁SER	-7703
▁Sin	-7704
▁Thú	-7705
▁Tun	-7706
▁Upd	-7707
▁Viv	-7708
▁YJD	-7709
▁alb	-7710
▁col	-7711
▁cưa	-7712
▁cẩm	-7713
▁gel	-7714
▁heo	-7715
▁ios	-7716
▁pip	-7717
▁pvc	-7718
▁sầu	-7719
▁tởm	-7720
▁Đột	-7721
28113	-7722
house	-7723
sheng	-7724
▁1300	-7725
▁Biến	-7726
▁Biết	-7727
▁CNIL	-7728
▁Film	-7729
▁Hond	-7730
▁Kate	-7731
▁Kosh	-7732
▁Spir	-7733
▁Step	-7734
▁Trận	-7735
▁Trục	-7736
▁Tuấn	-7737
▁WIFI	-7738
▁buồm	-7739
▁bỏng	-7740
▁hiếp	-7741
▁mộng	-7742
▁size	-7743
▁thau	-7744
▁thạc	-7745
▁ĐỘNG	-7746
▁điêu	-7747
acetam	-7748
etroit	-7749
ipping	-7750
iverse	-7751
▁2010,	-7752
▁Brown	-7753
▁Clark	-7754
▁Graph	-7755
▁Maria	-7756
▁admin	-7757
▁nương	-7758
▁pizza	-7759
▁trans	-7760
▁tweet	-7761
2018-01	-7762
▁Cooler	-7763
▁Daniel	-7764
▁Direct	-7765
▁Heroes	-7766
▁Martin	-7767
▁Square	-7768
▁1528113	-7769
▁Categor	-7770
▁Myanmar	-7771
▁Saracen	-7772
▁Coinbase	-7773
▁District	-7774
▁Paradise	-7775
▁Converter	-7776
▁Pinterest	-7777
▁Wikipedia	-7778
▁halloween	-7779
▁hoverboard	-7780
▁Blumenstock	-7781
'.	-7782
08	-7783
Bl	-7784
He	-7785
MB	-7786
PH	-7787
Sử	-7788
TP	-7789
UP	-7790
cs	-7791
ga	-7792
là	-7793
uc	-7794
ẦU	-7795
ỐI	-7796
▁á	-7797
▁ơ	-7798
-1,	-7799
-85	-7800
-88	-7801
.24	-7802
.50	-7803
.80	-7804
00€	-7805
3.5	-7806
30,	-7807
320	-7808
4.5	-7809
APE	-7810
Anh	-7811
MLE	-7812
Our	-7813
SQL	-7814
TER	-7815
aid	-7816
asy	-7817
col	-7818
iki	-7819
ior	-7820
kết	-7821
mmx	-7822
oot	-7823
ple	-7824
▁(9	-7825
▁4)	-7826
▁97	-7827
▁::	-7828
▁BC	-7829
▁Cờ	-7830
▁DH	-7831
▁Ig	-7832
▁Sl	-7833
▁Tử	-7834
▁VM	-7835
▁bồ	-7836
▁sn	-7837
▁đè	-7838
.702	-7839
Dịch	-7840
Tech	-7841
anes	-7842
efox	-7843
eing	-7844
eter	-7845
inth	-7846
itan	-7847
itor	-7848
osph	-7849
play	-7850
qiao	-7851
ttoo	-7852
▁$1,	-7853
▁139	-7854
▁15%	-7855
▁16:	-7856
▁212	-7857
▁40%	-7858
▁720	-7859
▁99,	-7860
▁Acr	-7861
▁Afg	-7862
▁But	-7863
▁CTC	-7864
▁Chú	-7865
▁Cin	-7866
▁Deb	-7867
▁Fax	-7868
▁HCL	-7869
▁Lor	-7870
▁Mấy	-7871
▁Nắc	-7872
▁Oxy	-7873
▁Pvc	-7874
▁SAR	-7875
▁Vim	-7876
▁Wax	-7877
▁Xét	-7878
▁cày	-7879
▁củi	-7880
▁gởi	-7881
▁huỷ	-7882
▁hưu	-7883
▁lay	-7884
▁lim	-7885
▁mag	-7886
▁max	-7887
▁mốt	-7888
▁mụn	-7889
▁nhã	-7890
▁nhổ	-7891
▁ntụ	-7892
▁nạt	-7893
▁pan	-7894
▁tát	-7895
▁vun	-7896
▁đạn	-7897
-2020	-7898
Shirt	-7899
anton	-7900
arden	-7901
eflon	-7902
ering	-7903
ision	-7904
thiết	-7905
▁0.01	-7906
▁BCHT	-7907
▁CCNA	-7908
▁Hall	-7909
▁Hose	-7910
▁Join	-7911
▁Josh	-7912
▁Khăn	-7913
▁Liều	-7914
▁Over	-7915
▁Rand	-7916
▁Xung	-7917
▁bỗng	-7918
▁cúng	-7919
▁data	-7920
▁diêm	-7921
▁gang	-7922
▁lượn	-7923
▁muỗi	-7924
▁ngợp	-7925
▁nháy	-7926
▁nhọn	-7927
▁nung	-7928
▁thắn	-7929
▁xiết	-7930
▁đuôi	-7931
itting	-7932
ondale	-7933
ources	-7934
▁Album	-7935
▁House	-7936
▁JBoss	-7937
▁Promo	-7938
▁Seoul	-7939
▁Thiếu	-7940
▁Tránh	-7941
▁USMLE	-7942
▁Wheel	-7943
▁forex	-7944
▁phông	-7945
▁radio	-7946
▁servo	-7947
acquard	-7948
erateur	-7949
▁0086-1	-7950
▁20.000	-7951
▁Armati	-7952
▁Columb	-7953
▁Disney	-7954
▁Global	-7955
▁Marvel	-7956
▁Pieces	-7957
▁Robert	-7958
▁tattoo	-7959
.06.2018	-7960
▁Acrylic	-7961
▁Firefox	-7962
▁Slotjar	-7963
▁Business	-7964
▁Snapchat	-7965
▁Virginia	-7966
▁Argentina	-7967
▁Cannondale	-7968
yptocurrencies	-7969
BF	-7970
IU	-7971
MO	-7972
QC	-7973
RA	-7974
TV	-7975
UK	-7976
dụ	-7977
lp	-7978
mq	-7979
so	-7980
ÀI	-7981
ậ	-7982
ĩu	-7983
▁Х	-7984
▁ủ	-7985
▁”	-7986
▁	-7987
.22	-7988
/08	-7989
/1,	-7990
112	-7991
15)	-7992
260	-7993
860	-7994
BER	-7995
IVE	-7996
KGS	-7997
arn	-7998
cop	-7999
dấu	-8000
erd	-8001
iev	-8002
ius	-8003
ixi	-8004
key	-8005
kho	-8006
mas	-8007
oen	-8008
oma	-8009
ret	-8010
sen	-8011
ude	-8012
uto	-8013
zym	-8014
ỐNG	-8015
▁CV	-8016
▁FL	-8017
▁FM	-8018
▁GA	-8019
▁NZ	-8020
▁ON	-8021
▁SW	-8022
▁au	-8023
▁bơ	-8024
▁bỉ	-8025
▁ào	-8026
▁ơi	-8027
-150	-8028
-500	-8029
Free	-8030
Viet	-8031
ades	-8032
ague	-8033
book	-8034
cent	-8035
ices	-8036
iềng	-8037
plor	-8038
ross	-8039
çais	-8040
▁(4)	-8041
▁0.4	-8042
▁2.3	-8043
▁21:	-8044
▁AWS	-8045
▁Bak	-8046
▁Cad	-8047
▁Cải	-8048
▁Est	-8049
▁Fan	-8050
▁GET	-8051
▁GTA	-8052
▁Gun	-8053
▁Jay	-8054
▁Jer	-8055
▁Lam	-8056
▁Lôn	-8057
▁Lốp	-8058
▁MOQ	-8059
▁Mun	-8060
▁MỚI	-8061
▁RHC	-8062
▁Reg	-8063
▁Rub	-8064
▁Shi	-8065
▁Son	-8066
▁TẤT	-8067
▁Vic	-8068
▁WEF	-8069
▁Xếp	-8070
▁côi	-8071
▁dĩa	-8072
▁hôi	-8073
▁lộc	-8074
▁lột	-8075
▁ngơ	-8076
▁nới	-8077
▁quỵ	-8078
▁reg	-8079
▁sỏi	-8080
▁tản	-8081
▁vác	-8082
▁Đám	-8083
▁Đưa	-8084
▁đắc	-8085
Thông	-8086
ample	-8087
ensor	-8088
icker	-8089
ility	-8090
ombie	-8091
onder	-8092
oress	-8093
quang	-8094
ентай	-8095
▁2025	-8096
▁8000	-8097
▁ANSI	-8098
▁Buck	-8099
▁Bulk	-8100
▁Bush	-8101
▁Cord	-8102
▁Càng	-8103
▁DỤNG	-8104
▁East	-8105
▁Feed	-8106
▁Form	-8107
▁Iowa	-8108
▁Just	-8109
▁Phao	-8110
▁Phot	-8111
▁Shot	-8112
▁Suit	-8113
▁Tags	-8114
▁Time	-8115
▁Tuân	-8116
▁chốc	-8117
▁giãi	-8118
▁grat	-8119
▁hông	-8120
▁khoá	-8121
▁nhớt	-8122
▁rạng	-8123
▁sofa	-8124
▁thưa	-8125
▁vồng	-8126
▁with	-8127
ishing	-8128
valume	-8129
ydroxy	-8130
▁Alpha	-8131
▁Break	-8132
▁Cheng	-8133
▁Chung	-8134
▁Nokia	-8135
▁Panel	-8136
▁TRANG	-8137
▁Tuyệt	-8138
▁paris	-8139
▁quyên	-8140
▁August	-8141
▁Jersey	-8142
▁akhông	-8143
▁equina	-8144
▁hacker	-8145
▁plasma	-8146
▁xămxăm	-8147
▁Хентай	-8148
▁Element	-8149
▁Cartridge	-8150
▁Changchun	-8151
▁Container	-8152
▁Litbright	-8153
▁Tailoress	-8154
,"	-8155
NO	-8156
Na	-8157
TL	-8158
lf	-8159
pi	-8160
sd	-8161
ÉP	-8162
đi	-8163
để	-8164
ẢO	-8165
▁◆	-8166
-45	-8167
-48	-8168
-55	-8169
.13	-8170
/05	-8171
170	-8172
232	-8173
40,	-8174
:06	-8175
Biz	-8176
INE	-8177
Tài	-8178
aga	-8179
akh	-8180
azụ	-8181
ebb	-8182
ful	-8183
mum	-8184
rge	-8185
rot	-8186
tim	-8187
urb	-8188
viv	-8189
▁5)	-8190
▁69	-8191
▁Ah	-8192
▁BA	-8193
▁Bể	-8194
▁CU	-8195
▁Dh	-8196
▁Dư	-8197
▁LE	-8198
▁LF	-8199
▁NJ	-8200
▁Ne	-8201
▁Rơ	-8202
▁SC	-8203
▁br	-8204
▁bọ	-8205
▁dê	-8206
▁jw	-8207
▁kĩ	-8208
▁lờ	-8209
▁nỉ	-8210
▁si	-8211
▁va	-8212
▁xẻ	-8213
▁đệ	-8214
▁★★	-8215
,500	-8216
-311	-8217
OTOR	-8218
Tham	-8219
agle	-8220
chim	-8221
ebec	-8222
ergy	-8223
jing	-8224
odel	-8225
pril	-8226
rant	-8227
ugby	-8228
untu	-8229
▁$50	-8230
▁1.4	-8231
▁205	-8232
▁4.6	-8233
▁518	-8234
▁7.4	-8235
▁91-	-8236
▁Cứu	-8237
▁Emb	-8238
▁Gấp	-8239
▁Had	-8240
▁Hub	-8241
▁IRB	-8242
▁ITS	-8243
▁Lai	-8244
▁Mol	-8245
▁Mềm	-8246
▁Mực	-8247
▁Non	-8248
▁Phố	-8249
▁Pir	-8250
▁RSS	-8251
▁Rủi	-8252
▁Saw	-8253
▁Sky	-8254
▁Síp	-8255
▁TOP	-8256
▁Thi	-8257
▁Tạm	-8258
▁Tắt	-8259
▁URL	-8260
▁Wol	-8261
▁aph	-8262
▁bsự	-8263
▁cạn	-8264
▁cặn	-8265
▁dop	-8266
▁fan	-8267
▁gầm	-8268
▁gập	-8269
▁gợn	-8270
▁hao	-8271
▁hẻo	-8272
▁khỉ	-8273
▁lip	-8274
▁lãi	-8275
▁mầm	-8276
▁mỉm	-8277
▁qui	-8278
▁run	-8279
▁rậm	-8280
▁sưa	-8281
▁vặn	-8282
▁đày	-8283
.7574	-8284
/2015	-8285
12345	-8286
Order	-8287
enger	-8288
esser	-8289
ooper	-8290
ordan	-8291
prise	-8292
ublic	-8293
utsch	-8294
zania	-8295
▁1050	-8296
▁1960	-8297
▁1980	-8298
▁Acer	-8299
▁Barb	-8300
▁Bing	-8301
▁Carl	-8302
▁Golf	-8303
▁Harv	-8304
▁Khái	-8305
▁Ming	-8306
▁Mult	-8307
▁Ride	-8308
▁Thỏa	-8309
▁Tròn	-8310
▁Vành	-8311
▁Wang	-8312
▁bolt	-8313
▁chọc	-8314
▁dang	-8315
▁hiếu	-8316
▁khốc	-8317
▁live	-8318
▁nhát	-8319
▁phác	-8320
▁thản	-8321
▁trìu	-8322
▁“...	-8323
design	-8324
plorer	-8325
▁Chiếc	-8326
▁Honda	-8327
▁Ngươi	-8328
▁Peach	-8329
▁Phóng	-8330
▁Times	-8331
▁Zhang	-8332
▁biếng	-8333
▁chinh	-8334
▁khiên	-8335
▁khánh	-8336
▁natri	-8337
▁Điện	-8338
anthate	-8339
ilicate	-8340
▁Afghan	-8341
▁Candle	-8342
▁Canton	-8343
▁Cotton	-8344
▁George	-8345
▁Jacket	-8346
▁Orange	-8347
▁Plasma	-8348
▁Prepar	-8349
▁Sôcôla	-8350
▁Teflon	-8351
▁Ubuntu	-8352
▁chướng	-8353
▁triche	-8354
teknamfg	-8355
▁America	-8356
▁Charles	-8357
▁Pickets	-8358
▁Powered	-8359
▁Silicon	-8360
▁Website	-8361
▁cheater	-8362
▁gratuit	-8363
.702.7574	-8364
▁Electron	-8365
▁Exchange	-8366
▁FaceTime	-8367
▁Skateboard	-8368
▁generateur	-8369
")	-8370
%)	-8371
05	-8372
2-	-8373
7%	-8374
Ar	-8375
FD	-8376
KV	-8377
LA	-8378
Sự	-8379
VI	-8380
añ	-8381
fe	-8382
ii	-8383
kẻ	-8384
no	-8385
sv	-8386
vv	-8387
▁q	-8388
-36	-8389
1.0	-8390
165	-8391
2.0	-8392
20,	-8393
33)	-8394
701	-8395
888	-8396
99,	-8397
Bắt	-8398
ECO	-8399
IDE	-8400
Làm	-8401
RES	-8402
bua	-8403
eva	-8404
exe	-8405
ket	-8406
loe	-8407
olo	-8408
pon	-8409
red	-8410
rie	-8411
rik	-8412
uor	-8413
ute	-8414
Địa	-8415
▁#2	-8416
▁3-	-8417
▁73	-8418
▁AF	-8419
▁BÁ	-8420
▁Bổ	-8421
▁HC	-8422
▁HE	-8423
▁LG	-8424
▁LT	-8425
▁NF	-8426
▁Pa	-8427
▁RI	-8428
▁RN	-8429
▁Rh	-8430
▁SU	-8431
▁Ty	-8432
▁ZH	-8433
▁ao	-8434
▁bú	-8435
▁ep	-8436
▁gr	-8437
▁li	-8438
▁pu	-8439
/300	-8440
1200	-8441
Phần	-8442
Site	-8443
back	-8444
core	-8445
days	-8446
enue	-8447
icks	-8448
ista	-8449
ktop	-8450
onia	-8451
ours	-8452
outs	-8453
rost	-8454
unes	-8455
ural	-8456
uter	-8457
▁(50	-8458
▁-40	-8459
▁0.7	-8460
▁1-2	-8461
▁14:	-8462
▁330	-8463
▁480	-8464
▁630	-8465
▁Arc	-8466
▁Bat	-8467
▁Bức	-8468
▁Cột	-8469
▁Fle	-8470
▁Gel	-8471
▁Hal	-8472
▁Hoà	-8473
▁Hắn	-8474
▁Kẽm	-8475
▁Mau	-8476
▁NBR	-8477
▁NHÀ	-8478
▁Not	-8479
▁NÀY	-8480
▁Nào	-8481
▁PRI	-8482
▁Phê	-8483
▁Put	-8484
▁Rau	-8485
▁Sat	-8486
▁Syn	-8487
▁THỂ	-8488
▁Tek	-8489
▁TẢI	-8490
▁Tọa	-8491
▁Tội	-8492
▁Wei	-8493
▁Wir	-8494
▁bẩm	-8495
▁cúi	-8496
▁dằn	-8497
▁lon	-8498
▁mẹo	-8499
▁ngư	-8500
▁náo	-8501
▁náu	-8502
▁rệt	-8503
▁xấp	-8504
-1000	-8505
Haber	-8506
Nhưng	-8507
Quick	-8508
amide	-8509
craft	-8510
earch	-8511
falls	-8512
games	-8513
odeon	-8514
other	-8515
tdown	-8516
xiang	-8517
▁Bold	-8518
▁Bone	-8519
▁Extr	-8520
▁Fold	-8521
▁HTML	-8522
▁Khốn	-8523
▁Lang	-8524
▁Luôn	-8525
▁Mass	-8526
▁Mạnh	-8527
▁NHẤT	-8528
▁News	-8529
▁Nghi	-8530
▁Qing	-8531
▁Sept	-8532
▁Shop	-8533
▁Summ	-8534
▁Vĩnh	-8535
▁bàng	-8536
▁ghen	-8537
▁hãnh	-8538
▁ngào	-8539
▁ngâm	-8540
▁phot	-8541
▁quầy	-8542
▁rơle	-8543
▁rưỡi	-8544
▁thắp	-8545
▁★★★★	-8546
artoon	-8547
ations	-8548
loader	-8549
▁2007,	-8550
▁2010)	-8551
▁2015.	-8552
▁2020.	-8553
▁April	-8554
▁Brass	-8555
▁Brush	-8556
▁Cross	-8557
▁Crush	-8558
▁Horiz	-8559
▁Kevin	-8560
▁Mario	-8561
▁Opera	-8562
▁Sheet	-8563
▁Space	-8564
▁Techn	-8565
▁Trách	-8566
▁Vimeo	-8567
▁Xiang	-8568
▁album	-8569
▁cabin	-8570
▁canxi	-8571
▁khiếm	-8572
▁khoai	-8573
▁ngoặc	-8574
▁ngoặt	-8575
▁91-993	-8576
▁Device	-8577
▁Huawei	-8578
▁Marcie	-8579
▁Peters	-8580
▁Quebec	-8581
▁Soccer	-8582
▁choàng	-8583
▁hentai	-8584
inthians	-8585
▁Hormone	-8586
▁Hungary	-8587
▁Ireland	-8588
▁Resorts	-8589
▁Service	-8590
▁Taffeta	-8591
▁Archives	-8592
▁Chemical	-8593
▁Industry	-8594
▁Material	-8595
▁Threaded	-8596
▁2010-2019	-8597
▁Afghanistan	-8598
▁Corinthians	-8599
▁Nickelodeon	-8600
2%	-8601
Hu	-8602
PM	-8603
PY	-8604
YD	-8605
bộ	-8606
gu	-8607
hô	-8608
iq	-8609
pg	-8610
px	-8611
uf	-8612
zi	-8613
ãm	-8614
(11	-8615
.60	-8616
/06	-8617
1.5	-8618
15,	-8619
234	-8620
360	-8621
414	-8622
86)	-8623
990	-8624
Giờ	-8625
Hub	-8626
IES	-8627
ION	-8628
OWN	-8629
SON	-8630
aba	-8631
aii	-8632
aus	-8633
ben	-8634
bin	-8635
dam	-8636
fit	-8637
iko	-8638
isk	-8639
iti	-8640
lit	-8641
opy	-8642
quy	-8643
rel	-8644
urs	-8645
xem	-8646
ĂNG	-8647
ửng	-8648
▁#,	-8649
▁$1	-8650
▁$5	-8651
▁71	-8652
▁84	-8653
▁BV	-8654
▁Bé	-8655
▁CY	-8656
▁Hê	-8657
▁KO	-8658
▁Kg	-8659
▁Lô	-8660
▁SR	-8661
▁Sê	-8662
▁Võ	-8663
▁ZY	-8664
▁bđ	-8665
▁fr	-8666
▁ft	-8667
▁nơ	-8668
▁nộ	-8669
▁vớ	-8670
.1.1	-8671
GEAR	-8672
Link	-8673
anon	-8674
añol	-8675
ebob	-8676
enry	-8677
kins	-8678
miễn	-8679
ober	-8680
oler	-8681
pers	-8682
suit	-8683
tery	-8684
yrid	-8685
▁(35	-8686
▁(51	-8687
▁+/-	-8688
▁420	-8689
▁ALL	-8690
▁Cur	-8691
▁Cut	-8692
▁Dẫn	-8693
▁ECO	-8694
▁Fei	-8695
▁Giỏ	-8696
▁HTC	-8697
▁Her	-8698
▁JPG	-8699
▁NAS	-8700
▁Oai	-8701
▁Rab	-8702
▁Sea	-8703
▁Tad	-8704
▁Tap	-8705
▁add	-8706
▁bon	-8707
▁cor	-8708
▁cạp	-8709
▁gas	-8710
▁har	-8711
▁háo	-8712
▁hãm	-8713
▁hòm	-8714
▁hốt	-8715
▁hụt	-8716
▁hức	-8717
▁koj	-8718
▁lol	-8719
▁lìa	-8720
▁mau	-8721
▁nhủ	-8722
▁nệm	-8723
▁pay	-8724
▁rạp	-8725
▁rốt	-8726
▁sam	-8727
▁tem	-8728
▁vợt	-8729
▁xoa	-8730
▁xâu	-8731
▁xức	-8732
▁ĐÂU	-8733
▁đặn	-8734
▁độn	-8735
-2000	-8736
enone	-8737
rogen	-8738
shirt	-8739
stein	-8740
▁0.00	-8741
▁0.05	-8742
▁0.75	-8743
▁1990	-8744
▁Aich	-8745
▁Bero	-8746
▁Bông	-8747
▁Chấp	-8748
▁Corp	-8749
▁Dora	-8750
▁Gate	-8751
▁Jiao	-8752
▁Khẩu	-8753
▁Logo	-8754
▁Loạt	-8755
▁Mike	-8756
▁NGÀY	-8757
▁Phẩm	-8758
▁Ring	-8759
▁Site	-8760
▁Thịt	-8761
▁Tran	-8762
▁Tông	-8763
▁bass	-8764
▁dies	-8765
▁glut	-8766
▁lego	-8767
▁lăng	-8768
▁mảng	-8769
▁nuốt	-8770
▁over	-8771
▁rụng	-8772
▁sắng	-8773
▁thốt	-8774
▁tips	-8775
▁tiệm	-8776
▁Đoạn	-8777
▁đấng	-8778
Thượng	-8779
ailand	-8780
cation	-8781
ension	-8782
khoảng	-8783
ograph	-8784
outube	-8785
spañol	-8786
▁0.868	-8787
▁11.23	-8788
▁China	-8789
▁Chủng	-8790
▁Clear	-8791
▁Click	-8792
▁Covid	-8793
▁Hotel	-8794
▁Jumbo	-8795
▁Jumma	-8796
▁Mahar	-8797
▁Music	-8798
▁NGHIỆ	-8799
▁Piece	-8800
▁Print	-8801
▁Sarah	-8802
▁Smart	-8803
▁Thuộc	-8804
▁Tuyển	-8805
▁ninja	-8806
▁★★★★★	-8807
ethanol	-8808
ichigan	-8809
niverse	-8810
pressor	-8811
▁Boeing	-8812
▁Gaming	-8813
▁Island	-8814
▁Jordan	-8815
▁Sports	-8816
▁WeChat	-8817
▁Zipper	-8818
▁cacbon	-8819
▁cacbua	-8820
▁chuông	-8821
cription	-8822
▁Beroean	-8823
▁Fitness	-8824
▁Scooter	-8825
▁Tianjin	-8826
▁altcoin	-8827
▁Anderson	-8828
▁Explorer	-8829
▁Tanzania	-8830
▁silicone	-8831
▁Bungalows	-8832
▁Francisco	-8833
▁resources	-8834
▁Enterprise	-8835
▁91-993.702.7574	-8836
06	-8837
Ba	-8838
EA	-8839
EV	-8840
KA	-8841
LD	-8842
LS	-8843
NC	-8844
TR	-8845
To	-8846
].	-8847
dB	-8848
dg	-8849
hu	-8850
ja	-8851
oC	-8852
sw	-8853
ẳm	-8854
ỌI	-8855
”—	-8856
▁Ф	-8857
▁ạ	-8858
-29	-8859
-35	-8860
.39	-8861
1,5	-8862
17)	-8863
219	-8864
4">	-8865
7">	-8866
:08	-8867
Des	-8868
ICE	-8869
Man	-8870
PRO	-8871
ULL	-8872
awa	-8873
cue	-8874
eer	-8875
emy	-8876
ima	-8877
irc	-8878
ivo	-8879
jon	-8880
nik	-8881
nom	-8882
ova	-8883
raq	-8884
rix	-8885
sta	-8886
tel	-8887
tml	-8888
you	-8889
▁->	-8890
▁9.	-8891
▁ER	-8892
▁FR	-8893
▁GL	-8894
▁HJ	-8895
▁Id	-8896
▁LI	-8897
▁Ob	-8898
▁QQ	-8899
▁RA	-8900
▁SJ	-8901
▁SO	-8902
▁VK	-8903
▁bẻ	-8904
▁hả	-8905
▁hở	-8906
▁tê	-8907
▁vn	-8908
.160	-8909
2015	-8910
Trực	-8911
XBET	-8912
aven	-8913
ersh	-8914
heng	-8915
iane	-8916
lace	-8917
oner	-8918
rier	-8919
rill	-8920
tian	-8921
ting	-8922
trên	-8923
word	-8924
ying	-8925
zyme	-8926
▁(12	-8927
▁(6)	-8928
▁196	-8929
▁197	-8930
▁20.	-8931
▁3.3	-8932
▁3.6	-8933
▁4.3	-8934
▁6.6	-8935
▁690	-8936
▁737	-8937
▁8.1	-8938
▁8.2	-8939
▁Apg	-8940
▁Bet	-8941
▁Bia	-8942
▁Bếp	-8943
▁CMC	-8944
▁Cit	-8945
▁DNA	-8946
▁ETC	-8947
▁Fun	-8948
▁GSM	-8949
▁Gao	-8950
▁Haw	-8951
▁Hil	-8952
▁Hơi	-8953
▁III	-8954
▁Job	-8955
▁Kaz	-8956
▁LÀM	-8957
▁LẬT	-8958
▁Mut	-8959
▁Nhu	-8960
▁Nộp	-8961
▁Rap	-8962
▁Rig	-8963
▁Rôn	-8964
▁SEO	-8965
▁Sav	-8966
▁Sud	-8967
▁THE	-8968
▁Ult	-8969
▁VPS	-8970
▁Vig	-8971
▁Vít	-8972
▁Wan	-8973
▁Xúc	-8974
▁Yin	-8975
▁acc	-8976
▁all	-8977
▁cur	-8978
▁des	-8979
▁gỉa	-8980
▁key	-8981
▁kìm	-8982
▁lấn	-8983
▁mầu	-8984
▁nôn	-8985
▁núp	-8986
▁phế	-8987
▁sậy	-8988
▁thỉ	-8989
▁trỏ	-8990
▁ven	-8991
▁win	-8992
▁xen	-8993
▁xúi	-8994
▁đậy	-8995
▁đới	-8996
▁đực	-8997
athon	-8998
ealth	-8999
ecker	-9000
email	-9001
inski	-9002
odium	-9003
oller	-9004
uania	-9005
ulose	-9006
▁1400	-9007
▁1994	-9008
▁2001	-9009
▁2004	-9010
▁3,0%	-9011
▁AIDS	-9012
▁Biệt	-9013
▁Bull	-9014
▁Chưa	-9015
▁Chạy	-9016
▁Comm	-9017
▁Cosm	-9018
▁Dành	-9019
▁Gian	-9020
▁Jess	-9021
▁Khảo	-9022
▁Lạnh	-9023
▁MCSA	-9024
▁Mail	-9025
▁Mess	-9026
▁NHẬN	-9027
▁Note	-9028
▁Pass	-9029
▁SmCo	-9030
▁Suốt	-9031
▁TGGT	-9032
▁THỰC	-9033
▁Twin	-9034
▁VAPE	-9035
▁chốn	-9036
▁khay	-9037
▁lith	-9038
▁prog	-9039
▁sảnh	-9040
▁thẳm	-9041
▁trêu	-9042
▁vựng	-9043
▁ĐIỆN	-9044
.0.180	-9045
intage	-9046
ooking	-9047
zhuang	-9048
▁2011,	-9049
▁2011.	-9050
▁2018:	-9051
▁26.70	-9052
▁34.38	-9053
▁Hacks	-9054
▁Holms	-9055
▁Hydro	-9056
▁Metro	-9057
▁Mixer	-9058
▁Steph	-9059
▁Thuật	-9060
▁Young	-9061
▁black	-9062
▁excel	-9063
▁khanh	-9064
▁khước	-9065
▁30.000	-9066
▁Aceris	-9067
▁Advent	-9068
▁Avenue	-9069
▁Dragon	-9070
▁Hadoop	-9071
▁Letter	-9072
▁Pallet	-9073
▁Palăng	-9074
▁SERIES	-9075
▁Switch	-9076
▁Travel	-9077
▁Webcam	-9078
▁Window	-9079
▁bnhững	-9080
▁chuồng	-9081
▁diesel	-9082
.08.2018	-9083
enbolone	-9084
▁Desktop	-9085
▁Estonia	-9086
▁Holiday	-9087
▁Horizon	-9088
▁Matthew	-9089
▁Venturi	-9090
▁86-574-8	-9091
▁LinkedIn	-9092
▁Pakistan	-9093
▁Coinfalls	-9094
▁Machining	-9095
▁Separator	-9096
▁September	-9097
orosilicate	-9098
▁Compressor	-9099
▁Tianeptine	-9100
▁javascript	-9101
8%	-9102
AH	-9103
As	-9104
CA	-9105
EW	-9106
GI	-9107
Ho	-9108
LM	-9109
PT	-9110
SG	-9111
SW	-9112
WA	-9113
fs	-9114
gh	-9115
nt	-9116
ÃY	-9117
Để	-9118
ỌC	-9119
ựu	-9120
”;	-9121
128	-9122
18)	-9123
303	-9124
485	-9125
:05	-9126
Bạn	-9127
GHT	-9128
IFA	-9129
PDF	-9130
SPY	-9131
Thứ	-9132
bay	-9133
bed	-9134
bod	-9135
cal	-9136
chu	-9137
dig	-9138
ews	-9139
fie	-9140
ira	-9141
mục	-9142
nếu	-9143
obe	-9144
oob	-9145
ror	-9146
sam	-9147
sản	-9148
ten	-9149
thứ	-9150
tôi	-9151
ugh	-9152
uid	-9153
ulu	-9154
vey	-9155
▁$6	-9156
▁-1	-9157
▁BB	-9158
▁CJ	-9159
▁Cọ	-9160
▁DW	-9161
▁FT	-9162
▁GR	-9163
▁HU	-9164
▁JF	-9165
▁KI	-9166
▁LU	-9167
▁LỚ	-9168
▁MG	-9169
▁MK	-9170
▁Mi	-9171
▁Ni	-9172
▁PV	-9173
▁SL	-9174
▁Ug	-9175
▁Wr	-9176
▁ZR	-9177
▁gu	-9178
▁it	-9179
▁ne	-9180
▁pe	-9181
▁re	-9182
▁sm	-9183
▁té	-9184
▁wp	-9185
▁ƠN	-9186
▁ốm	-9187
(33)	-9188
-400	-9189
.200	-9190
2004	-9191
84.2	-9192
9.00	-9193
Read	-9194
aked	-9195
chen	-9196
esus	-9197
http	-9198
igin	-9199
ison	-9200
ites	-9201
loro	-9202
quin	-9203
uong	-9204
ured	-9205
▁(40	-9206
▁102	-9207
▁145	-9208
▁186	-9209
▁2.1	-9210
▁3,5	-9211
▁3-5	-9212
▁6,5	-9213
▁90%	-9214
▁CAN	-9215
▁CCC	-9216
▁CFD	-9217
▁CIF	-9218
▁CRM	-9219
▁CSG	-9220
▁CTN	-9221
▁Cám	-9222
▁CẢM	-9223
▁CẤP	-9224
▁Cặp	-9225
▁DNS	-9226
▁FRP	-9227
▁Fas	-9228
▁Fri	-9229
▁Gan	-9230
▁Get	-9231
▁How	-9232
▁HÃY	-9233
▁Ice	-9234
▁Kan	-9235
▁Len	-9236
▁Lev	-9237
▁Lót	-9238
▁MIU	-9239
▁Mob	-9240
▁Nep	-9241
▁NÀO	-9242
▁Nỗi	-9243
▁PLC	-9244
▁Phù	-9245
▁Pow	-9246
▁Rio	-9247
▁SPY	-9248
▁Sri	-9249
▁TCP	-9250
▁Tới	-9251
▁bth	-9252
▁câm	-9253
▁dai	-9254
▁hem	-9255
▁lọt	-9256
▁lội	-9257
▁nấp	-9258
▁pad	-9259
▁que	-9260
▁sec	-9261
▁tam	-9262
▁thà	-9263
▁tre	-9264
▁tỏi	-9265
▁vòm	-9266
▁xml	-9267
▁xoá	-9268
▁Đáp	-9269
-1500	-9270
Jilin	-9271
Model	-9272
Phòng	-9273
ching	-9274
ength	-9275
entas	-9276
ether	-9277
idget	-9278
inson	-9279
istry	-9280
oenix	-9281
yrrol	-9282
▁3500	-9283
▁6063	-9284
▁86-0	-9285
▁9:00	-9286
▁Bhub	-9287
▁Bish	-9288
▁Carn	-9289
▁Ceph	-9290
▁Chăn	-9291
▁Cixi	-9292
▁Clip	-9293
▁Club	-9294
▁DANH	-9295
▁Demo	-9296
▁Doll	-9297
▁Eric	-9298
▁Gạch	-9299
▁Hood	-9300
▁HÀNH	-9301
▁Iraq	-9302
▁Khải	-9303
▁Kies	-9304
▁MCSE	-9305
▁Mừng	-9306
▁Name	-9307
▁ROHS	-9308
▁Slov	-9309
▁Stud	-9310
▁THÉP	-9311
▁Thúc	-9312
▁Thầy	-9313
▁Viễn	-9314
▁back	-9315
▁chớp	-9316
▁hưng	-9317
▁ngụy	-9318
▁ngủi	-9319
▁ofer	-9320
▁play	-9321
▁wifi	-9322
▁xưng	-9323
▁ĐIỀU	-9324
/2019)	-9325
Pieces	-9326
ardian	-9327
icator	-9328
izards	-9329
▁2.000	-9330
▁2005,	-9331
▁2013)	-9332
▁2014.	-9333
▁86-15	-9334
▁Check	-9335
▁Great	-9336
▁Lanka	-9337
▁Night	-9338
▁RideA	-9339
▁Strip	-9340
▁Syria	-9341
▁TRONG	-9342
▁Thuận	-9343
▁Thắng	-9344
▁Trade	-9345
▁Trích	-9346
▁Tuyến	-9347
▁cajon	-9348
▁click	-9349
▁duyên	-9350
▁kiêng	-9351
▁quyệt	-9352
▁rotor	-9353
Unthank	-9354
ization	-9355
▁(2009)	-9356
▁Engine	-9357
▁Filter	-9358
▁Fleece	-9359
▁Hoster	-9360
▁League	-9361
▁Piston	-9362
▁TRƯỜNG	-9363
▁Taylor	-9364
▁Tesser	-9365
▁Truyện	-9366
▁Trương	-9367
▁nguyền	-9368
▁router	-9369
▁vector	-9370
iqdesign	-9371
shipping	-9372
▁3.2.160	-9373
▁Auction	-9374
▁Belarus	-9375
▁Cuentas	-9376
▁Eyelash	-9377
▁Impulse	-9378
▁Ninjago	-9379
▁vitamin	-9380
▁80.0.180	-9381
▁86-755-2	-9382
▁American	-9383
▁Français	-9384
▁Michigan	-9385
▁Paraffin	-9386
▁Stepping	-9387
▁Whatsapp	-9388
▁androgen	-9389
▁clarinet	-9390
▁michigan	-9391
▁Tesseract	-9392
▁galvalume	-9393
▁Petersburg	-9394
▁University	-9395
▁Waterproof	-9396
▁DavidUnthank	-9397
(5	-9398
,2	-9399
6"	-9400
6-	-9401
:.	-9402
HG	-9403
LB	-9404
UL	-9405
ci	-9406
cổ	-9407
mV	-9408
si	-9409
tw	-9410
är	-9411
ƯỚ	-9412
ки	-9413
на	-9414
ẾU	-9415
ỜI	-9416
ỤC	-9417
▁р	-9418
▁’	-9419
-27	-9420
/2,	-9421
010	-9422
140	-9423
17,	-9424
3-5	-9425
3.0	-9426
304	-9427
410	-9428
801	-9429
868	-9430
89)	-9431
:02	-9432
:45	-9433
:59	-9434
="6	-9435
ANH	-9436
ENS	-9437
ICK	-9438
Mac	-9439
SME	-9440
Tên	-9441
UST	-9442
ahn	-9443
aic	-9444
apt	-9445
aza	-9446
chỉ	-9447
edd	-9448
eek	-9449
ese	-9450
fps	-9451
hol	-9452
lop	-9453
mAh	-9454
mao	-9455
orf	-9456
ors	-9457
try	-9458
tùy	-9459
unk	-9460
vas	-9461
vin	-9462
web	-9463
zuk	-9464
ÀNH	-9465
ÓNG	-9466
▁$2	-9467
▁93	-9468
▁=>	-9469
▁=”	-9470
▁BE	-9471
▁BT	-9472
▁Bị	-9473
▁DO	-9474
▁Ep	-9475
▁HI	-9476
▁Iv	-9477
▁JS	-9478
▁JT	-9479
▁LA	-9480
▁Mà	-9481
▁NI	-9482
▁RJ	-9483
▁Rw	-9484
▁Ur	-9485
▁Xô	-9486
▁if	-9487
▁kr	-9488
▁se	-9489
▁Ôi	-9490
▁ĐÃ	-9491
▁ầm	-9492
▁≤0	-9493
.07.	-9494
Blog	-9495
Ngày	-9496
Tiêu	-9497
agen	-9498
down	-9499
ears	-9500
enyl	-9501
fect	-9502
icon	-9503
iety	-9504
info	-9505
ists	-9506
ocus	-9507
ogue	-9508
ores	-9509
orth	-9510
roma	-9511
talk	-9512
ulin	-9513
uric	-9514
view	-9515
điều	-9516
▁(5)	-9517
▁311	-9518
▁6.5	-9519
▁760	-9520
▁APP	-9521
▁CAT	-9522
▁Def	-9523
▁DÂY	-9524
▁ECH	-9525
▁Emp	-9526
▁Far	-9527
▁Hôn	-9528
▁Hẳn	-9529
▁Keo	-9530
▁Lỗi	-9531
▁Mei	-9532
▁Nav	-9533
▁Phà	-9534
▁SMT	-9535
▁TAI	-9536
▁Tóc	-9537
▁Vik	-9538
▁XPE	-9539
▁Yue	-9540
▁agi	-9541
▁are	-9542
▁atự	-9543
▁bch	-9544
▁búa	-9545
▁dạt	-9546
▁gam	-9547
▁gật	-9548
▁hyp	-9549
▁int	-9550
▁mẫn	-9551
▁sim	-9552
▁tel	-9553
▁teo	-9554
▁ter	-9555
▁toa	-9556
▁tuỳ	-9557
▁tấu	-9558
▁tụi	-9559
▁val	-9560
▁vọt	-9561
▁yết	-9562
▁zlp	-9563
▁Đôn	-9564
aceut	-9565
acker	-9566
amond	-9567
ander	-9568
blast	-9569
bodia	-9570
erver	-9571
ganik	-9572
glass	-9573
https	-9574
layer	-9575
onald	-9576
orage	-9577
oston	-9578
svall	-9579
▁0,5%	-9580
▁10.1	-9581
▁1100	-9582
▁1220	-9583
▁2002	-9584
▁Asia	-9585
▁BIÊN	-9586
▁Baby	-9587
▁Coat	-9588
▁Core	-9589
▁Dail	-9590
▁FXCC	-9591
▁Felt	-9592
▁Gall	-9593
▁Hook	-9594
▁Jane	-9595
▁Lyon	-9596
▁Mask	-9597
▁Midd	-9598
▁PHẦN	-9599
▁QUỐC	-9600
▁Rang	-9601
▁Rome	-9602
▁SÁCH	-9603
▁Thảo	-9604
▁Tube	-9605
▁Wave	-9606
▁Well	-9607
▁chót	-9608
▁demo	-9609
▁eBay	-9610
▁euro	-9611
▁golf	-9612
▁khỏa	-9613
▁liễu	-9614
▁lung	-9615
▁mill	-9616
▁mult	-9617
▁máng	-9618
▁nhõm	-9619
▁oxit	-9620
▁rước	-9621
▁that	-9622
▁then	-9623
▁thét	-9624
▁trau	-9625
▁trèo	-9626
▁trọt	-9627
▁xămm	-9628
▁your	-9629
Online	-9630
atsapp	-9631
casino	-9632
ential	-9633
icheng	-9634
odcast	-9635
ookies	-9636
orrent	-9637
stream	-9638
▁$7.77	-9639
▁17:00	-9640
▁2009)	-9641
▁2012)	-9642
▁Analy	-9643
▁Blade	-9644
▁Bruce	-9645
▁Carol	-9646
▁Chloe	-9647
▁Congo	-9648
▁Disco	-9649
▁Gương	-9650
▁Jiang	-9651
▁Paper	-9652
▁Roger	-9653
▁Satin	-9654
▁Scott	-9655
▁Xuyên	-9656
▁Zheng	-9657
▁spong	-9658
aneswar	-9659
chester	-9660
ecovery	-9661
itioner	-9662
ountain	-9663
▁86-755	-9664
▁Alaska	-9665
▁Austin	-9666
▁ComPro	-9667
▁Driver	-9668
▁Emboss	-9669
▁Friday	-9670
▁Iphone	-9671
▁Latinh	-9672
▁Marble	-9673
▁Nature	-9674
▁OSGEAR	-9675
▁Portal	-9676
▁Sensor	-9677
▁chuộng	-9678
▁dedust	-9679
▁mobile	-9680
▁silica	-9681
▁tuabin	-9682
▁zombie	-9683
▁2.6.4.1	-9684
▁Armenia	-9685
▁Deutsch	-9686
▁GoQuick	-9687
▁reflink	-9688
aceutical	-9689
▁Networks	-9690
▁Software	-9691
▁Changeset	-9692
▁Countdown	-9693
▁Maharishi	-9694
▁Precision	-9695
▁Wordpress	-9696
▁contactor	-9697
▁limousine	-9698
▁spongebob	-9699
▁Customized	-9700
▁Javascript	-9701
▁Bhubaneswar	-9702
▁Borosilicate	-9703
▁polypropylene	-9704
!)	-9705
0,	-9706
6%	-9707
FA	-9708
GP	-9709
OK	-9710
PR	-9711
SL	-9712
XD	-9713
cn	-9714
vỏ	-9715
wo	-9716
xx	-9717
ÓA	-9718
ос	-9719
ẢM	-9720
ẨU	-9721
ẮT	-9722
ẾP	-9723
ỢP	-9724
——	-9725
▁]	-9726
▁`	-9727
▁Ö	-9728
,50	-9729
-47	-9730
.29	-9731
/07	-9732
/09	-9733
/20	-9734
01,	-9735
16,	-9736
21,	-9737
229	-9738
302	-9739
44)	-9740
:12	-9741
:53	-9742
:57	-9743
AND	-9744
Cle	-9745
Câu	-9746
Lời	-9747
Net	-9748
SEC	-9749
SSP	-9750
Sol	-9751
ask	-9752
bek	-9753
bow	-9754
but	-9755
buy	-9756
bạn	-9757
cet	-9758
ebr	-9759
esa	-9760
ety	-9761
ffe	-9762
fri	-9763
gal	-9764
idi	-9765
ijt	-9766
imb	-9767
iwi	-9768
max	-9769
oit	-9770
oke	-9771
omo	-9772
pat	-9773
php	-9774
rpm	-9775
yds	-9776
yle	-9777
zhe	-9778
ÒNG	-9779
▁",	-9780
▁#4	-9781
▁''	-9782
▁81	-9783
▁AW	-9784
▁BK	-9785
▁BO	-9786
▁Dy	-9787
▁FA	-9788
▁GJ	-9789
▁HỆ	-9790
▁JG	-9791
▁LD	-9792
▁MY	-9793
▁OL	-9794
▁PO	-9795
▁TW	-9796
▁TỔ	-9797
▁Vẽ	-9798
▁Xo	-9799
▁ip	-9800
▁kẽ	-9801
▁mb	-9802
▁sl	-9803
▁te	-9804
▁uỷ	-9805
▁ve	-9806
▁võ	-9807
▁ĐỂ	-9808
(10)	-9809
2014	-9810
77-6	-9811
="10	-9812
Camp	-9813
Cast	-9814
Chất	-9815
Fort	-9816
Lượt	-9817
Thời	-9818
Tiến	-9819
ando	-9820
auge	-9821
case	-9822
ckey	-9823
cánh	-9824
eets	-9825
ener	-9826
ever	-9827
head	-9828
ibon	-9829
lang	-9830
made	-9831
opes	-9832
opia	-9833
town	-9834
urop	-9835
▁!!!	-9836
▁$10	-9837
▁$20	-9838
▁(7)	-9839
▁0,6	-9840
▁1-3	-9841
▁118	-9842
▁122	-9843
▁146	-9844
▁165	-9845
▁185	-9846
▁21.	-9847
▁3.4	-9848
▁3/4	-9849
▁574	-9850
▁6.9	-9851
▁8.9	-9852
▁Ave	-9853
▁Bol	-9854
▁Bra	-9855
▁CAO	-9856
▁DRK	-9857
▁Dir	-9858
▁Dol	-9859
▁Dro	-9860
▁Ear	-9861
▁FDI	-9862
▁Gem	-9863
▁Hon	-9864
▁Hạn	-9865
▁HỢP	-9866
▁IBM	-9867
▁IPv	-9868
▁Ign	-9869
▁JIS	-9870
▁Jar	-9871
▁Jew	-9872
▁KTM	-9873
▁Khê	-9874
▁LDS	-9875
▁Lay	-9876
▁Leo	-9877
▁Lov	-9878
▁Mùi	-9879
▁Mậu	-9880
▁NYE	-9881
▁NZD	-9882
▁NẠN	-9883
▁Que	-9884
▁Quà	-9885
▁RAM	-9886
▁Rik	-9887
▁STE	-9888
▁Som	-9889
▁TOG	-9890
▁Tit	-9891
▁Toc	-9892
▁UPS	-9893
▁Wil	-9894
▁air	-9895
▁bén	-9896
▁cas	-9897
▁còi	-9898
▁gán	-9899
▁hệt	-9900
▁lit	-9901
▁méo	-9902
▁mép	-9903
▁mẩu	-9904
▁out	-9905
▁sói	-9906
▁vét	-9907
▁xịt	-9908
▁Đạt	-9909
▁Đầm	-9910
▁Đầy	-9911
▁ĐẾN	-9912
Shell	-9913
Sight	-9914
Stack	-9915
antom	-9916
asing	-9917
axoph	-9918
ected	-9919
fizer	-9920
ience	-9921
ittle	-9922
names	-9923
odiac	-9924
oshop	-9925
pport	-9926
reamc	-9927
sting	-9928
ugins	-9929
ulong	-9930
uting	-9931
▁0.07	-9932
▁10.0	-9933
▁Anna	-9934
▁Apps	-9935
▁Band	-9936
▁Bell	-9937
▁Boat	-9938
▁Boom	-9939
▁Bord	-9940
▁Bách	-9941
▁Chân	-9942
▁Chèn	-9943
▁Curl	-9944
▁Cuộn	-9945
▁Data	-9946
▁Dock	-9947
▁Dừng	-9948
▁Feat	-9949
▁Gulf	-9950
▁HIỆN	-9951
▁HOẶC	-9952
▁Hans	-9953
▁Hãng	-9954
▁Hạnh	-9955
▁Jean	-9956
▁KHẨU	-9957
▁Kath	-9958
▁Lazy	-9959
▁Loài	-9960
▁Lviv	-9961
▁Maxi	-9962
▁Mega	-9963
▁Moon	-9964
▁Mông	-9965
▁Pebb	-9966
▁Plan	-9967
▁Rijt	-9968
▁Roof	-9969
▁Rồng	-9970
▁TGJS	-9971
▁Tank	-9972
▁Tape	-9973
▁Thuê	-9974
▁Thẩm	-9975
▁Tray	-9976
▁Trim	-9977
▁Vene	-9978
▁Vlad	-9979
▁Volt	-9980
▁Whit	-9981
▁alto	-9982
▁amin	-9983
▁bong	-9984
▁cent	-9985
▁chận	-9986
▁html	-9987
▁khan	-9988
▁lửng	-9989
▁mượn	-9990
▁ngói	-9991
▁nhào	-9992
▁rạch	-9993
▁sexy	-9994
▁thỉu	-9995
▁thối	-9996
▁thốn	-9997
▁trừu	-9998
▁wind	-9999
▁điếc	-10000
▁điếu	-10001
iscuit	-10002
yptocr	-10003
▁0.867	-10004
▁20000	-10005
▁2014)	-10006
▁30000	-10007
▁Admin	-10008
▁Aroma	-10009
▁Badge	-10010
▁Board	-10011
▁CHÍNH	-10012
▁Cable	-10013
▁Cambr	-10014
▁Const	-10015
▁Ether	-10016
▁Italy	-10017
▁Laura	-10018
▁MOTOR	-10019
▁Model	-10020
▁Pilon	-10021
▁Sound	-10022
▁Suite	-10023
▁THÀNH	-10024
▁THÔNG	-10025
▁Thiền	-10026
▁Thiệu	-10027
▁Thung	-10028
▁Vient	-10029
▁Xương	-10030
▁ester	-10031
▁games	-10032
▁quáng	-10033
▁short	-10034
▁thiền	-10035
▁thính	-10036
▁triệt	-10037
▁twill	-10038
▁xiềng	-10039
olypden	-10040
▁50.000	-10041
▁Albert	-10042
▁Andrew	-10043
▁Holtop	-10044
▁Motors	-10045
▁Rescue	-10046
▁Samuel	-10047
▁Script	-10048
▁option	-10049
▁oxford	-10050
Internet	-10051
axophone	-10052
ethylene	-10053
iracetam	-10054
▁Capital	-10055
▁Comment	-10056
▁Edition	-10057
▁Koshibo	-10058
▁Payouts	-10059
▁Pebbles	-10060
▁Plastic	-10061
▁Radiant	-10062
▁SpongeB	-10063
▁hacking	-10064
▁notepad	-10065
▁rikoooo	-10066
▁silicon	-10067
Campuchia	-10068
▁0086-574	-10069
▁Category	-10070
▁Columbia	-10071
▁dopamine	-10072
▁facebook	-10073
▁Certified	-10074
▁Halloween	-10075
▁Marketing	-10076
▁composite	-10077
▁CompanyHub	-10078
▁PowerShell	-10079
▁3.2.16084.2	-10080
▁Instruments	-10081
!"	-10082
,1	-10083
,6	-10084
AU	-10085
BB	-10086
EE	-10087
Hg	-10088
My	-10089
Ni	-10090
PK	-10091
Rx	-10092
Wh	-10093
ae	-10094
hz	-10095
lb	-10096
vì	-10097
ÀN	-10098
ƠI	-10099
ẠO	-10100
(5)	-10101
-28	-10102
-94	-10103
115	-10104
118	-10105
123	-10106
132	-10107
2-9	-10108
20)	-10109
25,	-10110
310	-10111
313	-10112
319	-10113
45)	-10114
606	-10115
70,	-10116
757	-10117
773	-10118
96,	-10119
99€	-10120
Arm	-10121
CCA	-10122
CHF	-10123
COM	-10124
Chủ	-10125
Cân	-10126
ENT	-10127
ERY	-10128
GHz	-10129
JIA	-10130
MCA	-10131
Out	-10132
Sec	-10133
Sur	-10134
Tại	-10135
afe	-10136
aka	-10137
aps	-10138
fun	-10139
gab	-10140
ges	-10141
gon	-10142
gov	-10143
iad	-10144
ilt	-10145
inn	-10146
iwu	-10147
mVp	-10148
mir	-10149
msn	-10150
och	-10151
ogo	-10152
ori	-10153
put	-10154
ref	-10155
rig	-10156
rus	-10157
uda	-10158
utz	-10159
wen	-10160
đặc	-10161
ỊCH	-10162
▁#7	-10163
▁4-	-10164
▁82	-10165
▁AO	-10166
▁CW	-10167
▁Dj	-10168
▁HK	-10169
▁IM	-10170
▁JA	-10171
▁Ki	-10172
▁LR	-10173
▁Lỗ	-10174
▁NA	-10175
▁OM	-10176
▁Os	-10177
▁Pt	-10178
▁SY	-10179
▁Sr	-10180
▁TB	-10181
▁TỰ	-10182
▁Wu	-10183
▁bh	-10184
▁bớ	-10185
▁dc	-10186
▁mổ	-10187
▁om	-10188
▁tn	-10189
(40)	-10190
-120	-10191
000,	-10192
Kelo	-10193
Nhật	-10194
PPER	-10195
Phản	-10196
Slot	-10197
This	-10198
UYỆT	-10199
acre	-10200
alin	-10201
aret	-10202
athe	-10203
avan	-10204
dhat	-10205
emen	-10206
esis	-10207
even	-10208
iken	-10209
imal	-10210
imir	-10211
lian	-10212
ners	-10213
ogen	-10214
olin	-10215
onto	-10216
quar	-10217
rong	-10218
thor	-10219
tics	-10220
tiêu	-10221
utor	-10222
wser	-10223
xian	-10224
zuki	-10225
zzle	-10226
ƯƠNG	-10227
▁(16	-10228
▁(36	-10229
▁106	-10230
▁116	-10231
▁155	-10232
▁175	-10233
▁18.	-10234
▁3-4	-10235
▁310	-10236
▁340	-10237
▁4.2	-10238
▁635	-10239
▁680	-10240
▁850	-10241
▁Acc	-10242
▁Ari	-10243
▁Aud	-10244
▁Bis	-10245
▁Bre	-10246
▁Bầu	-10247
▁Bữa	-10248
▁DHL	-10249
▁DSF	-10250
▁Dak	-10251
▁Dun	-10252
▁Dup	-10253
▁Dut	-10254
▁Ein	-10255
▁Hit	-10256
▁Hui	-10257
▁IOS	-10258
▁Jai	-10259
▁KYD	-10260
▁Kle	-10261
▁Kor	-10262
▁Lar	-10263
▁LỚN	-10264
▁MDF	-10265
▁Mem	-10266
▁Mir	-10267
▁Mắt	-10268
▁Nel	-10269
▁Nhỏ	-10270
▁OPS	-10271
▁PJS	-10272
▁PNG	-10273
▁Pic	-10274
▁Rez	-10275
▁Riv	-10276
▁Rết	-10277
▁SPC	-10278
▁Sho	-10279
▁Tod	-10280
▁Trí	-10281
▁UNC	-10282
▁Wel	-10283
▁Zhe	-10284
▁akẻ	-10285
▁bai	-10286
▁blu	-10287
▁chê	-10288
▁ctn	-10289
▁cụt	-10290
▁den	-10291
▁dis	-10292
▁doi	-10293
▁dạo	-10294
▁fib	-10295
▁gặm	-10296
▁lẫy	-10297
▁ngớ	-10298
▁phe	-10299
▁phì	-10300
▁rên	-10301
▁rót	-10302
▁tar	-10303
▁thỏ	-10304
▁tỉa	-10305
▁usa	-10306
▁vơi	-10307
▁vần	-10308
▁vẫy	-10309
▁xào	-10310
▁xíu	-10311
▁Đâu	-10312
▁Đẩy	-10313
1,000	-10314
acket	-10315
aijan	-10316
amily	-10317
anced	-10318
ansas	-10319
aruto	-10320
caser	-10321
chool	-10322
ellig	-10323
ental	-10324
erved	-10325
garia	-10326
geria	-10327
inois	-10328
ising	-10329
olymp	-10330
ongee	-10331
opper	-10332
organ	-10333
otion	-10334
ouble	-10335
oxide	-10336
quito	-10337
rends	-10338
usion	-10339
uxury	-10340
video	-10341
yssey	-10342
▁$100	-10343
▁$500	-10344
▁100,	-10345
▁ADSS	-10346
▁APIC	-10347
▁Area	-10348
▁Binh	-10349
▁Bldg	-10350
▁Bạch	-10351
▁Caps	-10352
▁Carb	-10353
▁Dual	-10354
▁ECHO	-10355
▁Fans	-10356
▁Ford	-10357
▁Fred	-10358
▁Giữa	-10359
▁Good	-10360
▁Guan	-10361
▁HDMI	-10362
▁Jeff	-10363
▁Kiev	-10364
▁LIỆU	-10365
▁NGAY	-10366
▁Nghe	-10367
▁Nhẫn	-10368
▁Palm	-10369
▁Peer	-10370
▁Penh	-10371
▁Prem	-10372
▁Prop	-10373
▁QUAN	-10374
▁Quad	-10375
▁Siem	-10376
▁Solo	-10377
▁Thói	-10378
▁Thừa	-10379
▁Toky	-10380
▁View	-10381
▁Walk	-10382
▁benz	-10383
▁bành	-10384
▁chắt	-10385
▁from	-10386
▁họng	-10387
▁lộng	-10388
▁mượt	-10389
▁nano	-10390
▁ngẩn	-10391
▁nhác	-10392
▁nhện	-10393
▁phen	-10394
▁phôi	-10395
▁sanh	-10396
▁teen	-10397
▁this	-10398
▁trĩu	-10399
amping	-10400
atform	-10401
edonia	-10402
evelop	-10403
ionate	-10404
listat	-10405
loride	-10406
▁1,000	-10407
▁1-800	-10408
▁1-888	-10409
▁2009,	-10410
▁2021.	-10411
▁Artie	-10412
▁Baoan	-10413
▁CISSP	-10414
▁Child	-10415
▁Delhi	-10416
▁Henry	-10417
▁Kenya	-10418
▁Kháng	-10419
▁Khổng	-10420
▁Lương	-10421
▁Manag	-10422
▁Match	-10423
▁Nhiên	-10424
▁Photo	-10425
▁Putin	-10426
▁Santa	-10427
▁Scale	-10428
▁Silic	-10429
▁Sudan	-10430
▁TOGAF	-10431
▁TRUNG	-10432
▁TUYỆT	-10433
▁Templ	-10434
▁Trượt	-10435
▁Turbo	-10436
▁Virus	-10437
▁boong	-10438
▁chặng	-10439
▁liệng	-10440
▁pound	-10441
▁titan	-10442
Brokers	-10443
ambique	-10444
caserin	-10445
hydroxy	-10446
sterdam	-10447
torelin	-10448
zheimer	-10449
▁(2007)	-10450
▁100000	-10451
▁Boston	-10452
▁Encore	-10453
▁Expert	-10454
▁Garden	-10455
▁NGHIỆP	-10456
▁Needle	-10457
▁Pongee	-10458
▁Rabies	-10459
▁Rocker	-10460
▁Rwanda	-10461
▁Single	-10462
▁Spiral	-10463
▁Spring	-10464
▁Themes	-10465
▁Valley	-10466
▁hippie	-10467
▁studio	-10468
erbaijan	-10469
essional	-10470
▁Control	-10471
▁Dresses	-10472
▁Harvard	-10473
▁Masters	-10474
▁Pattern	-10475
▁Scratch	-10476
▁Vintage	-10477
▁Wolford	-10478
▁ninjago	-10479
dhatrends	-10480
unnygames	-10481
▁Chenille	-10482
▁November	-10483
▁SoftKelo	-10484
▁Unloader	-10485
▁Vladimir	-10486
▁estrogen	-10487
▁Boldenone	-10488
▁Christian	-10489
▁OpenStack	-10490
▁Songjiang	-10491
▁SpongeBob	-10492
▁Sundsvall	-10493
▁WebSphere	-10494
▁cartridge	-10495
▁collector	-10496
▁2010-2019:	-10497
▁TopBrokers	-10498
▁Triptorelin	-10499
,4	-10500
04	-10501
GG	-10502
GR	-10503
Gu	-10504
HY	-10505
Hà	-10506
PI	-10507
PL	-10508
SH	-10509
hr	-10510
jo	-10511
pt	-10512
sy	-10513
tự	-10514
ÁT	-10515
ÊU	-10516
úm	-10517
ка	-10518
ри	-10519
▁®	-10520
▁É	-10521
▁₭	-10522
-0)	-10523
-31	-10524
-33	-10525
-56	-10526
-75	-10527
.49	-10528
.96	-10529
/60	-10530
003	-10531
018	-10532
102	-10533
114	-10534
213	-10535
330	-10536
365	-10537
514	-10538
86,	-10539
:01	-10540
:07	-10541
ALL	-10542
AMA	-10543
Bit	-10544
Cam	-10545
ECH	-10546
GMP	-10547
Lot	-10548
Max	-10549
Min	-10550
Pay	-10551
abi	-10552
bia	-10553
ely	-10554
fsx	-10555
gow	-10556
ige	-10557
iri	-10558
jie	-10559
jpg	-10560
olk	-10561
res	-10562
sol	-10563
toc	-10564
uge	-10565
ugu	-10566
uls	-10567
use	-10568
ven	-10569
ves	-10570
zhu	-10571
▁(“	-10572
▁),	-10573
▁1-	-10574
▁91	-10575
▁AZ	-10576
▁CÁ	-10577
▁GC	-10578
▁GM	-10579
▁Hm	-10580
▁IU	-10581
▁KD	-10582
▁Pi	-10583
▁SỐ	-10584
▁TD	-10585
▁Tệ	-10586
▁Uz	-10587
▁VN	-10588
▁VS	-10589
▁Xê	-10590
▁Zi	-10591
▁dơ	-10592
▁ir	-10593
▁ki	-10594
▁tẻ	-10595
▁uv	-10596
▁ÁP	-10597
▁ôi	-10598
▁ập	-10599
-240	-10600
-250	-10601
Book	-10602
Băng	-10603
Card	-10604
Khác	-10605
Thái	-10606
adel	-10607
agar	-10608
ahoo	-10609
akin	-10610
alia	-10611
ardf	-10612
avar	-10613
ball	-10614
chân	-10615
eaux	-10616
ecut	-10617
eman	-10618
ency	-10619
endy	-10620
esak	-10621
essa	-10622
etts	-10623
ging	-10624
holm	-10625
icol	-10626
iper	-10627
kong	-10628
look	-10629
loại	-10630
mann	-10631
mond	-10632
nett	-10633
ocks	-10634
oric	-10635
orua	-10636
othy	-10637
phin	-10638
quan	-10639
rary	-10640
riet	-10641
rive	-10642
sets	-10643
ship	-10644
ucks	-10645
uman	-10646
ures	-10647
wear	-10648
weet	-10649
xing	-10650
▁$13	-10651
▁$26	-10652
▁$89	-10653
▁(15	-10654
▁***	-10655
▁-25	-10656
▁114	-10657
▁144	-10658
▁15)	-10659
▁19.	-10660
▁19:	-10661
▁2-3	-10662
▁213	-10663
▁3.7	-10664
▁4.4	-10665
▁430	-10666
▁550	-10667
▁6.1	-10668
▁610	-10669
▁980	-10670
▁BBQ	-10671
▁BMP	-10672
▁Bac	-10673
▁BẢO	-10674
▁CES	-10675
▁CFO	-10676
▁CHỈ	-10677
▁Cyp	-10678
▁DIY	-10679
▁ETF	-10680
▁Ess	-10681
▁GIỜ	-10682
▁Guy	-10683
▁GỌI	-10684
▁Hin	-10685
▁HÓA	-10686
▁Ian	-10687
▁Ill	-10688
▁Imm	-10689
▁Luc	-10690
▁Lân	-10691
▁Lôm	-10692
▁Maj	-10693
▁Nhi	-10694
▁Oil	-10695
▁Pha	-10696
▁Sie	-10697
▁THI	-10698
▁Tru	-10699
▁VIỆ	-10700
▁VST	-10701
▁Way	-10702
▁Yun	-10703
▁Zih	-10704
▁Zip	-10705
▁amp	-10706
▁art	-10707
▁dec	-10708
▁dột	-10709
▁hel	-10710
▁hom	-10711
▁hyd	-10712
▁hăm	-10713
▁hấn	-10714
▁líu	-10715
▁lẽo	-10716
▁lụi	-10717
▁met	-10718
▁múc	-10719
▁nad	-10720
▁pop	-10721
▁roi	-10722
▁rứt	-10723
▁scr	-10724
▁son	-10725
▁syn	-10726
▁súp	-10727
▁trù	-10728
▁vôi	-10729
▁ĐÂY	-10730
▁Đòn	-10731
-1200	-10732
Color	-10733
Thành	-10734
ading	-10735
annel	-10736
attan	-10737
attle	-10738
cache	-10739
crush	-10740
egram	-10741
ellon	-10742
ennis	-10743
iopia	-10744
nhưng	-10745
ocyan	-10746
ombia	-10747
onsin	-10748
toria	-10749
trans	-10750
uster	-10751
utnik	-10752
▁-...	-10753
▁12.5	-10754
▁14.0	-10755
▁1550	-10756
▁3200	-10757
▁9001	-10758
▁Axit	-10759
▁BSCI	-10760
▁Bulb	-10761
▁Chan	-10762
▁Chao	-10763
▁Chef	-10764
▁Cháu	-10765
▁Clom	-10766
▁Cánh	-10767
▁Driv	-10768
▁Edge	-10769
▁FIFA	-10770
▁Furn	-10771
▁Glas	-10772
▁Gran	-10773
▁Heat	-10774
▁Khắc	-10775
▁Lith	-10776
▁Mall	-10777
▁NHÂN	-10778
▁PCBA	-10779
▁Penn	-10780
▁Pier	-10781
▁Rộng	-10782
▁Sher	-10783
▁Shut	-10784
▁Spec	-10785
▁Ster	-10786
▁TCCA	-10787
▁Tact	-10788
▁Teng	-10789
▁Tiềm	-10790
▁Turk	-10791
▁TỔNG	-10792
▁Yiwu	-10793
▁calo	-10794
▁chùi	-10795
▁hổng	-10796
▁lúng	-10797
▁mark	-10798
▁maxi	-10799
▁miệt	-10800
▁mắng	-10801
▁ngai	-10802
▁ngây	-10803
▁nhút	-10804
▁read	-10805
▁sulf	-10806
▁thục	-10807
▁yoga	-10808
▁Điền	-10809
▁đọng	-10810
▁≤200	-10811
epherd	-10812
iboler	-10813
online	-10814
▁2000,	-10815
▁2013.	-10816
▁86-13	-10817
▁Activ	-10818
▁Asian	-10819
▁Brand	-10820
▁Craig	-10821
▁Crypt	-10822
▁Eagle	-10823
▁Falls	-10824
▁Final	-10825
▁Focus	-10826
▁Giành	-10827
▁Hongd	-10828
▁Lamin	-10829
▁Logic	-10830
▁Longs	-10831
▁Lotte	-10832
▁Matiu	-10833
▁Nepal	-10834
▁Phnom	-10835
▁QUYỀN	-10836
▁Spark	-10837
▁Tekna	-10838
▁Thoạt	-10839
▁Triệu	-10840
▁Vesak	-10841
▁Voice	-10842
▁Width	-10843
▁cauda	-10844
▁khoát	-10845
▁olymp	-10846
▁poker	-10847
▁quăng	-10848
▁ĐƯỜNG	-10849
Android	-10850
Cleaner	-10851
Fortune	-10852
Station	-10853
readbag	-10854
ristmas	-10855
uidores	-10856
▁$89.00	-10857
▁Airbus	-10858
▁Berlin	-10859
▁Canvas	-10860
▁Cooper	-10861
▁Corner	-10862
▁Feeder	-10863
▁Jaishi	-10864
▁Legend	-10865
▁Length	-10866
▁Market	-10867
▁Mellon	-10868
▁Merced	-10869
▁Methyl	-10870
▁Mosaic	-10871
▁Munich	-10872
▁Origin	-10873
▁Pfizer	-10874
▁Python	-10875
▁Resort	-10876
▁Sleeve	-10877
▁Suzuki	-10878
▁THƯƠNG	-10879
▁Xiaomi	-10880
▁cotton	-10881
SlotSite	-10882
Thailand	-10883
cryptocr	-10884
echarger	-10885
▁100,000	-10886
▁Algeria	-10887
▁Biscuit	-10888
▁Cartoon	-10889
▁Cleaner	-10890
▁Coating	-10891
▁Fenghua	-10892
▁Goldman	-10893
▁Mozilla	-10894
▁October	-10895
▁Odyssey	-10896
▁PRChina	-10897
▁Program	-10898
▁Sputnik	-10899
▁Surface	-10900
▁Vitamin	-10901
▁acetate	-10902
▁adapter	-10903
▁scooter	-10904
ibolerone	-10905
▁Detector	-10906
▁Ethereum	-10907
▁Featured	-10908
▁Intellig	-10909
▁Longgang	-10910
▁Minnesot	-10911
▁RayHaber	-10912
▁Reserved	-10913
▁Stanford	-10914
▁jacquard	-10915
▁Cambridge	-10916
▁Composite	-10917
▁Discovery	-10918
▁Enanthate	-10919
▁PocketWin	-10920
▁Sandblast	-10921
▁Simulator	-10922
▁Fiberglass	-10923
▁Seguidores	-10924
▁Trenbolone	-10925
▁TopSlotSite	-10926
-,	-10927
/€	-10928
07	-10929
?’	-10930
CU	-10931
FI	-10932
HH	-10933
Mỹ	-10934
NI	-10935
Pa	-10936
TM	-10937
Up	-10938
Vô	-10939
XX	-10940
],	-10941
ea	-10942
iC	-10943
kt	-10944
kể	-10945
lm	-10946
qi	-10947
sl	-10948
uh	-10949
̣c	-10950
ẻm	-10951
ẽn	-10952
”)	-10953
▁Ồ	-10954
(2)	-10955
-43	-10956
-57	-10957
-76	-10958
-95	-10959
.57	-10960
.62	-10961
/25	-10962
19)	-10963
204	-10964
255	-10965
:38	-10966
:51	-10967
AMP	-10968
CoV	-10969
Hỡi	-10970
JPY	-10971
Med	-10972
SAI	-10973
SER	-10974
abl	-10975
aft	-10976
avy	-10977
bor	-10978
cos	-10979
câu	-10980
edi	-10981
epp	-10982
lar	-10983
lay	-10984
lên	-10985
nel	-10986
năm	-10987
rif	-10988
rob	-10989
row	-10990
sau	-10991
ski	-10992
tại	-10993
uxi	-10994
via	-10995
ÍCH	-10996
́ng	-10997
▁$0	-10998
▁':	-10999
▁*)	-11000
▁74	-11001
▁Aj	-11002
▁DF	-11003
▁DK	-11004
▁Dc	-11005
▁GE	-11006
▁Gm	-11007
▁Ha	-11008
▁IL	-11009
▁Kü	-11010
▁Mũ	-11011
▁PD	-11012
▁SG	-11013
▁Sỹ	-11014
▁VC	-11015
▁WP	-11016
▁WW	-11017
▁XE	-11018
▁XS	-11019
▁iT	-11020
▁mL	-11021
▁rọ	-11022
▁tí	-11023
▁£,	-11024
▁Đế	-11025
▁Ổn	-11026
-860	-11027
.0.3	-11028
1-10	-11029
1500	-11030
2000	-11031
3000	-11032
Cách	-11033
ESCO	-11034
ETAL	-11035
John	-11036
Kinh	-11037
Play	-11038
Vero	-11039
achi	-11040
ador	-11041
arag	-11042
aste	-11043
azam	-11044
bang	-11045
bour	-11046
ebru	-11047
ecom	-11048
egie	-11049
elly	-11050
elry	-11051
ffic	-11052
film	-11053
flat	-11054
furt	-11055
ifer	-11056
inda	-11057
iner	-11058
mill	-11059
ocol	-11060
outh	-11061
oxin	-11062
puff	-11063
qing	-11064
rike	-11065
roin	-11066
room	-11067
rose	-11068
unge	-11069
ylen	-11070
yong	-11071
zone	-11072
Đánh	-11073
▁(60	-11074
▁(8)	-11075
▁04:	-11076
▁107	-11077
▁13.	-11078
▁14.	-11079
▁16.	-11080
▁167	-11081
▁193	-11082
▁290	-11083
▁3.1	-11084
▁30-	-11085
▁4.8	-11086
▁440	-11087
▁5,5	-11088
▁64-	-11089
▁642	-11090
▁686	-11091
▁99%	-11092
▁Api	-11093
▁Apk	-11094
▁Att	-11095
▁BIG	-11096
▁Ble	-11097
▁CMO	-11098
▁Chờ	-11099
▁Cru	-11100
▁Cụm	-11101
▁DXF	-11102
▁Dia	-11103
▁Dry	-11104
▁Eye	-11105
▁Fat	-11106
▁Fut	-11107
▁Hết	-11108
▁ICO	-11109
▁Ins	-11110
▁Jia	-11111
▁Jud	-11112
▁Kai	-11113
▁Lew	-11114
▁Lug	-11115
▁Mov	-11116
▁NFC	-11117
▁Nut	-11118
▁Nút	-11119
▁NẾU	-11120
▁Opp	-11121
▁PFS	-11122
▁Phủ	-11123
▁Pok	-11124
▁RAD	-11125
▁Ras	-11126
▁Rối	-11127
▁Rửa	-11128
▁SEK	-11129
▁SPA	-11130
▁Six	-11131
▁Sạc	-11132
▁THU	-11133
▁THẾ	-11134
▁TRA	-11135
▁Und	-11136
▁VOC	-11137
▁WEB	-11138
▁XLD	-11139
▁Yog	-11140
▁ZLP	-11141
▁app	-11142
▁bot	-11143
▁bụa	-11144
▁cat	-11145
▁chè	-11146
▁cạm	-11147
▁cồn	-11148
▁dấy	-11149
▁dật	-11150
▁fai	-11151
▁fer	-11152
▁lat	-11153
▁liu	-11154
▁lus	-11155
▁lạy	-11156
▁mic	-11157
▁nhô	-11158
▁nần	-11159
▁nốt	-11160
▁pos	-11161
▁tad	-11162
▁toà	-11163
▁vạn	-11164
▁vắn	-11165
▁vắt	-11166
▁Đĩa	-11167
▁Đấu	-11168
▁ươm	-11169
769-8	-11170
Cheng	-11171
Falls	-11172
Forex	-11173
Ngoài	-11174
ament	-11175
andex	-11176
arium	-11177
athan	-11178
conia	-11179
enium	-11180
enson	-11181
eroon	-11182
icago	-11183
iesel	-11184
imber	-11185
inter	-11186
peare	-11187
raham	-11188
tiếng	-11189
tocin	-11190
trước	-11191
ufact	-11192
watch	-11193
▁1250	-11194
▁2.0%	-11195
▁ASME	-11196
▁Arab	-11197
▁Bear	-11198
▁Belt	-11199
▁Bern	-11200
▁Buch	-11201
▁CUNG	-11202
▁Cams	-11203
▁Cath	-11204
▁FULL	-11205
▁Fast	-11206
▁Foot	-11207
▁GTVC	-11208
▁Gems	-11209
▁Gram	-11210
▁HPLC	-11211
▁INOX	-11212
▁Iron	-11213
▁Jera	-11214
▁KHÁC	-11215
▁Kent	-11216
▁Kiên	-11217
▁Lead	-11218
▁Liêu	-11219
▁MYHH	-11220
▁Manh	-11221
▁Meth	-11222
▁PART	-11223
▁Patt	-11224
▁Pear	-11225
▁Qian	-11226
▁Rest	-11227
▁Rule	-11228
▁Sara	-11229
▁Snow	-11230
▁Supp	-11231
▁Team	-11232
▁Tiên	-11233
▁Tree	-11234
▁Tuất	-11235
▁Vine	-11236
▁WLAN	-11237
▁bead	-11238
▁bird	-11239
▁city	-11240
▁cước	-11241
▁dust	-11242
▁film	-11243
▁gold	-11244
▁khắt	-11245
▁lình	-11246
▁manh	-11247
▁mess	-11248
▁muồi	-11249
▁ngắm	-11250
▁nhàn	-11251
▁nhám	-11252
▁nhẹn	-11253
▁para	-11254
▁phao	-11255
▁phẩy	-11256
▁phẫn	-11257
▁pitt	-11258
▁show	-11259
▁thẹn	-11260
▁táng	-11261
▁vung	-11262
▁vụng	-11263
▁xuôi	-11264
▁ĐƯỢC	-11265
▁Đứng	-11266
atural	-11267
chuyện	-11268
ladesh	-11269
namese	-11270
umball	-11271
▁+8615	-11272
▁2011;	-11273
▁2030,	-11274
▁7.4.7	-11275
▁86-05	-11276
▁99999	-11277
▁Adobe	-11278
▁Anund	-11279
▁Brook	-11280
▁CSGOB	-11281
▁Champ	-11282
▁Chrom	-11283
▁Chồng	-11284
▁Craft	-11285
▁Croat	-11286
▁Cường	-11287
▁Decor	-11288
▁Deutz	-11289
▁Drive	-11290
▁Febru	-11291
▁Floor	-11292
▁Helen	-11293
▁Huang	-11294
▁Hyper	-11295
▁Index	-11296
▁Jesus	-11297
▁Jimmy	-11298
▁Label	-11299
▁Lucks	-11300
▁Magic	-11301
▁Malta	-11302
▁Manip	-11303
▁March	-11304
▁Molly	-11305
▁MySQL	-11306
▁Nexus	-11307
▁Nobel	-11308
▁Patch	-11309
▁Qatar	-11310
▁Start	-11311
▁Steve	-11312
▁Stick	-11313
▁Thùng	-11314
▁Thăng	-11315
▁Tokyo	-11316
▁Ultra	-11317
▁Wendy	-11318
▁chiêm	-11319
▁inter	-11320
▁khoét	-11321
▁khoăn	-11322
▁logic	-11323
▁luyến	-11324
▁nguôi	-11325
▁panel	-11326
▁penny	-11327
▁rugby	-11328
▁vướng	-11329
akhstan	-11330
charger	-11331
▁$26.99	-11332
▁25.000	-11333
▁86-311	-11334
▁Energy	-11335
▁Geneva	-11336
▁Hawaii	-11337
▁Hilton	-11338
▁Hippie	-11339
▁Linton	-11340
▁Little	-11341
▁Meihua	-11342
▁Michel	-11343
▁Pepper	-11344
▁Philip	-11345
▁Ribbon	-11346
▁Sample	-11347
▁Shazam	-11348
▁Sodium	-11349
▁VMware	-11350
▁Videos	-11351
▁Viking	-11352
▁Zihang	-11353
▁dreamc	-11354
.07.2018	-11355
.09.2018	-11356
/01/2017	-11357
▁Barbara	-11358
▁Bracket	-11359
▁Browser	-11360
▁Chicago	-11361
▁Connect	-11362
▁Español	-11363
▁Fitting	-11364
▁Harriet	-11365
▁Library	-11366
▁MacBook	-11367
▁Richard	-11368
▁STEPPER	-11369
▁Seattle	-11370
▁Stretch	-11371
▁fibroin	-11372
▁polymer	-11373
akespeare	-11374
rosilicon	-11375
▁Adventus	-11376
▁Bordeaux	-11377
▁Carnegie	-11378
▁Colombia	-11379
▁Colorado	-11380
▁Dreadbag	-11381
▁February	-11382
▁Jiaozhou	-11383
▁Mercedes	-11384
▁Mosquito	-11385
▁Security	-11386
▁Shepherd	-11387
▁Tengzhou	-11388
▁Victoria	-11389
▁mFortune	-11390
▁molypden	-11391
▁Alzheimer	-11392
▁Amsterdam	-11393
▁CoinFalls	-11394
▁Interbank	-11395
▁Powerpuff	-11396
▁tadalafil	-11397
▁VirtualBox	-11398
▁PlayStation	-11399
▁telecharger	-11400
▁HBOTteknamfg	-11401
')	-11402
.—	-11403
BX	-11404
CT	-11405
EG	-11406
Go	-11407
KE	-11408
KN	-11409
La	-11410
ME	-11411
MW	-11412
Pr	-11413
TG	-11414
Từ	-11415
gr	-11416
mx	-11417
nb	-11418
rô	-11419
tg	-11420
uw	-11421
ẤY	-11422
ẶT	-11423
▁	-11424
-1.	-11425
-3,	-11426
-66	-11427
-8)	-11428
-89	-11429
.26	-11430
.40	-11431
.55	-11432
.85	-11433
/16	-11434
002	-11435
004	-11436
10-	-11437
121	-11438
122	-11439
134	-11440
138	-11441
151	-11442
166	-11443
186	-11444
195	-11445
2).	-11446
202	-11447
210	-11448
222	-11449
235	-11450
265	-11451
404	-11452
60,	-11453
603	-11454
738	-11455
756	-11456
799	-11457
802	-11458
850	-11459
855	-11460
:09	-11461
:15	-11462
:26	-11463
ASS	-11464
Bus	-11465
Can	-11466
Cập	-11467
ELL	-11468
ERT	-11469
Get	-11470
IAN	-11471
ITY	-11472
Koh	-11473
MHz	-11474
NAP	-11475
NET	-11476
Nút	-11477
ONE	-11478
REE	-11479
Sau	-11480
Vậy	-11481
arf	-11482
azz	-11483
bes	-11484
bro	-11485
bất	-11486
cao	-11487
chị	-11488
cou	-11489
còn	-11490
cảm	-11491
don	-11492
ebo	-11493
eko	-11494
eme	-11495
iag	-11496
ibr	-11497
ict	-11498
icy	-11499
idd	-11500
ila	-11501
ism	-11502
jia	-11503
kal	-11504
kel	-11505
kor	-11506
lah	-11507
len	-11508
mit	-11509
nge	-11510
nia	-11511
nie	-11512
nov	-11513
oli	-11514
oms	-11515
oni	-11516
run	-11517
tha	-11518
uốn	-11519
wug	-11520
yun	-11521
ẢNG	-11522
ỨNG	-11523
▁#3	-11524
▁#9	-11525
▁("	-11526
▁(*	-11527
▁**	-11528
▁5'	-11529
▁79	-11530
▁Aw	-11531
▁BD	-11532
▁CK	-11533
▁CX	-11534
▁Cm	-11535
▁DP	-11536
▁Dî	-11537
▁GU	-11538
▁Ga	-11539
▁GỈ	-11540
▁IR	-11541
▁Kệ	-11542
▁OR	-11543
▁SỬ	-11544
▁SỰ	-11545
▁TL	-11546
▁TẾ	-11547
▁WM	-11548
▁[8	-11549
▁es	-11550
▁gã	-11551
▁ha	-11552
▁kỵ	-11553
▁rà	-11554
▁we	-11555
▁{{	-11556
!”.—	-11557
-600	-11558
-626	-11559
1400	-11560
6789	-11561
77-5	-11562
CSID	-11563
Chúa	-11564
Giáo	-11565
Giới	-11566
Size	-11567
Song	-11568
Thực	-11569
View	-11570
ablo	-11571
akia	-11572
alle	-11573
ants	-11574
apph	-11575
appy	-11576
apro	-11577
ault	-11578
avic	-11579
body	-11580
bướm	-11581
cean	-11582
char	-11583
coco	-11584
efan	-11585
enda	-11586
erse	-11587
iami	-11588
idad	-11589
inea	-11590
inos	-11591
kang	-11592
king	-11593
lios	-11594
nước	-11595
oham	-11596
onad	-11597
onin	-11598
oose	-11599
otta	-11600
ould	-11601
pack	-11602
prox	-11603
tech	-11604
tein	-11605
utan	-11606
wing	-11607
yrus	-11608
ƯỢNG	-11609
▁$54	-11610
▁(45	-11611
▁1,0	-11612
▁1.7	-11613
▁1.9	-11614
▁151	-11615
▁158	-11616
▁192	-11617
▁203	-11618
▁25.	-11619
▁5.2	-11620
▁5.3	-11621
▁50,	-11622
▁530	-11623
▁612	-11624
▁9.1	-11625
▁95%	-11626
▁ABC	-11627
▁ASA	-11628
▁Abu	-11629
▁Alt	-11630
▁Bio	-11631
▁Bấm	-11632
▁CÂU	-11633
▁Dem	-11634
▁Div	-11635
▁Dọc	-11636
▁EXW	-11637
▁FTA	-11638
▁Fai	-11639
▁Fal	-11640
▁Fed	-11641
▁GED	-11642
▁Gam	-11643
▁Gối	-11644
▁HTT	-11645
▁Hex	-11646
▁Hom	-11647
▁Hyd	-11648
▁Jas	-11649
▁Joy	-11650
▁Kap	-11651
▁Kha	-11652
▁KẾT	-11653
▁Liv	-11654
▁Lái	-11655
▁McD	-11656
▁McG	-11657
▁NHƯ	-11658
▁Num	-11659
▁Núi	-11660
▁Nổi	-11661
▁Ops	-11662
▁Opt	-11663
▁PST	-11664
▁Pig	-11665
▁Ret	-11666
▁SOL	-11667
▁Sah	-11668
▁Sig	-11669
▁Sir	-11670
▁Sáo	-11671
▁Sẵn	-11672
▁Tas	-11673
▁Thợ	-11674
▁Tso	-11675
▁Ung	-11676
▁Ver	-11677
▁Vòi	-11678
▁Vẫn	-11679
▁Wen	-11680
▁bin	-11681
▁bói	-11682
▁băn	-11683
▁bẹp	-11684
▁bện	-11685
▁cúm	-11686
▁dăm	-11687
▁hèn	-11688
▁héo	-11689
▁hít	-11690
▁ind	-11691
▁kìa	-11692
▁lap	-11693
▁lbs	-11694
▁lén	-11695
▁lằn	-11696
▁nấy	-11697
▁nầy	-11698
▁nắn	-11699
▁nặc	-11700
▁our	-11701
▁pol	-11702
▁què	-11703
▁rep	-11704
▁rèm	-11705
▁rơm	-11706
▁rập	-11707
▁sel	-11708
▁sub	-11709
▁tie	-11710
▁tẩm	-11711
▁var	-11712
▁vớt	-11713
▁vứt	-11714
▁vữa	-11715
▁wit	-11716
▁đạm	-11717
,000.	-11718
.2019	-11719
Chính	-11720
Heart	-11721
Micro	-11722
achus	-11723
afoto	-11724
aight	-11725
altar	-11726
carat	-11727
cline	-11728
eball	-11729
eleti	-11730
ening	-11731
erine	-11732
eware	-11733
ibaba	-11734
imate	-11735
ingle	-11736
ipple	-11737
ities	-11738
lobal	-11739
mania	-11740
marck	-11741
mmins	-11742
ollow	-11743
phalt	-11744
ports	-11745
river	-11746
thiên	-11747
urope	-11748
wugas	-11749
▁0.02	-11750
▁1,25	-11751
▁1930	-11752
▁1993	-11753
▁1995	-11754
▁1998	-11755
▁1999	-11756
▁200%	-11757
▁2300	-11758
▁24/7	-11759
▁2400	-11760
▁4500	-11761
▁6061	-11762
▁7000	-11763
▁Bath	-11764
▁Brun	-11765
▁Buva	-11766
▁CCRP	-11767
▁Cass	-11768
▁Cham	-11769
▁Chum	-11770
▁Chậu	-11771
▁Dash	-11772
▁Dinh	-11773
▁Expo	-11774
▁Flow	-11775
▁Gong	-11776
▁June	-11777
▁KIỂM	-11778
▁KIỆN	-11779
▁LIVE	-11780
▁LIÊN	-11781
▁Lady	-11782
▁Lift	-11783
▁Lump	-11784
▁Lệnh	-11785
▁Mits	-11786
▁Mort	-11787
▁Nest	-11788
▁Noel	-11789
▁Nóng	-11790
▁PPGL	-11791
▁Peru	-11792
▁Phép	-11793
▁Pipe	-11794
▁Pool	-11795
▁SPMK	-11796
▁Saga	-11797
▁Sang	-11798
▁Shim	-11799
▁Sign	-11800
▁TIỀN	-11801
▁Tịch	-11802
▁UPVC	-11803
▁Vars	-11804
▁Vũng	-11805
▁Wifi	-11806
▁Wisc	-11807
▁Wood	-11808
▁banh	-11809
▁biếu	-11810
▁chói	-11811
▁chảo	-11812
▁chầm	-11813
▁chọi	-11814
▁flex	-11815
▁hand	-11816
▁hoóc	-11817
▁kiwi	-11818
▁kiều	-11819
▁link	-11820
▁mmHg	-11821
▁nhai	-11822
▁nhíp	-11823
▁nhấm	-11824
▁nhức	-11825
▁pass	-11826
▁phật	-11827
▁phốt	-11828
▁quýt	-11829
▁rack	-11830
▁rock	-11831
▁thòi	-11832
▁wing	-11833
▁ĐIỂM	-11834
1-1044	-11835
andard	-11836
aragua	-11837
aville	-11838
bourne	-11839
carbon	-11840
elling	-11841
istory	-11842
lahoma	-11843
nights	-11844
oplace	-11845
thường	-11846
▁15-20	-11847
▁1914,	-11848
▁1980,	-11849
▁1990,	-11850
▁2001,	-11851
▁2008)	-11852
▁Apply	-11853
▁Audio	-11854
▁Booth	-11855
▁Bosun	-11856
▁Canon	-11857
▁Chips	-11858
▁Colon	-11859
▁Costa	-11860
▁Cyber	-11861
▁Dhabi	-11862
▁Diego	-11863
▁Dîner	-11864
▁Ghana	-11865
▁Huyền	-11866
▁ICSID	-11867
▁Janne	-11868
▁Jenny	-11869
▁Karen	-11870
▁Kings	-11871
▁Mason	-11872
▁Milan	-11873
▁Modem	-11874
▁Ocean	-11875
▁Paleo	-11876
▁Plush	-11877
▁Queen	-11878
▁RHCSA	-11879
▁River	-11880
▁Rosin	-11881
▁Shape	-11882
▁Sport	-11883
▁Store	-11884
▁Swing	-11885
▁TRÌNH	-11886
▁Trưng	-11887
▁Tunis	-11888
▁Upper	-11889
▁Viber	-11890
▁Yahoo	-11891
▁after	-11892
▁cross	-11893
▁csgob	-11894
▁khuây	-11895
▁khuấy	-11896
▁khống	-11897
▁loãng	-11898
▁nghẹt	-11899
▁nghẽn	-11900
▁nhũng	-11901
▁ozone	-11902
▁ruộng	-11903
▁thình	-11904
▁trành	-11905
ability	-11906
ecutive	-11907
enolone	-11908
ephrine	-11909
lioside	-11910
lobulin	-11911
project	-11912
▁877-94	-11913
▁APICMO	-11914
▁Angkor	-11915
▁Chiang	-11916
▁Chuang	-11917
▁Cosmos	-11918
▁Digest	-11919
▁Duster	-11920
▁Foldit	-11921
▁Joshua	-11922
▁Mining	-11923
▁Nelson	-11924
▁Nghiêm	-11925
▁Payson	-11926
▁Powder	-11927
▁Prince	-11928
▁Pusher	-11929
▁Queens	-11930
▁Rezero	-11931
▁Rights	-11932
▁Serbia	-11933
▁United	-11934
▁chrome	-11935
▁enzyme	-11936
▁harley	-11937
▁khiêng	-11938
▁lutein	-11939
▁vanity	-11940
lication	-11941
urethane	-11942
▁Caravan	-11943
▁Central	-11944
▁Diamond	-11945
▁Everest	-11946
▁Extract	-11947
▁Glasgow	-11948
▁Notepad	-11949
▁Shengyu	-11950
▁Toronto	-11951
▁Varsity	-11952
▁gáihình	-11953
▁pittông	-11954
▁tattoos	-11955
▁torrent	-11956
achusetts	-11957
▁Cambodia	-11958
▁Cameroon	-11959
▁December	-11960
▁Ethiopia	-11961
▁Graphics	-11962
▁Illinois	-11963
▁Inverter	-11964
▁LanTiếng	-11965
▁Services	-11966
▁Trimming	-11967
▁Wireless	-11968
▁beadlock	-11969
▁Analytics	-11970
▁Downlight	-11971
▁Hongwugas	-11972
▁Monoplace	-11973
▁Nicaragua	-11974
▁Photoshop	-11975
▁Wisconsin	-11976
▁blackjack	-11977
▁protected	-11978
▁saxophone	-11979
▁transposh	-11980
▁Bangladesh	-11981
▁Gulfstream	-11982
▁Industries	-11983
▁Kazakhstan	-11984
▁Management	-11985
▁Electronics	-11986
▁luteinizing	-11987
▁877-941-1044	-11988
▁Buddhatrends	-11989
▁Professional	-11990
▁Cryptocurrency	-11991
----------------	-11992
▁telechargerfilm	-11993
2"	-11994
:1	-11995
:>	-11996
AW	-11997
BM	-11998
CW	-11999
Cu	-12000
DB	-12001
FO	-12002
FR	-12003
Fr	-12004
HK	-12005
Hệ	-12006
IG	-12007
NE	-12008
PG	-12009
Sơ	-12010
YC	-12011
bi	-12012
cz	-12013
dy	-12014
hh	-12015
lr	-12016
mà	-12017
sơ	-12018
xã	-12019
ề	-12020
ĂM	-12021
уб	-12022
ắk	-12023
▁^	-12024
▁à	-12025
▁ĩ	-12026
▁İ	-12027
-0,	-12028
-23	-12029
-32	-12030
-4)	-12031
-5)	-12032
-83	-12033
.27	-12034
/03	-12035
/13	-12036
/18	-12037
/4,	-12038
014	-12039
155	-12040
16)	-12041
163	-12042
169	-12043
23)	-12044
23,	-12045
23.	-12046
230	-12047
240	-12048
247	-12049
251	-12050
282	-12051
293	-12052
3">	-12053
33.	-12054
43)	-12055
605	-12056
608	-12057
639	-12058
704	-12059
750	-12060
8.0	-12061
804	-12062
805	-12063
806	-12064
869	-12065
905	-12066
909	-12067
99%	-12068
:04	-12069
:16	-12070
:37	-12071
:50	-12072
ACH	-12073
AIR	-12074
AST	-12075
Ang	-12076
BTC	-12077
Bur	-12078
Gal	-12079
HGH	-12080
Huệ	-12081
ITS	-12082
Met	-12083
ORT	-12084
RTS	-12085
SDS	-12086
Sch	-12087
Thể	-12088
Web	-12089
agu	-12090
ait	-12091
asa	-12092
asi	-12093
bur	-12094
cat	-12095
cci	-12096
cắt	-12097
doz	-12098
dpi	-12099
flu	-12100
gam	-12101
gie	-12102
giờ	-12103
iah	-12104
igg	-12105
ikh	-12106
jön	-12107
ken	-12108
kov	-12109
lyn	-12110
mei	-12111
mic	-12112
mmX	-12113
nRH	-12114
now	-12115
obo	-12116
ocs	-12117
ovo	-12118
pad	-12119
rar	-12120
rep	-12121
roy	-12122
ryl	-12123
rất	-12124
sửa	-12125
tec	-12126
tes	-12127
thu	-12128
tất	-12129
usk	-12130
vài	-12131
ÙNG	-12132
ận	-12133
ård	-12134
Đại	-12135
ƯỚC	-12136
ƯỜI	-12137
ẠNH	-12138
ệch	-12139
ọdụ	-12140
”).	-12141
▁"(	-12142
▁".	-12143
▁-4	-12144
▁//	-12145
▁8%	-12146
▁83	-12147
▁<5	-12148
▁AK	-12149
▁Af	-12150
▁BH	-12151
▁Bệ	-12152
▁ED	-12153
▁Ec	-12154
▁GF	-12155
▁Ge	-12156
▁HF	-12157
▁HV	-12158
▁Je	-12159
▁KN	-12160
▁LÝ	-12161
▁Mơ	-12162
▁NV	-12163
▁Nd	-12164
▁Og	-12165
▁Ry	-12166
▁SX	-12167
▁TA	-12168
▁TỐ	-12169
▁Tờ	-12170
▁Tứ	-12171
▁Uỷ	-12172
▁WC	-12173
▁bõ	-12174
▁dở	-12175
▁gồ	-12176
▁kí	-12177
▁lữ	-12178
▁og	-12179
▁rc	-12180
▁rã	-12181
▁vỉ	-12182
▁ws	-12183
▁ĐỀ	-12184
▁đu	-12185
▁đơ	-12186
▁ỏi	-12187
-180	-12188
-19,	-12189
-220	-12190
-900	-12191
.02.	-12192
/07,	-12193
1100	-12194
1300	-12195
248)	-12196
33">	-12197
6113	-12198
71">	-12199
="16	-12200
Bags	-12201
Comp	-12202
Dòng	-12203
HEEL	-12204
INCE	-12205
Kịch	-12206
Loại	-12207
Ngài	-12208
OGIC	-12209
Plus	-12210
ROUP	-12211
STON	-12212
Spot	-12213
UNTD	-12214
agos	-12215
also	-12216
ased	-12217
atab	-12218
born	-12219
brid	-12220
eeds	-12221
ehnd	-12222
elli	-12223
endo	-12224
ents	-12225
erig	-12226
eros	-12227
etic	-12228
fast	-12229
ffee	-12230
hàng	-12231
inge	-12232
ipit	-12233
ivic	-12234
lass	-12235
lica	-12236
mesh	-12237
ngay	-12238
ofer	-12239
omic	-12240
otin	-12241
oval	-12242
pert	-12243
phia	-12244
phot	-12245
plex	-12246
rian	-12247
sáng	-12248
tetr	-12249
theo	-12250
tăng	-12251
uala	-12252
uela	-12253
ultz	-12254
wang	-12255
ways	-12256
điện	-12257
▁'',	-12258
▁-30	-12259
▁1,3	-12260
▁1,8	-12261
▁13)	-12262
▁132	-12263
▁136	-12264
▁137	-12265
▁189	-12266
▁2,4	-12267
▁218	-12268
▁22:	-12269
▁235	-12270
▁325	-12271
▁415	-12272
▁5.1	-12273
▁575	-12274
▁660	-12275
▁755	-12276
▁770	-12277
▁8-9	-12278
▁8.0	-12279
▁866	-12280
▁88,	-12281
▁>>>	-12282
▁???	-12283
▁ASO	-12284
▁Ain	-12285
▁Ath	-12286
▁BON	-12287
▁Blo	-12288
▁CHỦ	-12289
▁Che	-12290
▁Cub	-12291
▁Côn	-12292
▁Cắm	-12293
▁DMD	-12294
▁DOC	-12295
▁Dam	-12296
▁Dao	-12297
▁Dim	-12298
▁Dod	-12299
▁Dog	-12300
▁Dor	-12301
▁EAF	-12302
▁Egg	-12303
▁Ent	-12304
▁HRC	-12305
▁Kel	-12306
▁Kos	-12307
▁Kub	-12308
▁Kẹp	-12309
▁LLP	-12310
▁Lun	-12311
▁Líp	-12312
▁Meg	-12313
▁Múa	-12314
▁Nhớ	-12315
▁Nit	-12316
▁Nằm	-12317
▁PAY	-12318
▁PLA	-12319
▁PLT	-12320
▁PRO	-12321
▁Pap	-12322
▁Pur	-12323
▁Rac	-12324
▁Raz	-12325
▁Ric	-12326
▁Rui	-12327
▁SDR	-12328
▁SOG	-12329
▁SXL	-12330
▁Spr	-12331
▁Sép	-12332
▁Sốc	-12333
▁Sữa	-12334
▁Thự	-12335
▁Tul	-12336
▁Tái	-12337
▁VAN	-12338
▁Vel	-12339
▁Vốn	-12340
▁bkẻ	-12341
▁btc	-12342
▁bục	-12343
▁chư	-12344
▁cơm	-12345
▁day	-12346
▁dep	-12347
▁ext	-12348
▁fre	-12349
▁gio	-12350
▁glu	-12351
▁gân	-12352
▁gầy	-12353
▁hoi	-12354
▁huệ	-12355
▁lầu	-12356
▁lẻn	-12357
▁lẻo	-12358
▁mấu	-12359
▁mọt	-12360
▁nêm	-12361
▁nịt	-12362
▁nực	-12363
▁pdf	-12364
▁râu	-12365
▁rét	-12366
▁spa	-12367
▁sồi	-12368
▁sục	-12369
▁tom	-12370
▁toạ	-12371
▁tur	-12372
▁tơi	-12373
▁tạc	-12374
▁tấp	-12375
▁vir	-12376
▁xáo	-12377
▁xát	-12378
▁xói	-12379
▁xắn	-12380
▁yếm	-12381
▁zip	-12382
▁ĐƠN	-12383
▁ĐẦU	-12384
▁Đốt	-12385
▁đẫm	-12386
▁đốm	-12387
-3000	-12388
-4374	-12389
14001	-12390
Bideo	-12391
EVFTA	-12392
Flare	-12393
JIANG	-12394
Khách	-12395
RESSO	-12396
Ropes	-12397
achel	-12398
agawa	-12399
aller	-12400
antai	-12401
aptor	-12402
atuit	-12403
ayuan	-12404
azebo	-12405
build	-12406
burgh	-12407
chang	-12408
color	-12409
ectro	-12410
elect	-12411
emkin	-12412
henna	-12413
hours	-12414
idine	-12415
istic	-12416
itoyl	-12417
lycer	-12418
nstar	-12419
ogest	-12420
onson	-12421
opher	-12422
orter	-12423
ospin	-12424
qiang	-12425
reads	-12426
shình	-12427
uking	-12428
under	-12429
uring	-12430
vương	-12431
water	-12432
yster	-12433
zuela	-12434
▁(3.5	-12435
▁0.35	-12436
▁10.5	-12437
▁1547	-12438
▁2050	-12439
▁3600	-12440
▁4.77	-12441
▁9000	-12442
▁Bamb	-12443
▁Bund	-12444
▁Burg	-12445
▁CPLA	-12446
▁CYFL	-12447
▁Clin	-12448
▁Conc	-12449
▁CÁCH	-12450
▁Deal	-12451
▁Deer	-12452
▁Dino	-12453
▁Diễu	-12454
▁Duct	-12455
▁Duty	-12456
▁DỊCH	-12457
▁Farm	-12458
▁GIẤY	-12459
▁Hann	-12460
▁Huấn	-12461
▁Komb	-12462
▁MSCS	-12463
▁Menu	-12464
▁Moto	-12465
▁Nexo	-12466
▁Nghĩ	-12467
▁Ngãi	-12468
▁Ngăn	-12469
▁Niêm	-12470
▁Pers	-12471
▁Pham	-12472
▁Phun	-12473
▁Phía	-12474
▁Polt	-12475
▁Puri	-12476
▁Rice	-12477
▁Sets	-12478
▁Shin	-12479
▁Skin	-12480
▁TRÊN	-12481
▁Thấp	-12482
▁Treo	-12483
▁Trib	-12484
▁Tumb	-12485
▁TÍNH	-12486
▁Tòng	-12487
▁Vert	-12488
▁WORD	-12489
▁WiFi	-12490
▁Xian	-12491
▁bcác	-12492
▁chắp	-12493
▁chằm	-12494
▁cord	-12495
▁crôm	-12496
▁doub	-12497
▁iron	-12498
▁kiêm	-12499
▁make	-12500
▁nhờn	-12501
▁phễu	-12502
▁quấn	-12503
▁rong	-12504
▁rành	-12505
▁sùng	-12506
▁thùy	-12507
▁time	-12508
▁tops	-12509
▁tống	-12510
▁Đàng	-12511
▁Đặng	-12512
-18:00	-12513
-2017:	-12514
77-596	-12515
Chuyên	-12516
Fabric	-12517
Google	-12518
Ribbon	-12519
Static	-12520
Thương	-12521
Truyền	-12522
angelo	-12523
ctionw	-12524
ecylen	-12525
ighter	-12526
istics	-12527
orning	-12528
thương	-12529
worker	-12530
zodiac	-12531
▁0.9.3	-12532
▁1.200	-12533
▁10-15	-12534
▁12000	-12535
▁15000	-12536
▁2,000	-12537
▁2009.	-12538
▁2012.	-12539
▁5,000	-12540
▁50-60	-12541
▁50000	-12542
▁86-21	-12543
▁9001,	-12544
▁Angle	-12545
▁Angry	-12546
▁Blood	-12547
▁Cabin	-12548
▁Cards	-12549
▁Cyrus	-12550
▁Daily	-12551
▁Drops	-12552
▁Dynam	-12553
▁Files	-12554
▁Forti	-12555
▁Fried	-12556
▁Hersh	-12557
▁Honey	-12558
▁Jizer	-12559
▁Knife	-12560
▁Kuala	-12561
▁Menlo	-12562
▁NYECO	-12563
▁Parts	-12564
▁Paste	-12565
▁Pixel	-12566
▁Randy	-12567
▁Rover	-12568
▁Sales	-12569
▁Samui	-12570
▁Sheff	-12571
▁Soken	-12572
▁Spray	-12573
▁Storm	-12574
▁THIẾT	-12575
▁THIỆU	-12576
▁Thiện	-12577
▁Thách	-12578
▁Tweet	-12579
▁Tưởng	-12580
▁Vista	-12581
▁board	-12582
▁chanh	-12583
▁chuốt	-12584
▁deont	-12585
▁dress	-12586
▁eBird	-12587
▁giêng	-12588
▁gmail	-12589
▁mehnd	-12590
▁niken	-12591
▁patch	-12592
▁proxy	-12593
▁thặng	-12594
▁under	-12595
Feather	-12596
Lottery	-12597
Threads	-12598
UNTDOWN	-12599
akedown	-12600
atrader	-12601
climber	-12602
ificate	-12603
intendo	-12604
ologies	-12605
vention	-12606
youtube	-12607
▁(2008)	-12608
▁10,000	-12609
▁Archiv	-12610
▁Ashley	-12611
▁Breath	-12612
▁Button	-12613
▁CANNAP	-12614
▁Chocol	-12615
▁Dakota	-12616
▁Fabric	-12617
▁Ladies	-12618
▁Landes	-12619
▁Lounge	-12620
▁Lumpur	-12621
▁Meleti	-12622
▁Module	-12623
▁Nicole	-12624
▁Odessa	-12625
▁PRINCE	-12626
▁Palest	-12627
▁Panels	-12628
▁Phaolô	-12629
▁Phuong	-12630
▁Protot	-12631
▁Ripple	-12632
▁School	-12633
▁Screen	-12634
▁Silica	-12635
▁Termin	-12636
▁Uganda	-12637
▁Update	-12638
▁Vivlon	-12639
▁Wonder	-12640
▁acerig	-12641
▁bkhông	-12642
▁giương	-12643
▁hormon	-12644
▁iTunes	-12645
▁piston	-12646
▁truồng	-12647
adelphia	-12648
auctionw	-12649
bekistan	-12650
eleasing	-12651
esterone	-12652
function	-12653
zerospin	-12654
▁0086-13	-12655
▁200.000	-12656
▁Casting	-12657
▁Cordura	-12658
▁Detroit	-12659
▁Display	-12660
▁Genesis	-12661
▁Gratuit	-12662
▁Kitchen	-12663
▁Knights	-12664
▁Perfect	-12665
▁Poltava	-12666
▁Premium	-12667
▁Romania	-12668
▁Schultz	-12669
▁Sinston	-12670
▁Society	-12671
▁Stephan	-12672
▁Steroid	-12673
▁Torrent	-12674
▁Vietjet	-12675
▁cookies	-12676
▁faience	-12677
▁gumball	-12678
▁lithium	-12679
ecylenate	-12680
▁ArcSight	-12681
▁Baseball	-12682
▁Bismarck	-12683
▁Doraemon	-12684
▁Hongdali	-12685
▁Ignition	-12686
▁JanneAir	-12687
▁Litecoin	-12688
▁Mountain	-12689
▁Potemkin	-12690
▁Progress	-12691
▁Recovery	-12692
▁Selenium	-12693
▁Stamping	-12694
▁Telegram	-12695
▁Template	-12696
▁barnstar	-12697
▁litecoin	-12698
▁1-877-596	-12699
▁86-574-86	-12700
▁Catalogue	-12701
▁Cellulose	-12702
▁Executive	-12703
▁Melbourne	-12704
▁Scratcher	-12705
▁Sheffield	-12706
▁Streaming	-12707
▁Tadalafil	-12708
▁Vientiane	-12709
▁christmas	-12710
▁dedusting	-12711
▁Azerbaijan	-12712
▁CloudFlare	-12713
▁Lorcaserin	-12714
▁Mozambique	-12715
▁Nandrolone	-12716
▁Queensland	-12717
▁2.6.4.16113	-12718
▁CANNAPRESSO	-12719
▁Minnesotans	-12720
▁NYECOUNTDOWN	-12721
▁Philadelphia	-12722
▁Treadclimber	-12723
▁csgozerospin	-12724
▁polyethylene	-12725
auctionwizards	-12726
▁Massachusetts	-12727
▁Polypropylene	-12728
▁1-877-596-4374	-12729
................	-12730
$1	-12731
*.	-12732
+3	-12733
->	-12734
4?	-12735
7-	-12736
</	-12737
AG	-12738
CF	-12739
Cá	-12740
Do	-12741
Is	-12742
KO	-12743
Kế	-12744
LH	-12745
Mẹ	-12746
Nê	-12747
Nó	-12748
WD	-12749
bị	-12750
fb	-12751
mô	-12752
nó	-12753
po	-12754
sư	-12755
wl	-12756
ÁP	-12757
ể	-12758
те	-12759
ẮC	-12760
▁¥	-12761
▁§	-12762
▁φ	-12763
▁с	-12764
▁ồ	-12765
▁√	-12766
▁□	-12767
(6)	-12768
-2-	-12769
-6)	-12770
-65	-12771
-74	-12772
.28	-12773
.59	-12774
.65	-12775
.74	-12776
.84	-12777
.98	-12778
/6,	-12779
019	-12780
12,	-12781
129	-12782
13)	-12783
13,	-12784
136	-12785
198	-12786
2">	-12787
208	-12788
22,	-12789
228	-12790
294	-12791
308	-12792
325	-12793
33,	-12794
35,	-12795
401	-12796
420	-12797
550	-12798
707	-12799
728	-12800
74)	-12801
808	-12802
85,	-12803
955	-12804
:36	-12805
:56	-12806
:58	-12807
ACE	-12808
AME	-12809
Bán	-12810
CAD	-12811
FCL	-12812
FIT	-12813
Fun	-12814
HCM	-12815
Hợp	-12816
Kết	-12817
Nam	-12818
Ngh	-12819
Pai	-12820
Sal	-12821
Top	-12822
VER	-12823
abb	-12824
aho	-12825
arp	-12826
ban	-12827
bie	-12828
cha	-12829
chi	-12830
cor	-12831
dài	-12832
dụm	-12833
egr	-12834
emp	-12835
eus	-12836
evi	-12837
fix	-12838
gio	-12839
har	-12840
hãy	-12841
hội	-12842
ité	-12843
lav	-12844
lie	-12845
lời	-12846
lợp	-12847
mad	-12848
med	-12849
mặc	-12850
oku	-12851
olv	-12852
pos	-12853
rac	-12854
rag	-12855
ria	-12856
rov	-12857
sev	-12858
tri	-12859
tức	-12860
ula	-12861
uli	-12862
unt	-12863
van	-12864
ylv	-12865
ync	-12866
Đối	-12867
Đức	-12868
đối	-12869
▁#1	-12870
▁#8	-12871
▁$3	-12872
▁((	-12873
▁).	-12874
▁7%	-12875
▁:)	-12876
▁<0	-12877
▁BG	-12878
▁FC	-12879
▁FP	-12880
▁Gà	-12881
▁HQ	-12882
▁HZ	-12883
▁KB	-12884
▁LV	-12885
▁Lẽ	-12886
▁MM	-12887
▁Pc	-12888
▁RM	-12889
▁RU	-12890
▁UH	-12891
▁Us	-12892
▁Va	-12893
▁VỀ	-12894
▁VỤ	-12895
▁WB	-12896
▁ZD	-12897
▁bn	-12898
▁cc	-12899
▁rủ	-12900
▁vơ	-12901
▁°,	-12902
▁út	-12903
▁ốp	-12904
!!!!	-12905
(17)	-12906
****	-12907
-380	-12908
.12.	-12909
/100	-12910
1314	-12911
1800	-12912
9.99	-12913
BRID	-12914
Braz	-12915
Cũng	-12916
ECOV	-12917
Giao	-12918
Giải	-12919
Hack	-12920
Kiểm	-12921
Kích	-12922
PACK	-12923
Phát	-12924
Slov	-12925
Test	-12926
Thin	-12927
Tian	-12928
Tình	-12929
UYẾN	-12930
Wire	-12931
Zhen	-12932
____	-12933
afer	-12934
airs	-12935
alur	-12936
artz	-12937
ause	-12938
aver	-12939
bert	-12940
blem	-12941
bước	-12942
cuối	-12943
digy	-12944
elta	-12945
enbu	-12946
eneg	-12947
enne	-12948
ento	-12949
fner	-12950
gant	-12951
icam	-12952
iful	-12953
iler	-12954
ills	-12955
imum	-12956
iram	-12957
kens	-12958
kina	-12959
loff	-12960
logo	-12961
olas	-12962
omat	-12963
onav	-12964
opro	-12965
ourg	-12966
phân	-12967
rile	-12968
rise	-12969
rock	-12970
roof	-12971
tail	-12972
tinh	-12973
trat	-12974
ules	-12975
urai	-12976
yler	-12977
▁$2,	-12978
▁$62	-12979
▁(%)	-12980
▁+34	-12981
▁03:	-12982
▁1,9	-12983
▁117	-12984
▁147	-12985
▁157	-12986
▁15:	-12987
▁184	-12988
▁2,0	-12989
▁2,2	-12990
▁228	-12991
▁23.	-12992
▁299	-12993
▁389	-12994
▁422	-12995
▁58,	-12996
▁64,	-12997
▁8.5	-12998
▁8.8	-12999
▁915	-13000
▁960	-13001
▁98%	-13002
▁AFF	-13003
▁Abd	-13004
▁Ank	-13005
▁Ark	-13006
▁Arn	-13007
▁BMC	-13008
▁Bin	-13009
▁Bug	-13010
▁BÁN	-13011
▁BẢN	-13012
▁BẤT	-13013
▁Bồn	-13014
▁CDP	-13015
▁CEE	-13016
▁CUỘ	-13017
▁Chỗ	-13018
▁Cob	-13019
▁Cou	-13020
▁Côm	-13021
▁Cơn	-13022
▁Dai	-13023
▁Der	-13024
▁Dài	-13025
▁Dàn	-13026
▁Dạy	-13027
▁EAP	-13028
▁GMT	-13029
▁GSS	-13030
▁Gab	-13031
▁Gur	-13032
▁Gốm	-13033
▁HIỂ	-13034
▁HOT	-13035
▁Hop	-13036
▁Hoá	-13037
▁Hài	-13038
▁Hậu	-13039
▁Ing	-13040
▁Jac	-13041
▁Kid	-13042
▁Lap	-13043
▁Lom	-13044
▁MPP	-13045
▁Mur	-13046
▁MẠI	-13047
▁Nén	-13048
▁Oak	-13049
▁Oem	-13050
▁PES	-13051
▁POS	-13052
▁PPC	-13053
▁Pav	-13054
▁Pcs	-13055
▁ROB	-13056
▁Raj	-13057
▁Rum	-13058
▁Rôm	-13059
▁SAE	-13060
▁SIN	-13061
▁Stu	-13062
▁TPR	-13063
▁TSJ	-13064
▁Tao	-13065
▁VOV	-13066
▁Wom	-13067
▁aas	-13068
▁bừa	-13069
▁cal	-13070
▁cóc	-13071
▁căm	-13072
▁dee	-13073
▁div	-13074
▁doc	-13075
▁dặn	-13076
▁dồn	-13077
▁ghề	-13078
▁gội	-13079
▁hip	-13080
▁hẻm	-13081
▁iji	-13082
▁jum	-13083
▁lig	-13084
▁lóc	-13085
▁lầy	-13086
▁mặn	-13087
▁nye	-13088
▁nẹp	-13089
▁oem	-13090
▁pat	-13091
▁pcs	-13092
▁ret	-13093
▁rot	-13094
▁răn	-13095
▁sem	-13096
▁sấm	-13097
▁sủa	-13098
▁trơ	-13099
▁url	-13100
▁vóc	-13101
▁vùi	-13102
▁đốn	-13103
▁ếch	-13104
="1.1	-13105
Cloud	-13106
ORDER	-13107
Slots	-13108
Trước	-13109
ahili	-13110
anner	-13111
artic	-13112
dozer	-13113
etrah	-13114
guang	-13115
ichen	-13116
ikora	-13117
ionic	-13118
lando	-13119
meter	-13120
olley	-13121
ologo	-13122
oreal	-13123
quyền	-13124
reenh	-13125
rites	-13126
terol	-13127
times	-13128
trade	-13129
ulsed	-13130
ungen	-13131
yland	-13132
▁(11)	-13133
▁(12)	-13134
▁(18)	-13135
▁0574	-13136
▁1900	-13137
▁1957	-13138
▁1988	-13139
▁2.11	-13140
▁3.10	-13141
▁9.99	-13142
▁Benz	-13143
▁Beth	-13144
▁Biko	-13145
▁Bolt	-13146
▁Boot	-13147
▁Brad	-13148
▁Brit	-13149
▁Bích	-13150
▁CHƠI	-13151
▁Chun	-13152
▁Circ	-13153
▁Cole	-13154
▁Cone	-13155
▁DMCA	-13156
▁Dang	-13157
▁Disc	-13158
▁Faso	-13159
▁Fern	-13160
▁Fish	-13161
▁GDPR	-13162
▁Girl	-13163
▁Grey	-13164
▁HVAC	-13165
▁Isab	-13166
▁Jose	-13167
▁KHAI	-13168
▁KOOW	-13169
▁Khay	-13170
▁LOẠI	-13171
▁Lear	-13172
▁Lego	-13173
▁Life	-13174
▁Lind	-13175
▁Làng	-13176
▁Made	-13177
▁Nebr	-13178
▁Ngừa	-13179
▁Nàng	-13180
▁Oven	-13181
▁Peak	-13182
▁Phay	-13183
▁Ping	-13184
▁Pinn	-13185
▁Ptfe	-13186
▁Pump	-13187
▁Rain	-13188
▁SITE	-13189
▁Sanh	-13190
▁Sanj	-13191
▁Shad	-13192
▁Suối	-13193
▁Swap	-13194
▁Swim	-13195
▁TEDx	-13196
▁THỨC	-13197
▁Ties	-13198
▁Trav	-13199
▁Trại	-13200
▁Trải	-13201
▁Viên	-13202
▁Wuxi	-13203
▁Yoga	-13204
▁Zero	-13205
▁agia	-13206
▁cell	-13207
▁chậu	-13208
▁comm	-13209
▁cóng	-13210
▁diff	-13211
▁diễu	-13212
▁dora	-13213
▁feet	-13214
▁form	-13215
▁full	-13216
▁giòn	-13217
▁kali	-13218
▁lock	-13219
▁mach	-13220
▁ndụm	-13221
▁neon	-13222
▁ngòi	-13223
▁ngốc	-13224
▁nành	-13225
▁plus	-13226
▁qual	-13227
▁root	-13228
▁rảnh	-13229
▁serv	-13230
▁sext	-13231
▁soda	-13232
▁spam	-13233
▁suôn	-13234
▁sưng	-13235
▁sủng	-13236
▁thoa	-13237
▁thóa	-13238
▁tuôn	-13239
Design	-13240
Methyl	-13241
Trường	-13242
abolic	-13243
anoate	-13244
couver	-13245
ebanon	-13246
ements	-13247
everan	-13248
former	-13249
iberia	-13250
liance	-13251
odized	-13252
ubishi	-13253
ussels	-13254
▁10-11	-13255
▁10.99	-13256
▁11-12	-13257
▁15.57	-13258
▁17.39	-13259
▁2004.	-13260
▁3.0.5	-13261
▁5.000	-13262
▁9001:	-13263
▁Accel	-13264
▁Anime	-13265
▁Arriv	-13266
▁BONUS	-13267
▁Birds	-13268
▁CHỨNG	-13269
▁Candy	-13270
▁Chiếu	-13271
▁Chris	-13272
▁Codes	-13273
▁Combo	-13274
▁Einav	-13275
▁Estar	-13276
▁Gmail	-13277
▁Grant	-13278
▁Hills	-13279
▁Hmoob	-13280
▁Idaho	-13281
▁Jones	-13282
▁Julia	-13283
▁Khark	-13284
▁Lagos	-13285
▁Lathe	-13286
▁LƯỢNG	-13287
▁Meter	-13288
▁NGƯỜI	-13289
▁Natri	-13290
▁Navig	-13291
▁Pablo	-13292
▁Plaza	-13293
▁Range	-13294
▁Relay	-13295
▁Scrum	-13296
▁Seals	-13297
▁Solar	-13298
▁Stars	-13299
▁Thiêu	-13300
▁Tocyn	-13301
▁Tower	-13302
▁Twill	-13303
▁Wallp	-13304
▁anime	-13305
▁bonus	-13306
▁chánh	-13307
▁chưng	-13308
▁giang	-13309
▁jumma	-13310
▁muỗng	-13311
▁ngoãn	-13312
▁ngùng	-13313
▁photo	-13314
▁phích	-13315
▁place	-13316
▁spool	-13317
▁thiếc	-13318
▁thủng	-13319
ECOVERY	-13320
androst	-13321
atabase	-13322
baokang	-13323
ensions	-13324
ichrist	-13325
isocyan	-13326
ography	-13327
▁60.000	-13328
▁86-532	-13329
▁ASOSAI	-13330
▁Abacre	-13331
▁Angela	-13332
▁Anundg	-13333
▁BORDER	-13334
▁Bamboo	-13335
▁Batman	-13336
▁Benoit	-13337
▁Bucket	-13338
▁CHƯƠNG	-13339
▁Chuông	-13340
▁Coffee	-13341
▁Corpor	-13342
▁Design	-13343
▁Diesel	-13344
▁Edward	-13345
▁Egloff	-13346
▁German	-13347
▁Greenh	-13348
▁Guinea	-13349
▁HYBRID	-13350
▁Hammer	-13351
▁Harris	-13352
▁Keygen	-13353
▁Kombat	-13354
▁Küfner	-13355
▁Making	-13356
▁Oliver	-13357
▁Outlet	-13358
▁Phosph	-13359
▁Relays	-13360
▁Renshi	-13361
▁Ruther	-13362
▁Stefan	-13363
▁Teneng	-13364
▁UNESCO	-13365
▁Vienna	-13366
▁aasraw	-13367
▁atiếng	-13368
▁clorua	-13369
▁dragon	-13370
▁gioăng	-13371
▁methyl	-13372
▁naruto	-13373
▁paypal	-13374
XinCheng	-13375
chloride	-13376
ipitator	-13377
otropics	-13378
▁250.000	-13379
▁500.000	-13380
▁Adaptor	-13381
▁Camping	-13382
▁Crusher	-13383
▁Develop	-13384
▁Hacking	-13385
▁History	-13386
▁Houston	-13387
▁Jewelry	-13388
▁Jizerou	-13389
▁Looking	-13390
▁Phoenix	-13391
▁Polybag	-13392
▁Project	-13393
▁Protein	-13394
▁Restivo	-13395
▁Station	-13396
▁Voltage	-13397
▁detroit	-13398
▁ndụmọdụ	-13399
▁ogologo	-13400
▁phantom	-13401
▁sprites	-13402
▁tartrat	-13403
enbuterol	-13404
ification	-13405
▁Bitcoins	-13406
▁Brussels	-13407
▁Catalyst	-13408
▁Ethernet	-13409
▁Globalso	-13410
▁Holmsjön	-13411
▁Kanagawa	-13412
▁Metrobus	-13413
▁Michelle	-13414
▁Nebraska	-13415
▁Nintendo	-13416
▁Oklahoma	-13417
▁Original	-13418
▁Orlistat	-13419
▁Pharmacy	-13420
▁Platform	-13421
▁ShenZhen	-13422
▁Straight	-13423
▁registry	-13424
▁Alexander	-13425
▁Appliance	-13426
▁Automatic	-13427
▁Bulldozer	-13428
▁Elemental	-13429
▁Extension	-13430
▁Landesman	-13431
▁Limousine	-13432
▁Louisiana	-13433
▁McGeveran	-13434
▁Omniverse	-13435
▁Palestine	-13436
▁Parkinson	-13437
▁RescuePRO	-13438
▁Vancouver	-13439
▁Venezuela	-13440
▁deontolog	-13441
▁messenger	-13442
▁Decorative	-13443
▁Metatrader	-13444
▁Mitsubishi	-13445
▁NatureThin	-13446
▁Rutherford	-13447
▁Uzbekistan	-13448
▁ironworker	-13449
▁positioner	-13450
ncategorized	-13451
▁Cornerstone	-13452
▁Manipulator	-13453
▁Shakespeare	-13454
▁Intelligence	-13455
▁Sandblasting	-13456
▁Zhongbaokang	-13457
▁dreamcatcher	-13458
(9	-13459
9-	-13460
Am	-13461
At	-13462
BK	-13463
EU	-13464
Em	-13465
FG	-13466
FT	-13467
GM	-13468
Gr	-13469
Hỗ	-13470
IO	-13471
KM	-13472
LI	-13473
Lu	-13474
NT	-13475
Re	-13476
Ri	-13477
TI	-13478
Tu	-13479
Tổ	-13480
Uk	-13481
VM	-13482
WW	-13483
XG	-13484
YL	-13485
cơ	-13486
gd	-13487
ha	-13488
iê	-13489
lé	-13490
rP	-13491
tô	-13492
ws	-13493
wu	-13494
yy	-13495
}}	-13496
®,	-13497
ấ	-13498
öt	-13499
ũa	-13500
̣t	-13501
го	-13502
но	-13503
то	-13504
ỐN	-13505
’,	-13506
”2	-13507
▁Ø	-13508
▁ư	-13509
▁в	-13510
▁п	-13511
▁	-13512
(23	-13513
-1)	-13514
-2.	-13515
-37	-13516
-38	-13517
-5,	-13518
-58	-13519
-62	-13520
-7)	-13521
-79	-13522
-87	-13523
-96	-13524
-98	-13525
.).	-13526
.31	-13527
/02	-13528
/15	-13529
/32	-13530
005	-13531
013	-13532
016	-13533
119	-13534
126	-13535
127	-13536
152	-13537
176	-13538
199	-13539
2-2	-13540
2.5	-13541
225	-13542
245	-13543
256	-13544
28)	-13545
285	-13546
290	-13547
305	-13548
307	-13549
364	-13550
408	-13551
41)	-13552
5">	-13553
5).	-13554
610	-13555
630	-13556
70.	-13557
705	-13558
752	-13559
758	-13560
866	-13561
885	-13562
90%	-13563
950	-13564
:03	-13565
:10	-13566
:41	-13567
ARD	-13568
ATE	-13569
And	-13570
Bel	-13571
Bất	-13572
CMG	-13573
COP	-13574
ERS	-13575
GRE	-13576
Gen	-13577
HTP	-13578
ICP	-13579
INS	-13580
Mon	-13581
Mùa	-13582
Mỗi	-13583
Mục	-13584
PCV	-13585
RSS	-13586
SAW	-13587
SSI	-13588
Sức	-13589
TAD	-13590
USA	-13591
VDC	-13592
Văn	-13593
Wit	-13594
ayo	-13595
bbs	-13596
boy	-13597
bản	-13598
cas	-13599
cil	-13600
dBm	-13601
die	-13602
dym	-13603
eca	-13604
fly	-13605
fos	-13606
gic	-13607
giá	-13608
hoa	-13609
hui	-13610
iba	-13611
ils	-13612
irl	-13613
iya	-13614
kut	-13615
mck	-13616
nab	-13617
nch	-13618
nes	-13619
oda	-13620
omm	-13621
ony	-13622
oor	-13623
ppy	-13624
pyr	-13625
sch	-13626
uko	-13627
uth	-13628
uật	-13629
wan	-13630
wys	-13631
yte	-13632
zhi	-13633
ệt	-13634
đầu	-13635
đến	-13636
ẾNG	-13637
▁$8	-13638
▁&;	-13639
▁(.	-13640
▁3%	-13641
▁8)	-13642
▁AB	-13643
▁AE	-13644
▁AV	-13645
▁Bò	-13646
▁BỊ	-13647
▁Bỏ	-13648
▁Bố	-13649
▁Cũ	-13650
▁CƠ	-13651
▁Dn	-13652
▁Ek	-13653
▁Et	-13654
▁FE	-13655
▁Ip	-13656
▁KJ	-13657
▁Ký	-13658
▁Lá	-13659
▁LƯ	-13660
▁Lệ	-13661
▁ML	-13662
▁MV	-13663
▁MW	-13664
▁OC	-13665
▁OH	-13666
▁PI	-13667
▁Pb	-13668
▁Qi	-13669
▁RK	-13670
▁RT	-13671
▁Ri	-13672
▁Rm	-13673
▁TE	-13674
▁Ts	-13675
▁Tv	-13676
▁Tụ	-13677
▁UC	-13678
▁Um	-13679
▁Vé	-13680
▁Vả	-13681
▁Vỏ	-13682
▁WA	-13683
▁WI	-13684
▁XM	-13685
▁YM	-13686
▁cd	-13687
▁cỗ	-13688
▁há	-13689
▁me	-13690
▁ol	-13691
▁sq	-13692
▁tx	-13693
▁vò	-13694
▁ĐI	-13695
▁ạt	-13696
▁Ảo	-13697
▁€,	-13698
(12)	-13699
(18)	-13700
(20)	-13701
-125	-13702
-25%	-13703
-319	-13704
-89%	-13705
.10.	-13706
0123	-13707
1516	-13708
1718	-13709
3.10	-13710
5,00	-13711
8217	-13712
:86-	-13713
="24	-13714
CURL	-13715
Chào	-13716
Form	-13717
High	-13718
Info	-13719
Logo	-13720
Tags	-13721
Theo	-13722
Thật	-13723
UYÊN	-13724
UYỆN	-13725
abad	-13726
abeh	-13727
aine	-13728
aire	-13729
anti	-13730
ardo	-13731
atus	-13732
away	-13733
ayak	-13734
cing	-13735
cleo	-13736
comb	-13737
comm	-13738
cott	-13739
ctor	-13740
cũng	-13741
dian	-13742
drop	-13743
eats	-13744
edar	-13745
esto	-13746
exam	-13747
fred	-13748
hand	-13749
idan	-13750
idon	-13751
imét	-13752
ires	-13753
itzu	-13754
ivia	-13755
iăng	-13756
jean	-13757
kytn	-13758
lưng	-13759
meld	-13760
news	-13761
ngth	-13762
nits	-13763
ohan	-13764
omas	-13765
part	-13766
quir	-13767
raff	-13768
reat	-13769
ruit	-13770
sole	-13771
stop	-13772
stru	-13773
test	-13774
thần	-13775
trao	-13776
type	-13777
uary	-13778
ucky	-13779
vers	-13780
émon	-13781
Được	-13782
”...	-13783
▁#10	-13784
▁$60	-13785
▁$72	-13786
▁(14	-13787
▁(17	-13788
▁-2,	-13789
▁0,3	-13790
▁0,4	-13791
▁020	-13792
▁021	-13793
▁103	-13794
▁11)	-13795
▁112	-13796
▁124	-13797
▁148	-13798
▁156	-13799
▁163	-13800
▁164	-13801
▁176	-13802
▁20'	-13803
▁208	-13804
▁215	-13805
▁24/	-13806
▁245	-13807
▁266	-13808
▁390	-13809
▁4.1	-13810
▁510	-13811
▁520	-13812
▁523	-13813
▁560	-13814
▁6.7	-13815
▁620	-13816
▁780	-13817
▁9,5	-13818
▁ADN	-13819
▁ASP	-13820
▁ATA	-13821
▁Aff	-13822
▁Asp	-13823
▁Bah	-13824
▁Bax	-13825
▁Bed	-13826
▁Boo	-13827
▁BÁO	-13828
▁CAM	-13829
▁CHL	-13830
▁CON	-13831
▁Cab	-13832
▁Cfb	-13833
▁Chy	-13834
▁Clo	-13835
▁DVR	-13836
▁Djs	-13837
▁EDM	-13838
▁EMS	-13839
▁FTT	-13840
▁Fau	-13841
▁Fis	-13842
▁Fix	-13843
▁Fly	-13844
▁GUI	-13845
▁Gắn	-13846
▁HOL	-13847
▁Hav	-13848
▁Hep	-13849
▁Hey	-13850
▁Hip	-13851
▁IBC	-13852
▁Kin	-13853
▁LAN	-13854
▁Lem	-13855
▁Lâu	-13856
▁MHz	-13857
▁MTA	-13858
▁MUA	-13859
▁Mom	-13860
▁Mát	-13861
▁Mèo	-13862
▁Món	-13863
▁Mũi	-13864
▁MỤC	-13865
▁Ngũ	-13866
▁Nến	-13867
▁ORC	-13868
▁PCT	-13869
▁Pes	-13870
▁Phá	-13871
▁Reb	-13872
▁Rốt	-13873
▁SKU	-13874
▁SSD	-13875
▁Sab	-13876
▁Sac	-13877
▁Sak	-13878
▁Spc	-13879
▁Sul	-13880
▁Syd	-13881
▁Tie	-13882
▁Tow	-13883
▁Trà	-13884
▁Tím	-13885
▁Tận	-13886
▁Tắm	-13887
▁TỐT	-13888
▁Use	-13889
▁VAT	-13890
▁Var	-13891
▁Vjs	-13892
▁WCB	-13893
▁WTO	-13894
▁Xie	-13895
▁Yoh	-13896
▁atl	-13897
▁bik	-13898
▁btr	-13899
▁bur	-13900
▁bứt	-13901
▁clo	-13902
▁del	-13903
▁don	-13904
▁giở	-13905
▁hal	-13906
▁hit	-13907
▁hot	-13908
▁hạm	-13909
▁hốc	-13910
▁ltd	-13911
▁lẩn	-13912
▁mil	-13913
▁mày	-13914
▁net	-13915
▁new	-13916
▁ngả	-13917
▁num	-13918
▁nôi	-13919
▁nạc	-13920
▁pal	-13921
▁rel	-13922
▁reo	-13923
▁rpm	-13924
▁rss	-13925
▁ruy	-13926
▁rìa	-13927
▁sấp	-13928
▁trọ	-13929
▁trổ	-13930
▁tôm	-13931
▁vàn	-13932
▁vạt	-13933
▁ĐẠO	-13934
▁ĐẢM	-13935
▁ĐỐI	-13936
▁đùi	-13937
▁руб	-13938
-2010	-13939
-2013	-13940
-2016	-13941
-6000	-13942
-9100	-13943
86055	-13944
="0.8	-13945
HIRTS	-13946
Khung	-13947
Query	-13948
Thiên	-13949
addle	-13950
alore	-13951
amate	-13952
amuro	-13953
andoc	-13954
apper	-13955
arine	-13956
ceton	-13957
eader	-13958
ellet	-13959
eople	-13960
esome	-13961
europ	-13962
ework	-13963
exams	-13964
iling	-13965
ilter	-13966
ingbo	-13967
kutsk	-13968
nhiệt	-13969
oming	-13970
ource	-13971
perid	-13972
pring	-13973
zheng	-13974
▁(1,0	-13975
▁(1,6	-13976
▁(13)	-13977
▁0,00	-13978
▁0.25	-13979
▁1.50	-13980
▁101,	-13981
▁1920	-13982
▁1974	-13983
▁1997	-13984
▁200,	-13985
▁2880	-13986
▁5,0%	-13987
▁5.86	-13988
▁9-10	-13989
▁<1,5	-13990
▁AISI	-13991
▁Actu	-13992
▁Alor	-13993
▁Alto	-13994
▁Anch	-13995
▁BLOG	-13996
▁Balt	-13997
▁Bent	-13998
▁Bowl	-13999
▁Brac	-14000
▁Bron	-14001
▁CFDs	-14002
▁CHẤT	-14003
▁CISA	-14004
▁Carp	-14005
▁Chin	-14006
▁Chết	-14007
▁Chịu	-14008
▁Chốt	-14009
▁Chụp	-14010
▁Craw	-14011
▁Cuba	-14012
▁Cống	-14013
▁DRCW	-14014
▁FREE	-14015
▁Fant	-14016
▁Foil	-14017
▁Food	-14018
▁Gear	-14019
▁Gibr	-14020
▁Gill	-14021
▁Gánh	-14022
▁Huân	-14023
▁Inox	-14024
▁Jenn	-14025
▁Jian	-14026
▁Jung	-14027
▁KING	-14028
▁Kahn	-14029
▁Khôi	-14030
▁Kits	-14031
▁Kong	-14032
▁Kure	-14033
▁Lact	-14034
▁Lake	-14035
▁Lite	-14036
▁Lucy	-14037
▁Luke	-14038
▁Lăng	-14039
▁MSDS	-14040
▁Marg	-14041
▁Math	-14042
▁Miền	-14043
▁Mong	-14044
▁Nano	-14045
▁Ngói	-14046
▁Ngọn	-14047
▁OMNI	-14048
▁Oeko	-14049
▁PAMA	-14050
▁PCBs	-14051
▁Path	-14052
▁Pent	-14053
▁Pric	-14054
▁RAID	-14055
▁Reap	-14056
▁Rise	-14057
▁SARS	-14058
▁Sexy	-14059
▁Shan	-14060
▁Ship	-14061
▁Silk	-14062
▁Spin	-14063
▁THÁC	-14064
▁Text	-14065
▁Thoa	-14066
▁Thân	-14067
▁Trau	-14068
▁Trân	-14069
▁Tách	-14070
▁Uber	-14071
▁Unit	-14072
▁VIỆC	-14073
▁Vers	-14074
▁Weld	-14075
▁Wing	-14076
▁XCMG	-14077
▁Yobo	-14078
▁Zeng	-14079
▁Zhao	-14080
▁adân	-14081
▁cart	-14082
▁chui	-14083
▁elip	-14084
▁flor	-14085
▁free	-14086
▁khâm	-14087
▁laze	-14088
▁lười	-14089
▁mono	-14090
▁ngời	-14091
▁nhót	-14092
▁nhại	-14093
▁nhấc	-14094
▁nhằn	-14095
▁quin	-14096
▁rang	-14097
▁rượt	-14098
▁site	-14099
▁ster	-14100
▁text	-14101
▁thoi	-14102
▁thềm	-14103
▁trầy	-14104
▁viền	-14105
▁voan	-14106
▁volt	-14107
▁vuốt	-14108
▁work	-14109
▁Đanh	-14110
/2020,	-14111
10.000	-14112
Player	-14113
ancing	-14114
anical	-14115
betten	-14116
celand	-14117
dymium	-14118
elwing	-14119
engers	-14120
fluoro	-14121
holder	-14122
ickham	-14123
iscope	-14124
ivirus	-14125
lywood	-14126
methyl	-14127
opharm	-14128
ounter	-14129
rading	-14130
▁$6.49	-14131
▁(2018	-14132
▁10-20	-14133
▁123..	-14134
▁1996,	-14135
▁19:00	-14136
▁2018)	-14137
▁3.000	-14138
▁4,000	-14139
▁422/4	-14140
▁86-18	-14141
▁Annie	-14142
▁Anton	-14143
▁Baker	-14144
▁Buồng	-14145
▁Canxi	-14146
▁Clean	-14147
▁Dance	-14148
▁Debby	-14149
▁Delta	-14150
▁Diode	-14151
▁Doors	-14152
▁Drick	-14153
▁Duyệt	-14154
▁Emily	-14155
▁GROUP	-14156
▁Gates	-14157
▁Gener	-14158
▁Giant	-14159
▁Glory	-14160
▁Guard	-14161
▁Hibon	-14162
▁Huyết	-14163
▁Infob	-14164
▁Joint	-14165
▁Khaki	-14166
▁LOGIC	-14167
▁Level	-14168
▁Matte	-14169
▁Miami	-14170
▁Miếng	-14171
▁Nghĩa	-14172
▁Pound	-14173
▁Prost	-14174
▁Rapid	-14175
▁Rotor	-14176
▁Saudi	-14177
▁Shirt	-14178
▁Sites	-14179
▁Socks	-14180
▁Spinj	-14181
▁Stain	-14182
▁Steam	-14183
▁Thiệt	-14184
▁Topic	-14185
▁Track	-14186
▁Tranh	-14187
▁Trust	-14188
▁Tyson	-14189
▁VigRx	-14190
▁Villa	-14191
▁Watch	-14192
▁Worth	-14193
▁cache	-14194
▁chệch	-14195
▁chững	-14196
▁civic	-14197
▁denim	-14198
▁fluor	-14199
▁hotel	-14200
▁khuya	-14201
▁latte	-14202
▁light	-14203
▁mavic	-14204
▁ngước	-14205
▁nhiếc	-14206
▁repro	-14207
▁rương	-14208
▁salad	-14209
▁sales	-14210
▁skins	-14211
▁slide	-14212
2020-03	-14213
Control	-14214
abehere	-14215
duction	-14216
gabalin	-14217
irconia	-14218
kytnice	-14219
olution	-14220
rikoooo	-14221
utorial	-14222
ylvania	-14223
▁$13.80	-14224
▁$54.00	-14225
▁$62.00	-14226
▁$72.00	-14227
▁0755-2	-14228
▁11-25%	-14229
▁15.000	-14230
▁35.000	-14231
▁40.000	-14232
▁50,000	-14233
▁ACCURL	-14234
▁Aichun	-14235
▁Benson	-14236
▁Biopro	-14237
▁BuyHGH	-14238
▁Castle	-14239
▁Cinema	-14240
▁Coated	-14241
▁Deakin	-14242
▁Europe	-14243
▁Gerber	-14244
▁Handle	-14245
▁Justin	-14246
▁Keyuda	-14247
▁Loader	-14248
▁Marine	-14249
▁Martha	-14250
▁Mekong	-14251
▁Newton	-14252
▁Nozzle	-14253
▁Provin	-14254
▁Rising	-14255
▁Rivers	-14256
▁Safety	-14257
▁Search	-14258
▁SegWit	-14259
▁Select	-14260
▁Skrill	-14261
▁Taslan	-14262
▁Temper	-14263
▁Visual	-14264
▁Walker	-14265
▁Wallet	-14266
▁jersey	-14267
▁multip	-14268
▁ngượng	-14269
▁pandoc	-14270
▁tokens	-14271
▁violin	-14272
▁xămtay	-14273
.01.2019	-14274
13141516	-14275
51486055	-14276
Material	-14277
Standard	-14278
ducation	-14279
tainment	-14280
▁.......	-14281
▁0086-21	-14282
▁100/300	-14283
▁300.000	-14284
▁Abraham	-14285
▁CSGOBET	-14286
▁Carbide	-14287
▁Chiller	-14288
▁Collect	-14289
▁Croatia	-14290
▁Dusting	-14291
▁Fighter	-14292
▁Fishing	-14293
▁Gelatin	-14294
▁Getwell	-14295
▁Grandpa	-14296
▁Grating	-14297
▁Hosting	-14298
▁Hotmail	-14299
▁Irkutsk	-14300
▁Jackets	-14301
▁Longyou	-14302
▁Macaron	-14303
▁Medical	-14304
▁Monitor	-14305
▁PAMAENS	-14306
▁Process	-14307
▁Prodigy	-14308
▁Proform	-14309
▁Pujiang	-14310
▁Reading	-14311
▁Richina	-14312
▁Rotator	-14313
▁Storage	-14314
▁Telecom	-14315
▁Timothy	-14316
▁Trainer	-14317
▁Trouble	-14318
▁Tunisia	-14319
▁Whitmer	-14320
▁bassoon	-14321
▁birders	-14322
▁bitcoin	-14323
▁plugins	-14324
▁taffeta	-14325
▁trailer	-14326
▁venturi	-14327
▁windows	-14328
/08/2019)	-14329
="0.833">	-14330
Indonesia	-14331
attleborn	-14332
lécharger	-14333
meldungen	-14334
▁Avengers	-14335
▁Bookmark	-14336
▁Bracelet	-14337
▁Bulgaria	-14338
▁Cadamuro	-14339
▁Catalist	-14340
▁Chunyuan	-14341
▁Embossed	-14342
▁Fernando	-14343
▁Florence	-14344
▁Isabelle	-14345
▁Jacquard	-14346
▁KOOWHEEL	-14347
▁Mandarin	-14348
▁McDonald	-14349
▁Pinnacle	-14350
▁Training	-14351
▁Transpar	-14352
▁altcoins	-14353
▁citycoco	-14354
▁hormones	-14355
▁oxytocin	-14356
solabehere	-14357
▁Anundgård	-14358
▁Bangalore	-14359
▁Billboard	-14360
▁Champions	-14361
▁Frankfurt	-14362
▁Gibraltar	-14363
▁Nashville	-14364
▁Palmitoyl	-14365
▁Princeton	-14366
▁Rokytnice	-14367
▁Spinjitzu	-14368
▁Zhongtian	-14369
▁crossbody	-14370
▁omniverse	-14371
▁releasing	-14372
▁2010-2017:	-14373
▁FuXinCheng	-14374
▁Greenhouse	-14375
▁Nootropics	-14376
▁skateboard	-14377
▁Bioproducts	-14378
▁Colonelwing	-14379
▁placeholder	-14380
▁Michelangelo	-14381
▁MobileCasino	-14382
▁Technologies	-14383
▁Undecylenate	-14384
▁javascriptON	-14385
▁khốicryptocr	-14386
▁progesterone	-14387
▁skinsproject	-14388
▁Entertainment	-14389
▁BuyHGHThailand	-14390
▁Archivmeldungen	-14391
"]	-14392
3"	-14393
:,	-14394
BD	-14395
BP	-14396
BT	-14397
Bà	-14398
Cô	-14399
Cơ	-14400
Dự	-14401
EO	-14402
FE	-14403
GU	-14404
IB	-14405
JH	-14406
NY	-14407
Op	-14408
PV	-14409
Ro	-14410
Sm	-14411
Su	-14412
VO	-14413
WI	-14414
XE	-14415
XP	-14416
Xi	-14417
YK	-14418
YU	-14419
cd	-14420
cứ	-14421
db	-14422
gt	-14423
hn	-14424
iS	-14425
je	-14426
sq	-14427
tp	-14428
uj	-14429
vô	-14430
wa	-14431
xe	-14432
xu	-14433
zm	-14434
ÊM	-14435
ÔN	-14436
Đề	-14437
đã	-14438
šų	-14439
Ар	-14440
ес	-14441
ив	-14442
ли	-14443
ны	-14444
ẪN	-14445
ỌN	-14446
ổn	-14447
ờn	-14448
’;	-14449
▁į	-14450
▁β	-14451
▁д	-14452
▁♥	-14453
▁♦	-14454
(15	-14455
-64	-14456
.33	-14457
.42	-14458
.45	-14459
.89	-14460
01)	-14461
017	-14462
116	-14463
124	-14464
133	-14465
185	-14466
194	-14467
2),	-14468
205	-14469
21)	-14470
231	-14471
30)	-14472
334	-14473
355	-14474
356	-14475
36,	-14476
393	-14477
46,	-14478
471	-14479
50)	-14480
506	-14481
510	-14482
531	-14483
650	-14484
7.5	-14485
731	-14486
76)	-14487
76,	-14488
777	-14489
809	-14490
856	-14491
858	-14492
88)	-14493
883	-14494
90)	-14495
953	-14496
98%	-14497
:11	-14498
:13	-14499
:21	-14500
:52	-14501
:54	-14502
:55	-14503
All	-14504
Boc	-14505
CAS	-14506
EAT	-14507
ERN	-14508
EUR	-14509
Hai	-14510
IFF	-14511
III	-14512
IỆT	-14513
LOX	-14514
Led	-14515
Mag	-14516
Nhờ	-14517
Nội	-14518
One	-14519
PAL	-14520
PET	-14521
Pok	-14522
Quy	-14523
Rob	-14524
TTY	-14525
Thế	-14526
adi	-14527
ami	-14528
atu	-14529
aud	-14530
aum	-14531
bic	-14532
chủ	-14533
cit	-14534
cus	-14535
ddi	-14536
dit	-14537
dll	-14538
dol	-14539
egu	-14540
ewe	-14541
gel	-14542
ghi	-14543
gọi	-14544
hop	-14545
ief	-14546
isb	-14547
khi	-14548
lab	-14549
noy	-14550
nền	-14551
oci	-14552
omi	-14553
onb	-14554
osk	-14555
oty	-14556
pan	-14557
pur	-14558
ril	-14559
rin	-14560
rss	-14561
sky	-14562
sor	-14563
tap	-14564
tar	-14565
trl	-14566
ttp	-14567
tốt	-14568
uma	-14569
usa	-14570
vis	-14571
Ông	-14572
õng	-14573
Đầu	-14574
ướn	-14575
ướu	-14576
Арх	-14577
ẠNG	-14578
ỌNG	-14579
▁"-	-14580
▁2”	-14581
▁6)	-14582
▁<6	-14583
▁="	-14584
▁AJ	-14585
▁Ay	-14586
▁Bê	-14587
▁Cỏ	-14588
▁DD	-14589
▁DE	-14590
▁DỰ	-14591
▁EH	-14592
▁IQ	-14593
▁JH	-14594
▁JY	-14595
▁KỲ	-14596
▁LS	-14597
▁LZ	-14598
▁LÃ	-14599
▁MR	-14600
▁Mê	-14601
▁NT	-14602
▁Nu	-14603
▁Ny	-14604
▁Nỗ	-14605
▁Rô	-14606
▁SV	-14607
▁TU	-14608
▁TƯ	-14609
▁TỪ	-14610
▁Uv	-14611
▁VD	-14612
▁Vs	-14613
▁Vệ	-14614
▁WS	-14615
▁YJ	-14616
▁cộ	-14617
▁ev	-14618
▁id	-14619
▁lì	-14620
▁mo	-14621
▁ni	-14622
▁os	-14623
▁pp	-14624
▁rô	-14625
▁sọ	-14626
▁tã	-14627
▁Ân	-14628
▁Ép	-14629
▁Đè	-14630
▁đả	-14631
▁đỗ	-14632
▁ấp	-14633
▁′′	-14634
(92)	-14635
-135	-14636
-147	-14637
-872	-14638
.0.0	-14639
.100	-14640
.2.1	-14641
/05,	-14642
1074	-14643
1600	-14644
1808	-14645
2010	-14646
2030	-14647
2500	-14648
36">	-14649
69">	-14650
Back	-14651
Bank	-14652
City	-14653
Cont	-14654
EMIC	-14655
Gram	-14656
HSAS	-14657
LINE	-14658
Mail	-14659
Mark	-14660
Nema	-14661
OCON	-14662
Port	-14663
Slow	-14664
Type	-14665
Vùng	-14666
Wave	-14667
agas	-14668
andy	-14669
anny	-14670
bird	-14671
burn	-14672
bảng	-14673
bằng	-14674
cape	-14675
cell	-14676
chia	-14677
cles	-14678
coln	-14679
cuộc	-14680
ducc	-14681
ebug	-14682
efic	-14683
ells	-14684
ends	-14685
enge	-14686
eole	-14687
giao	-14688
glas	-14689
hiện	-14690
hong	-14691
hành	-14692
iden	-14693
ijia	-14694
irag	-14695
lite	-14696
lunk	-14697
mate	-14698
miss	-14699
ngẫu	-14700
odog	-14701
oise	-14702
olks	-14703
omet	-14704
omie	-14705
opil	-14706
orun	-14707
pull	-14708
rate	-14709
real	-14710
reek	-14711
rika	-14712
sean	-14713
strö	-14714
sule	-14715
text	-14716
thal	-14717
thes	-14718
tide	-14719
time	-14720
tiền	-14721
tons	-14722
tỉnh	-14723
unch	-14724
uran	-14725
utom	-14726
vượt	-14727
wich	-14728
wysl	-14729
ycin	-14730
ếng	-14731
Điện	-14732
đánh	-14733
đứng	-14734
рики	-14735
▁$25	-14736
▁$40	-14737
▁(24	-14738
▁(4,	-14739
▁(55	-14740
▁(9)	-14741
▁085	-14742
▁1-1	-14743
▁104	-14744
▁138	-14745
▁13:	-14746
▁173	-14747
▁18+	-14748
▁183	-14749
▁18:	-14750
▁2-8	-14751
▁2.9	-14752
▁2/3	-14753
▁2/9	-14754
▁211	-14755
▁216	-14756
▁25!	-14757
▁255	-14758
▁3.8	-14759
▁313	-14760
▁33,	-14761
▁333	-14762
▁37,	-14763
▁4.7	-14764
▁410	-14765
▁45,	-14766
▁460	-14767
▁485	-14768
▁5.4	-14769
▁5.9	-14770
▁54,	-14771
▁6-8	-14772
▁60,	-14773
▁641	-14774
▁68,	-14775
▁855	-14776
▁9.6	-14777
▁926	-14778
▁950	-14779
▁:::	-14780
▁AAA	-14781
▁AOI	-14782
▁APC	-14783
▁Ale	-14784
▁Amy	-14785
▁Any	-14786
▁BVC	-14787
▁Bec	-14788
▁BÂY	-14789
▁Bùi	-14790
▁Bối	-14791
▁CDG	-14792
▁CHF	-14793
▁CLB	-14794
▁COR	-14795
▁CPI	-14796
▁Cav	-14797
▁Cer	-14798
▁Cẩm	-14799
▁Cửu	-14800
▁Cựu	-14801
▁DCF	-14802
▁DWG	-14803
▁Dal	-14804
▁Dur	-14805
▁Dày	-14806
▁Dần	-14807
▁DẪN	-14808
▁EEC	-14809
▁ESD	-14810
▁Ecu	-14811
▁FAQ	-14812
▁FCL	-14813
▁Fel	-14814
▁Flu	-14815
▁GEF	-14816
▁GIA	-14817
▁Giơ	-14818
▁Hug	-14819
▁HÀN	-14820
▁IMF	-14821
▁JPY	-14822
▁KHI	-14823
▁Kaf	-14824
▁Kat	-14825
▁LHQ	-14826
▁Lub	-14827
▁Lõi	-14828
▁Lạt	-14829
▁Lặn	-14830
▁Lực	-14831
▁MBA	-14832
▁Mot	-14833
▁Mại	-14834
▁NAD	-14835
▁NEW	-14836
▁NGO	-14837
▁Ngô	-14838
▁Nik	-14839
▁Nim	-14840
▁Nửa	-14841
▁Ore	-14842
▁Osp	-14843
▁Owl	-14844
▁PCI	-14845
▁PDE	-14846
▁PHỤ	-14847
▁Pac	-14848
▁Pcb	-14849
▁Por	-14850
▁Pri	-14851
▁QCN	-14852
▁Qin	-14853
▁RBS	-14854
▁RGB	-14855
▁RNA	-14856
▁Raw	-14857
▁Ron	-14858
▁SHB	-14859
▁SPD	-14860
▁SUS	-14861
▁Shr	-14862
▁Sọc	-14863
▁TCN	-14864
▁TNT	-14865
▁TRF	-14866
▁Tak	-14867
▁Tal	-14868
▁Tre	-14869
▁Tro	-14870
▁Trừ	-14871
▁USP	-14872
▁UTC	-14873
▁VIN	-14874
▁Váy	-14875
▁VẬT	-14876
▁WAN	-14877
▁XHY	-14878
▁Xóa	-14879
▁bet	-14880
▁but	-14881
▁bấp	-14882
▁bịt	-14883
▁cou	-14884
▁cyc	-14885
▁cùi	-14886
▁cút	-14887
▁cội	-14888
▁cửi	-14889
▁def	-14890
▁dời	-14891
▁flo	-14892
▁get	-14893
▁gié	-14894
▁hão	-14895
▁hờn	-14896
▁hực	-14897
▁iso	-14898
▁jet	-14899
▁lad	-14900
▁led	-14901
▁loi	-14902
▁luỹ	-14903
▁lòa	-14904
▁lõm	-14905
▁lùa	-14906
▁mel	-14907
▁mít	-14908
▁mập	-14909
▁nao	-14910
▁ngó	-14911
▁nhơ	-14912
▁nẻo	-14913
▁ple	-14914
▁png	-14915
▁pub	-14916
▁rom	-14917
▁rán	-14918
▁rầy	-14919
▁rẩy	-14920
▁rọi	-14921
▁str	-14922
▁sập	-14923
▁thò	-14924
▁thệ	-14925
▁trệ	-14926
▁tua	-14927
▁tảo	-14928
▁tủa	-14929
▁use	-14930
▁vin	-14931
▁vỉa	-14932
▁vịn	-14933
▁ăng	-14934
▁ĐẶC	-14935
▁Đẹp	-14936
▁Арх	-14937
(157)	-14938
(248)	-14939
-1530	-14940
-2008	-14941
-2011	-14942
-3015	-14943
-4000	-14944
.0.27	-14945
/2012	-14946
="1.2	-14947
Adele	-14948
CLICK	-14949
Catal	-14950
Class	-14951
GREEN	-14952
Nhiều	-14953
Nhiệt	-14954
PCVET	-14955
Shang	-14956
Thanh	-14957
Thuốc	-14958
World	-14959
acity	-14960
acter	-14961
ademy	-14962
aline	-14963
anika	-14964
anuel	-14965
berry	-14966
champ	-14967
chiến	-14968
cloud	-14969
ellis	-14970
ellow	-14971
emorg	-14972
fluor	-14973
hướng	-14974
ialis	-14975
iname	-14976
iones	-14977
itark	-14978
itial	-14979
itian	-14980
iture	-14981
ivery	-14982
iving	-14983
lands	-14984
lopes	-14985
lover	-14986
pheng	-14987
phòng	-14988
quest	-14989
rency	-14990
strap	-14991
thers	-14992
umbai	-14993
undee	-14994
utein	-14995
uteng	-14996
where	-14997
words	-14998
đường	-14999
▁(14)	-15000
▁0,05	-15001
▁0,45	-15002
▁0.13	-15003
▁0.45	-15004
▁0114	-15005
▁12,7	-15006
▁146*	-15007
▁2,75	-15008
▁21,5	-15009
▁2600	-15010
▁2800	-15011
▁3.70	-15012
▁4800	-15013
▁	-15014
n	-15015
h	-15016
t	-15017
c	-15018
i	-15019
g	-15020
a	-15021
u	-15022
o	-15023
m	-15024
à	-15025
đ	-15026
r	-15027
l	-15028
v	-15029
á	-15030
y	-15031
,	-15032
s	-15033
ư	-15034
p	-15035
b	-15036
e	-15037
.	-15038
k	-15039
ô	-15040
d	-15041
ế	-15042
ạ	-15043
ộ	-15044
ó	-15045
ả	-15046
0	-15047
ệ	-15048
T	-15049
ấ	-15050
ê	-15051
ố	-15052
C	-15053
ờ	-15054
ủ	-15055
1	-15056
ớ	-15057
ể	-15058
ề	-15059
ì	-15060
ợ	-15061
ú	-15062
2	-15063
â	-15064
N	-15065
ậ	-15066
x	-15067
ự	-15068
ọ	-15069
ơ	-15070
ị	-15071
ữ	-15072
í	-15073
ầ	-15074
M	-15075
q	-15076
S	-15077
ụ	-15078
ứ	-15079
-	-15080
H	-15081
ã	-15082
ă	-15083
B	-15084
:	-15085
5	-15086
ở	-15087
V	-15088
P	-15089
3	-15090
L	-15091
ắ	-15092
Đ	-15093
D	-15094
A	-15095
ặ	-15096
6	-15097
8	-15098
4	-15099
G	-15100
ồ	-15101
K	-15102
9	-15103
ổ	-15104
ò	-15105
7	-15106
ử	-15107
/	-15108
ừ	-15109
ẽ	-15110
ù	-15111
)	-15112
(	-15113
ằ	-15114
R	-15115
I	-15116
E	-15117
ỏ	-15118
ỉ	-15119
ẩ	-15120
é	-15121
w	-15122
O	-15123
ỗ	-15124
F	-15125
ý	-15126
Q	-15127
f	-15128
ĩ	-15129
ũ	-15130
ễ	-15131
?	-15132
U	-15133
;	-15134
ẫ	-15135
ẻ	-15136
X	-15137
W	-15138
"	-15139
ẹ	-15140
J	-15141
_	-15142
Y	-15143
ỹ	-15144
z	-15145
“	-15146
”	-15147
!	-15148
&	-15149
%	-15150
ỳ	-15151
ỡ	-15152
>	-15153
$	-15154
*	-15155
+	-15156
ẳ	-15157
è	-15158
j	-15159
–	-15160
õ	-15161
ỷ	-15162
Z	-15163
Á	-15164
Â	-15165
=	-15166
ẵ	-15167
'	-15168
Ô	-15169
[	-15170
]	-15171
£	-15172
#	-15173
—	-15174
Ả	-15175
°	-15176
©	-15177
<	-15178
€	-15179
À	-15180
×	-15181
~	-15182
Ấ	-15183
’	-15184
Ư	-15185
Ở	-15186
»	-15187
@	-15188
Ý	-15189
•	-15190
Ủ	-15191
±	-15192
Ố	-15193
Ệ	-15194
Ứ	-15195
Ạ	-15196
Ê	-15197
Ú	-15198
≤	-15199
Í	-15200
Ế	-15201
●	-15202
\	-15203
̣	-15204
Ậ	-15205
®	-15206
★	-15207
‘	-15208
Ó	-15209
а	-15210
·	-15211
е	-15212
Ớ	-15213
→	-15214
Ã	-15215
о	-15216
{	-15217
}	-15218
Ơ	-15219
Ộ	-15220
н	-15221
Ề	-15222
ö	-15223
≥	-15224
Ờ	-15225
и	-15226
Ể	-15227
т	-15228
р	-15229
Ă	-15230
Φ	-15231
ỵ	-15232
Ễ	-15233
Ự	-15234
с	-15235
฿	-15236
Ợ	-15237
Ụ	-15238
ä	-15239
′	-15240
Ẩ	-15241
к	-15242
Ổ	-15243
Ử	-15244
Ọ	-15245
ü	-15246
μ	-15247
Ồ	-15248
】	-15249
【	-15250
Ầ	-15251
́	-15252
«	-15253
Ắ	-15254
Ì	-15255
у	-15256
л	-15257
в	-15258
й	-15259
É	-15260
`	-15261
Ω	-15262
Ị	-15263
å	-15264
м	-15265
Ặ	-15266
←	-15267
б	-15268
✔	-15269
	-15270
ç	-15271
š	-15272
̉	-15273
Ỉ	-15274
̀	-15275
Ù	-15276
ų	-15277
ñ	-15278
	-15279
ə	-15280
д	-15281
Ỏ	-15282
Ò	-15283
Х	-15284
ы	-15285
ь	-15286
ı	-15287
х	-15288
Ừ	-15289
Ữ	-15290
◆	-15291
	-15292
Ö	-15293
Ф	-15294
п	-15295
β	-15296
г	-15297
ş	-15298
з	-15299
^	-15300
Ø	-15301
î	-15302
Ş	-15303
ա	-15304
Ỹ	-15305
₭	-15306
¥	-15307
č	-15308
ř	-15309
Ẻ	-15310
İ	-15311
ж	-15312
ч	-15313
Ẫ	-15314
度	-15315
	-15316
ʹ	-15317
А	-15318
ю	-15319
§	-15320
φ	-15321
я	-15322
√	-15323
□	-15324
Ũ	-15325
ž	-15326
̃	-15327
α	-15328
ѕ	-15329
і	-15330
号	-15331
	-15332
ø	-15333
ė	-15334
į	-15335
Š	-15336
К	-15337
ш	-15338
Ỳ	-15339
♥	-15340
♦	-15341
中	-15342
备	-15343
～	-15344
Ü	-15345
̊	-15346
̤	-15347
ҧ	-15348
ر	-15349
Ỗ	-15350
☆	-15351
粤	-15352
Å	-15353
ð	-15354
ğ	-15355
Ж	-15356
О	-15357
ц	-15358
ا	-15359
ः	-15360
ย	-15361
อ	-15362
า	-15363
ນ	-15364
Ằ	-15365
Ẽ	-15366
⁄	-15367
∮	-15368
功	-15369
寸	-15370
尺	-15371
文	-15372
率	-15373
	-15374
	-15375
­	-15376
Ç	-15377
ß	-15378
ě	-15379
Ĩ	-15380
И	-15381
Р	-15382
ե	-15383
ي	-15384
น	-15385
›	-15386
✭	-15387
日	-15388
	-15389
	-15390
	-15391
🙂	-15392
È	-15393
Ð	-15394
ĕ	-15395
Ž	-15396
̄	-15397
М	-15398
С	-15399
Т	-15400
ъ	-15401
ն	-15402
ր	-15403
י	-15404
ة	-15405
ع	-15406
ी	-15407
ร	-15408
ກ	-15409
ມ	-15410
ສ	-15411
ົ	-15412
ṳ	-15413
Ẳ	-15414
‹	-15415
₪	-15416
►	-15417
⭐	-15418
「	-15419
」	-15420
最	-15421
轴	-15422
长	-15423
	-15424
	-15425
️	-15426
¡	-15427
ć	-15428
ē	-15429
λ	-15430
Б	-15431
В	-15432
Л	-15433
П	-15434
У	-15435
щ	-15436
ب	-15437
ل	-15438
م	-15439
و	-15440
ท	-15441
่	-15442
ດ	-15443
າ	-15444
ເ	-15445
ṣ	-15446
„	-15447
▲	-15448
☸	-15449
♣	-15450
ツ	-15451
外	-15452
学	-15453
工	-15454
形	-15455
总	-15456
料	-15457
語	-15458
锯	-15459
	-15460
😉	-15461
¢	-15462
æ	-15463
ï	-15464
þ	-15465
ā	-15466
Ń	-15467
ū	-15468
ů	-15469
Χ	-15470
π	-15471
Ц	-15472
ї	-15473
Ѵ	-15474
ҡ	-15475
ҹ	-15476
ի	-15477
ղ	-15478
ո	-15479
ք	-15480
ִ	-15481
ت	-15482
س	-15483
ی	-15484
द	-15485
न	-15486
ह	-15487
ि	-15488
ภ	-15489
ว	-15490
ส	-15491
ั	-15492
ไ	-15493
ພ	-15494
ລ	-15495
ວ	-15496
ແ	-15497
Ẹ	-15498
‐	-15499
₱	-15500
⌘	-15501
▼	-15502
♡	-15503
➥	-15504
主	-15505
体	-15506
刨	-15507
加	-15508
厚	-15509
年	-15510
径	-15511
本	-15512
点	-15513
直	-15514
短	-15515
简	-15516
送	-15517
速	-15518
重	-15519
어	-15520
	-15521
	-15522
🇷	-15523
Õ	-15524
ë	-15525
Č	-15526
ę	-15527
Ī	-15528
ī	-15529
ń	-15530
ō	-15531
ŭ	-15532
Ə	-15533
ʁ	-15534
ˈ	-15535
̧	-15536
͡	-15537
Ε	-15538
ά	-15539
γ	-15540
η	-15541
ι	-15542
κ	-15543
ν	-15544
σ	-15545
ψ	-15546
Д	-15547
Е	-15548
З	-15549
Н	-15550
Ш	-15551
э	-15552
ё	-15553
ј	-15554
ѡ	-15555
ѧ	-15556
ҷ	-15557
դ	-15558
ը	-15559
կ	-15560
յ	-15561
շ	-15562
չ	-15563
ս	-15564
վ	-15565
ւ	-15566
֧	-15567
ב	-15568
ע	-15569
ר	-15570
ת	-15571
د	-15572
ف	-15573
ك	-15574
ن	-15575
ा	-15576
्	-15577
८	-15578
া	-15579
ు	-15580
ನ	-15581
മ	-15582
ള	-15583
พ	-15584
ุ	-15585
เ	-15586
ງ	-15587
ທ	-15588
ຫ	-15589
ັ	-15590
ູ	-15591
່	-15592
က	-15593
မ	-15594
ာ	-15595
ღ	-15596
ᆞ	-15597
ᐃ	-15598
ᑎ	-15599
ᑐ	-15600
ᒃ	-15601
ᓄ	-15602
ា	-15603
ḥ	-15604
Ỷ	-15605
‍	-15606
‛	-15607
↑	-15608
↓	-15609
∥	-15610
⊡	-15611
⊥	-15612
▪	-15613
◩	-15614
◪	-15615
☼	-15616
✓	-15617
✫	-15618
❣	-15619
➴	-15620
⠀	-15621
ド	-15622
ル	-15623
净	-15624
刀	-15625
分	-15626
切	-15627
削	-15628
力	-15629
子	-15630
宽	-15631
導	-15632
小	-15633
式	-15634
指	-15635
月	-15636
机	-15637
权	-15638
片	-15639
电	-15640
米	-15641
級	-15642
融	-15643
雷	-15644
국	-15645
에	-15646
한	-15647
	-15648
	-15649
	-15650
	-15651
	-15652
	-15653
	-15654
	-15655
🇺	-15656
🎰	-15657
📱	-15658
	-15659
	-15660
	-15661
	-15662
	-15663
Ä	-15664
Þ	-15665
ą	-15666
ĭ	-15667
ő	-15668
ţ	-15669
ť	-15670
Ŵ	-15671
Ŷ	-15672
ǒ	-15673
ǡ	-15674
ǹ	-15675
ɰ	-15676
ɾ	-15677
ʃ	-15678
ʻ	-15679
̈	-15680
̋	-15681
̵	-15682
ͧ	-15683
ͻ	-15684
Ι	-15685
ε	-15686
ο	-15687
ρ	-15688
ω	-15689
Ь	-15690
Э	-15691
Я	-15692
ѭ	-15693
ѹ	-15694
Ѻ	-15695
Қ	-15696
қ	-15697
ҳ	-15698
Ҷ	-15699
һ	-15700
ӣ	-15701
ԭ	-15702
Ա	-15703
Դ	-15704
Թ	-15705
Հ	-15706
Շ	-15707
Վ	-15708
զ	-15709
թ	-15710
խ	-15711
հ	-15712
մ	-15713
պ	-15714
տ	-15715
ց	-15716
փ	-15717
օ	-15718
ְ	-15719
ג	-15720
ד	-15721
ה	-15722
ו	-15723
מ	-15724
נ	-15725
ש	-15726
،	-15727
ش	-15728
ظ	-15729
ق	-15730
١	-15731
٪	-15732
ٻ	-15733
پ	-15734
ک	-15735
ߋ	-15736
ं	-15737
ठ	-15738
प	-15739
म	-15740
र	-15741
ल	-15742
े	-15743
५	-15744
६	-15745
७	-15746
९	-15747
ং	-15748
ব	-15749
ল	-15750
ਜ	-15751
ਪ	-15752
ਬ	-15753
ਾ	-15754
ੀ	-15755
ੰ	-15756
ગ	-15757
જ	-15758
ત	-15759
ર	-15760
ા	-15761
ી	-15762
ુ	-15763
த	-15764
ம	-15765
ழ	-15766
ி	-15767
்	-15768
ం	-15769
క	-15770
గ	-15771
త	-15772
ర	-15773
ల	-15774
ె	-15775
ಕ	-15776
ಡ	-15777
್	-15778
ം	-15779
യ	-15780
ല	-15781
ാ	-15782
േ	-15783
ං	-15784
ල	-15785
ස	-15786
හ	-15787
ි	-15788
ก	-15789
ค	-15790
ง	-15791
ซ	-15792
ด	-15793
ธ	-15794
บ	-15795
ม	-15796
ษ	-15797
ะ	-15798
ี	-15799
็	-15800
ຊ	-15801
ຍ	-15802
ບ	-15803
ປ	-15804
ຜ	-15805
ຢ	-15806
ະ	-15807
ິ	-15808
ຶ	-15809
ື	-15810
ຼ	-15811
ຽ	-15812
້	-15813
စ	-15814
န	-15815
ဖ	-15816
ိ	-15817
ု	-15818
ူ	-15819
်	-15820
ြ	-15821
ა	-15822
თ	-15823
ი	-15824
ლ	-15825
რ	-15826
უ	-15827
ქ	-15828
ር	-15829
ዙ	-15830
ᑦ	-15831
ខ	-15832
ភ	-15833
ម	-15834
រ	-15835
ស	-15836
ែ	-15837
្	-15838
Ẵ	-15839
Ỡ	-15840
ἐ	-15841
ἱ	-15842
ὶ	-15843
※	-15844
⁝	-15845
₩	-15846
₫	-15847
↩	-15848
⇒	-15849
−	-15850
∴	-15851
≈	-15852
≧	-15853
⋆	-15854
⌛	-15855
⓹	-15856
│	-15857
╗	-15858
△	-15859
☑	-15860
☞	-15861
♂	-15862
♪	-15863
⚘	-15864
❯	-15865
➜	-15866
⨯	-15867
⬆	-15868
⬇	-15869
、	-15870
。	-15871
〖	-15872
〗	-15873
の	-15874
や	-15875
・	-15876
丨	-15877
件	-15878
你	-15879
傳	-15880
光	-15881
入	-15882
包	-15883
半	-15884
华	-15885
南	-15886
名	-15887
和	-15888
国	-15889
國	-15890
圧	-15891
埋	-15892
士	-15893
字	-15894
密	-15895
币	-15896
彩	-15897
応	-15898
惊	-15899
扫	-15900
政	-15901
数	-15902
明	-15903
材	-15904
板	-15905
极	-15906
標	-15907
模	-15908
毛	-15909
沸	-15910
準	-15911
漢	-15912
版	-15913
用	-15914
申	-15915
盛	-15916
票	-15917
私	-15918
称	-15919
程	-15920
策	-15921
箱	-15922
粉	-15923
統	-15924
红	-15925
蛰	-15926
街	-15927
装	-15928
觹	-15929
货	-15930
越	-15931
转	-15932
软	-15933
达	-15934
酢	-15935
隐	-15936
電	-15937
页	-15938
顿	-15939
首	-15940
马	-15941
鲁	-15942
鹷	-15943
갓	-15944
고	-15945
남	-15946
량	-15947
렛	-15948
룰	-15949
모	-15950
밍	-15951
배	-15952
베	-15953
븐	-15954
세	-15955
스	-15956
시	-15957
윌	-15958
응	-15959
점	-15960
중	-15961
총	-15962
터	-15963
턴	-15964
템	-15965
트	-15966
팅	-15967
	-15968
	-15969
	-15970
	-15971
	-15972
	-15973
	-15974
	-15975
	-15976
	-15977
	-15978
	-15979
	-15980
	-15981
	-15982
	-15983
🆕	-15984
🇹	-15985
🌑	-15986
👍	-15987
💡	-15988
🔧	-15989
😀	-15990
😡	-15991
😱	-15992
🙅	-15993
🚩	-15994
🥇	-15995
