<s>	0
</s>	0
<unk>	0
<pad>	0
▁ເ	-0
ານ	-1
ອງ	-2
ັນ	-3
▁ແ	-4
ທີ	-5
▁ກ	-6
້າ	-7
ລະ	-8
ທີ່	-9
▁ສ	-10
າມ	-11
ັບ	-12
ໍາ	-13
່າ	-14
▁ຄ	-15
▁ໃ	-16
▁ຂ	-17
▁ຫ	-18
ດ້	-19
ການ	-20
ັດ	-21
▁ໄ	-22
▁ພ	-23
່ງ	-24
ົາ	-25
້ນ	-26
ື່	-27
າຍ	-28
▁ຈ	-29
ິດ	-30
▁ມ	-31
▁ແລະ	-32
▁ນ	-33
▁ທີ່	-34
▁ຕ	-35
ົນ	-36
າດ	-37
ໍ່	-38
▁ບ	-39
ປະ	-40
▁ທ	-41
ົ້າ	-42
▁ອ	-43
ວາມ	-44
ອນ	-45
▁ການ	-46
ັງ	-47
▁ລ	-48
່ນ	-49
ວກ	-50
ປັນ	-51
▁ໄດ້	-52
ຂອງ	-53
ັກ	-54
າກ	-55
▁ຂອງ	-56
ູ້	-57
ວ່າ	-58
▁ຊ	-59
in	-60
▁ເຮ	-61
▁ໃນ	-62
ຫ້	-63
er	-64
▁ຮ	-65
າງ	-66
ສະ	-67
▁2	-68
່ານ	-69
ຫນ	-70
ຈົ້າ	-71
▁ຄວາມ	-72
ັ້ນ	-73
ີ້	-74
▁1	-75
ໃນ	-76
▁ໂ	-77
່ວ	-78
ູ່	-79
ື່ອ	-80
▁ຢ	-81
▁ຜ	-82
▁C	-83
ອກ	-84
an	-85
▁ເປັນ	-86
້ອ	-87
▁ຈະ	-88
ົງ	-89
ົດ	-90
ຸດ	-91
ິນ	-92
▁S	-93
່າງ	-94
ເຮ	-95
▁ມີ	-96
▁ດ	-97
▁ສະ	-98
ິ່ງ	-99
້ອງ	-100
on	-101
▁ຫນ	-102
▁ເຮົາ	-103
ຫຼ	-104
▁ປ	-105
າວ	-106
ມີ	-107
00	-108
ແລະ	-109
ມ່ນ	-110
ິງ	-111
ໄດ້	-112
▁ເຈົ້າ	-113
▁ພວກ	-114
ົວ	-115
▁ເພ	-116
▁ຍ	-117
▁ໃຫ້	-118
▁ເຂ	-119
▁ວ	-120
▁P	-121
▁ປະ	-122
▁ບໍ່	-123
▁ຖ	-124
ະນ	-125
ຄວາມ	-126
່ຽ	-127
ອບ	-128
ar	-129
▁ຄົນ	-130
en	-131
▁(	-132
es	-133
ຫມ	-134
ຕ່	-135
▁M	-136
ະລ	-137
▁ວ່າ	-138
້ອຍ	-139
ໍາລ	-140
at	-141
or	-142
ຫລ	-143
ົບ	-144
ື່ອງ	-145
ຈະ	-146
▁ກັບ	-147
01	-148
▁ຫລ	-149
ົມ	-150
ຶ່ງ	-151
ພາ	-152
ເປັນ	-153
▁A	-154
ພະ	-155
ຸກ	-156
້ງ	-157
▁ຜູ້	-158
▁T	-159
▁B	-160
▁ຂ້າ	-161
▁/	-162
▁-	-163
▁ໄປ	-164
al	-165
▁ເລ	-166
ເຂ	-167
ຊ້	-168
▁ເຂົາ	-169
▁ນີ້	-170
ເຮົາ	-171
ີນ	-172
ພວກ	-173
ດຍ	-174
ເພ	-175
່ມ	-176
ic	-177
..	-178
st	-179
▁D	-180
ືກ	-181
ວນ	-182
ໃຫ້	-183
▁ຫຼ	-184
າມາດ	-185
ແມ່ນ	-186
ຫຍ	-187
ຶກ	-188
▁ຢູ່	-189
ູນ	-190
ີດ	-191
▁L	-192
ກັບ	-193
ໍາລັບ	-194
▁ແຕ່	-195
▁201	-196
▁ນັ້ນ	-197
▁ທ່ານ	-198
ບໍ່	-199
ງານ	-200
▁,	-201
້າງ	-202
ສາ	-203
ເລ	-204
le	-205
ing	-206
▁R	-207
▁ເຮັດ	-208
້ວ	-209
▁F	-210
ົກ	-211
ro	-212
ລິ	-213
▁3	-214
ລາ	-215
▁ເມ	-216
ຢູ່	-217
ໍ້	-218
ຽນ	-219
ທ່ານ	-220
ັ້ງ	-221
▁H	-222
ຖິງ	-223
▁ມັນ	-224
▁ໃຈ	-225
ac	-226
▁ຫມ	-227
ເຈົ້າ	-228
it	-229
ຕະ	-230
▁ກໍ	-231
ຽງ	-232
ະລິດ	-233
ຶ້ນ	-234
▁ເຊ	-235
ບັນ	-236
▁ຈາກ	-237
ວຍ	-238
ຫັນ	-239
▁ຂ້າພະ	-240
▁ເວ	-241
ຈາກ	-242
▁E	-243
▁ແມ່ນ	-244
ພາບ	-245
ຄື່ອງ	-246
ເວ	-247
▁G	-248
ຮັບ	-249
ື່ນ	-250
ຸນ	-251
ol	-252
ັ່ງ	-253
et	-254
ໄປ	-255
▁ພະ	-256
່ອນ	-257
▁ມາ	-258
om	-259
້ານ	-260
ບບ	-261
▁ລະ	-262
ຕິ	-263
ພວກເຮົາ	-264
ເທ	-265
່ວນ	-266
ູກ	-267
ດ້ວຍ	-268
el	-269
ເສ	-270
ed	-271
as	-272
▁ຮູ້	-273
ອດ	-274
▁ເພື່ອ	-275
ເຊ	-276
ົ້ນ	-277
▁c	-278
▁W	-279
ສາມາດ	-280
▁ຄໍາ	-281
ໃຊ້	-282
▁ເກ	-283
ລ້ວ	-284
ou	-285
ຣະ	-286
▁ສໍາ	-287
ມື	-288
▁ສິ່ງ	-289
▁I	-290
ເຮັດ	-291
ຄົນ	-292
ຜະລິດ	-293
ວຽ	-294
▁5	-295
▁ເຖິງ	-296
ົ່ງ	-297
▁ຕໍ່	-298
▁ໃດ	-299
ຸມ	-300
ີກ	-301
ໍລິ	-302
▁N	-303
ໃຈ	-304
re	-305
▁4	-306
ືອນ	-307
ນັ້ນ	-308
ພັນ	-309
▁ກັນ	-310
▁ລາວ	-311
▁ໂດຍ	-312
▁ຢ່າງ	-313
am	-314
ທາງ	-315
▁ຮັບ	-316
ຜູ້	-317
ມາ	-318
ຊີ	-319
ູບ	-320
ນີ້	-321
ຢ່າງ	-322
ຕໍ່	-323
້າຍ	-324
າະ	-325
▁ເສ	-326
່າຍ	-327
ot	-328
ູງ	-329
il	-330
ລກ	-331
ກະ	-332
▁ຫນ້າ	-333
ິ່ນ	-334
▁s	-335
▁ເອ	-336
ວກັບ	-337
▁t	-338
▁p	-339
ເຕ	-340
ຮງ	-341
ສໍາລັບ	-342
ົ່າ	-343
ວິດ	-344
ີ່ມ	-345
ສະຫນ	-346
▁ຫນຶ່ງ	-347
▁ທາງ	-348
ໍານ	-349
້ມ	-350
ສຸດ	-351
່ຽວກັບ	-352
່ຽວ	-353
່າວ	-354
ຖານ	-355
▁ຂຶ້ນ	-356
ຍາ	-357
ືນ	-358
id	-359
ດີ	-360
▁ອາ	-361
ປະກ	-362
▁ເມື່ອ	-363
ຫາ	-364
▁ຫລາຍ	-365
ຂະ	-366
ກິດ	-367
▁ແລ້ວ	-368
ter	-369
▁ຖືກ	-370
is	-371
ວິ	-372
▁ບັນ	-373
▁ວິ	-374
ບິ່ງ	-375
▁ແນ	-376
▁ນໍາ	-377
▁ເດ	-378
ື້ນ	-379
ຕ້ອງ	-380
▁ພຣະ	-381
ທະ	-382
ion	-383
ເຂົາ	-384
່ວຍ	-385
ad	-386
▁ຕົວ	-387
ຫະ	-388
▁V	-389
ຫຍ່	-390
ສຶກ	-391
▁ເຄື່ອງ	-392
່ວມ	-393
▁ຊີ	-394
ົ່ວ	-395
ອາ	-396
ັ່ນ	-397
▁ດ້ວຍ	-398
ນະ	-399
▁ເທ	-400
▁ດີ	-401
ເກ	-402
ດງ	-403
oo	-404
ະນາ	-405
້ໍາ	-406
ຫຼາຍ	-407
ິກ	-408
ບໍລິ	-409
ອອກ	-410
▁ປີ	-411
້ອນ	-412
ເທດ	-413
ແບບ	-414
▁U	-415
ທີ່ມີ	-416
ch	-417
▁ລູກ	-418
ໂດຍ	-419
▁ກະ	-420
ur	-421
▁ຕ້ອງ	-422
▁m	-423
▁6	-424
▁ເຂົ້າ	-425
ຖືກ	-426
▁O	-427
...	-428
ag	-429
ືອ	-430
▁b	-431
▁ໃຊ້	-432
▁ເຫັນ	-433
ະນະ	-434
ວງ	-435
ເມ	-436
ວັນ	-437
ີຍ	-438
ສ້າງ	-439
▁ສໍາລັບ	-440
▁ຕາມ	-441
ວດ	-442
ຕັ້ງ	-443
ເນ	-444
ດາ	-445
ເຂົ້າ	-446
ບັດ	-447
▁ທຸກ	-448
ທໍາ	-449
ຮູ້	-450
▁ຖ້າ	-451
ຂໍ້	-452
ດນ	-453
ຸ່ມ	-454
ອຍ	-455
▁K	-456
ກັນ	-457
ທິ	-458
ສັດ	-459
▁ທໍາ	-460
▁J	-461
ອົງ	-462
he	-463
ພິ	-464
ຫານ	-465
ງິນ	-466
▁ທັງ	-467
ang	-468
▁_	-469
ເພື່ອ	-470
▁“	-471
ຕົວ	-472
ໄດ້ຮັບ	-473
ig	-474
ໄລ	-475
▁8	-476
ສູງ	-477
ຜົນ	-478
ກໍາ	-479
ເຄ	-480
ຕະພັນ	-481
້ອມ	-482
ທີ່ຈະ	-483
ື່ອນ	-484
ມັນ	-485
▁ໄວ	-486
ແດງ	-487
ຍັງ	-488
▁ເຕ	-489
▁ຫາ	-490
▁ສຸດ	-491
ເພດ	-492
mm	-493
ມ່	-494
ອມ	-495
ມູນ	-496
ື້	-497
ຫນ້າ	-498
່ຽນ	-499
ທັງ	-500
▁ນາງ	-501
ຫດ	-502
▁ພາ	-503
ct	-504
▁d	-505
▁ອອກ	-506
ດນາມ	-507
▁ສາມາດ	-508
▁ເລື່ອງ	-509
ຖະ	-510
ວຽດນາມ	-511
and	-512
▁ຫຼາຍ	-513
▁ຫຼື	-514
ສ່ວນ	-515
▁...	-516
ັດທ	-517
ess	-518
ສິ່ງ	-519
ີ່	-520
ກ່ຽວກັບ	-521
us	-522
▁ບາງ	-523
ow	-524
ent	-525
ປີ	-526
▁"	-527
com	-528
ແນ	-529
▁7	-530
ສິດ	-531
ack	-532
ແຕ່	-533
ສ່	-534
▁ເບິ່ງ	-535
ເຫັນ	-536
ຂ້ອຍ	-537
▁ເພາະ	-538
▁ເພິ່ນ	-539
▁ແຜ	-540
ຮ່ວມ	-541
ໃນການ	-542
ແກ	-543
20	-544
▁ອາດ	-545
ຸ່ນ	-546
▁ຄື	-547
▁ສາ	-548
▁ຮັກ	-549
ື່ນໆ	-550
ຫນາດ	-551
ນໍາ	-552
່ອງ	-553
▁ເອົາ	-554
▁ຊີວິດ	-555
un	-556
ir	-557
ເດ	-558
▁10	-559
ເອ	-560
▁ເກີດ	-561
ສໍາ	-562
ຫມ່	-563
ຄ້າ	-564
▁ຫລື	-565
▁f	-566
ືອກ	-567
▁ຂະ	-568
▁$	-569
▁ຟ	-570
ເວລາ	-571
່ອຍ	-572
ປະເທດ	-573
ເຄື່ອງ	-574
ຊົນ	-575
ຕາ	-576
ຊາ	-577
▁9	-578
▁0	-579
ສົມ	-580
000	-581
▁ຂ້າພະເຈົ້າ	-582
▁h	-583
▁20	-584
ຄິດ	-585
ຽວ	-586
▁ດັ່ງ	-587
ີມ	-588
▁ແທ	-589
ໂນ	-590
▁ອີກ	-591
▁ລັບ	-592
ຽມ	-593
ຕ່າງ	-594
ຈັກ	-595
ເຫຼ	-596
ດ້ານ	-597
▁ພວກເຮົາ	-598
um	-599
ຫ່ງ	-600
▁ວັນ	-601
op	-602
▁St	-603
ຮູບ	-604
▁ສ່ວນ	-605
ul	-606
ສົ່ງ	-607
ລົງ	-608
ri	-609
ຕາມ	-610
ສານ	-611
▁ກໍາ	-612
ວ່າງ	-613
ຫວ	-614
▁ຂ້ອຍ	-615
ine	-616
ຈັດ	-617
ທີ່ສຸດ	-618
▁ຈໍາ	-619
▁ອັນ	-620
ຂອງທ່ານ	-621
ຂອງພວກເຮົາ	-622
ap	-623
▁ເຫລ	-624
▁ແກ	-625
ay	-626
ໃຫຍ່	-627
ຽກ	-628
▁ລາ	-629
ຕິບັດ	-630
ຂຶ້ນ	-631
ວຽກ	-632
▁ເວລາ	-633
▁ງ	-634
▁ເວົ້າ	-635
ຄໍາ	-636
lo	-637
▁ແນວ	-638
▁ຝ	-639
▁ໄວ້	-640
ໃດ	-641
ຈໍາ	-642
ແຕ	-643
▁ໂທ	-644
ສາຫະ	-645
▁ໂລກ	-646
ong	-647
ື້ອ	-648
ໄວ	-649
▁ຄິດ	-650
▁ຂໍ້	-651
ສາດ	-652
▁*	-653
ab	-654
▁2018	-655
ຫມາຍ	-656
▁w	-657
▁ແບບ	-658
▁ກ່ຽວ	-659
ວມ	-660
▁ຈິງ	-661
▁ຕອນ	-662
ຊຸມ	-663
of	-664
ut	-665
os	-666
50	-667
ເງິນ	-668
▁ເອງ	-669
ສັບ	-670
▁ແມ່	-671
ອິດ	-672
ເສດ	-673
ືອງ	-674
ຜ່ານ	-675
ຄັນ	-676
ທຸກ	-677
▁&	-678
ຂໍ້ມູນ	-679
▁ຍັງ	-680
ໍາລັງ	-681
▁ເຄ	-682
▁ພິ	-683
▁X	-684
▁ເຫດ	-685
ຫນຶ່ງ	-686
▁–	-687
ຮຽນ	-688
▁Ch	-689
ຂ້າ	-690
ve	-691
ຽບ	-692
ັດທະນາ	-693
ຫວ່າງ	-694
ສິນ	-695
ອບຄ	-696
ຫລາຍ	-697
▁ທີ	-698
ເປ	-699
ຢູ່ໃນ	-700
▁ຮູບ	-701
ຕົ້ນ	-702
ໂຄ	-703
ດິນ	-704
ການປ	-705
ໂລ	-706
▁+	-707
ຄາ	-708
▁ຫວຽດນາມ	-709
▁.	-710
em	-711
ໂລກ	-712
ip	-713
ພວກເຂົາ	-714
ໍານວນ	-715
▁ຮູ້ສຶກ	-716
ປະກອນ	-717
ers	-718
▁Sh	-719
ເຖິງ	-720
ຸປະກອນ	-721
ອື່ນໆ	-722
ຍະ	-723
ຫມົດ	-724
▁ເດືອນ	-725
ລະບ	-726
▁ຈີນ	-727
▁ຫມົດ	-728
▁ງານ	-729
ທະຍາ	-730
ອບຄົວ	-731
ແປ	-732
ກໍ່	-733
th	-734
າກາດ	-735
▁ພໍ່	-736
▁ອົງ	-737
▁In	-738
▁ຫມາຍ	-739
ດັບ	-740
ແຂ	-741
ຕິດ	-742
ໄຟ	-743
ໍາມ	-744
▁ດາວ	-745
ຫລດ	-746
▁ສ້າງ	-747
▁ຊາຍ	-748
▁ແຜ່ນ	-749
ທິດ	-750
ຜະລິດຕະພັນ	-751
ິ້ນ	-752
ຂອງການ	-753
ບັນດາ	-754
▁19	-755
ຽດ	-756
▁g	-757
ຄື	-758
ia	-759
ົ່ານ	-760
ຸງ	-761
ໄຂ	-762
ລະສັບ	-763
ມ້	-764
▁12	-765
▁Co	-766
-1	-767
▁ຊື່	-768
▁ຈຶ່ງ	-769
ຕອນ	-770
qu	-771
ຈຸ	-772
ust	-773
▁ວຽກ	-774
ຕ້ອງການ	-775
▁ຕາ	-776
▁ສາດ	-777
ູດ	-778
ມານ	-779
ຄ່າ	-780
ຄວ	-781
ແທ	-782
▁ວິທີ	-783
ອາດ	-784
▁ລົງ	-785
▁ຄຸນ	-786
ck	-787
ໃສ່	-788
▁ຊຶ່ງ	-789
ra	-790
▁ເຊິ່ງ	-791
im	-792
ຍາຍ	-793
▁ຂໍ	-794
ໂຫລດ	-795
▁ນ້ອຍ	-796
ນາ	-797
▁ອະ	-798
▁>	-799
▁ຕ່າງ	-800
ຄົມ	-801
ບາຍ	-802
ກົດ	-803
▁ກວ່າ	-804
ພື້ນ	-805
▁ສີ	-806
ຊາດ	-807
▁ຕົນ	-808
ລາຍ	-809
▁ເປ	-810
ຊ່ວຍ	-811
igh	-812
▁ແຕ	-813
▁15	-814
ເຮັດໃຫ້	-815
▁l	-816
▁ໄຟ	-817
▁ຕິດ	-818
▁ແທ້	-819
ນໍາໃຊ້	-820
ສະເ	-821
ງການ	-822
ສີ	-823
▁ພັນ	-824
ຟ້າ	-825
▁ຜົນ	-826
▁ໃຫຍ່	-827
est	-828
ນ້ອຍ	-829
ະລັງ	-830
▁Y	-831
one	-832
ສົບ	-833
ທໍາອິດ	-834
▁Z	-835
ມັດ	-836
ຄົ້ນ	-837
.0	-838
▁ລາຍ	-839
ຶນ	-840
ແລະການ	-841
ຄຸນ	-842
▁ບໍ	-843
ສະແດງ	-844
▁11	-845
ric	-846
eb	-847
ລະກິດ	-848
ນ້ໍາ	-849
▁ປະເພດ	-850
▁ເມືອງ	-851
ast	-852
ຸດສາຫະ	-853
ian	-854
▁ມື	-855
ຂ້າພະ	-856
ເຊື່ອ	-857
▁ຜະລິດ	-858
ນ໌	-859
ເຕີ	-860
▁in	-861
ປະຕິບັດ	-862
▁ແຫ່ງ	-863
ກາ	-864
ລັດ	-865
▁ຈັກ	-866
▁ບ່ອນ	-867
▁ນະ	-868
att	-869
ັມ	-870
ບໍລິການ	-871
201	-872
ຫັດ	-873
ທົ່ວ	-874
▁ຕະ	-875
▁ຊາວ	-876
▁ພຽງ	-877
od	-878
ອາກາດ	-879
▁ທະ	-880
▁ອື່ນ	-881
ພັດທະນາ	-882
.1	-883
ຮັກ	-884
▁ເຊື່ອ	-885
art	-886
ທົບ	-887
ພາກ	-888
▁ຂະຫນາດ	-889
ຍາຍາມ	-890
ver	-891
▁ນັກ	-892
▁ຄອບຄົວ	-893
ທຶນ	-894
ເຈ	-895
ຮງງານ	-896
ປະກອບ	-897
pe	-898
ຊີວິດ	-899
ທານ	-900
▁ຊ່ວຍ	-901
ຸລະກິດ	-902
▁ກ່າວ	-903
▁ອີ	-904
ເຮັດວຽກ	-905
▁ຜິດ	-906
ມີຄວາມ	-907
▁ຫົວ	-908
▁ຫຍັງ	-909
ation	-910
ແຜ	-911
ຫຼື	-912
▁ວິນ	-913
ate	-914
ຶດ	-915
ວາງ	-916
if	-917
ຕ້	-918
▁ມາດ	-919
ain	-920
▁ສັນ	-921
▁200	-922
▁ຮຽນ	-923
າລະ	-924
▁ເຈ	-925
ເພີ່ມ	-926
▁ນ້ໍາ	-927
ຸດສາຫະກໍາ	-928
ຈິງ	-929
ກາຍ	-930
ສະຫນາ	-931
ໄຊ	-932
▁'	-933
ທັງຫມົດ	-934
up	-935
ພຽງ	-936
ight	-937
▁2017	-938
▁ຕັ້ງ	-939
▁ສົມ	-940
ark	-941
ຖື	-942
▁ບໍລິ	-943
ສອງ	-944
▁2019	-945
▁ສອງ	-946
▁ເຊັ່ນ	-947
ເອົາ	-948
ພິມ	-949
▁ມື້	-950
ລາວ	-951
▁ເສຍ	-952
▁ຄວນ	-953
▁ມະ	-954
▁ປົກ	-955
ຂ້າພະເຈົ້າ	-956
ຍານ	-957
▁ເນ	-958
▁ບັດ	-959
▁ແຂ	-960
ກໍ	-961
ຍາດ	-962
ib	-963
ie	-964
iz	-965
ard	-966
▁ໂທລະສັບ	-967
co	-968
ະນຸດ	-969
ສະຫນອງ	-970
ub	-971
ວິທີ	-972
▁ໃຫມ່	-973
▁ຈົ່ງ	-974
ເບິ່ງ	-975
▁ລິ	-976
ex	-977
ໃຫມ່	-978
ເຂດ	-979
▁ແກ່	-980
▁Pro	-981
▁ບັງ	-982
ະນໍາ	-983
▁ກ່ອນ	-984
ສໍາລັບການ	-985
▁An	-986
▁ຜະລິດຕະພັນ	-987
າມີ	-988
ທີ່ດີ	-989
ist	-990
ທຸລະກິດ	-991
▁ກ່ຽວກັບ	-992
ສັງ	-993
▁ບ້ານ	-994
ວັດ	-995
ບາງ	-996
▁n	-997
ak	-998
ly	-999
▁ໄລ	-1000
▁Q	-1001
▁ກົດ	-1002
ບໍລິສັດ	-1003
ຸ້ມ	-1004
ັງຈາກ	-1005
ໄດ້ຮັບການ	-1006
ໍາມະ	-1007
▁ສັດ	-1008
ລູກ	-1009
▁ຜ່ານ	-1010
ce	-1011
▁ສອນ	-1012
▁ສະຫ	-1013
ສົນ	-1014
▁ຍານ	-1015
30	-1016
ຫນີ	-1017
▁ຢາກ	-1018
og	-1019
ity	-1020
eng	-1021
▁:	-1022
▁ຊົ່ວ	-1023
ຂີ້	-1024
ຝຸ່ນ	-1025
ຸ້ນ	-1026
▁ນ້ອງ	-1027
▁ຕິ	-1028
ຂະຫນາດ	-1029
▁ແປ	-1030
ຄືນ	-1031
▁US	-1032
ປ່ຽນ	-1033
▁ເທື່ອ	-1034
້າວ	-1035
▁st	-1036
ແປງ	-1037
ີ້ນ	-1038
ress	-1039
ະລັງງານ	-1040
ຕີ	-1041
ສັນ	-1042
▁ປ່ຽນ	-1043
10	-1044
ໂທ	-1045
▁100	-1046
▁ເທົ່າ	-1047
ັບໄຊ	-1048
▁ລັງ	-1049
ລົດ	-1050
.5	-1051
ທົດ	-1052
ພາະ	-1053
ຫຍດ	-1054
▁16	-1055
ຄະ	-1056
ກວ່າ	-1057
ຂາຍ	-1058
lu	-1059
▁30	-1060
▁ພາບ	-1061
▁ເຫຼ	-1062
▁ດຽວ	-1063
▁ຮ່ວມ	-1064
pt	-1065
.2	-1066
ກາງ	-1067
ໄພ	-1068
▁18	-1069
▁ເລີ່ມ	-1070
ເລືອກ	-1071
ແລ້ວ	-1072
ບານ	-1073
ລະບົບ	-1074
ນັກ	-1075
ເກັບ	-1076
▁ກໍາລັງ	-1077
ືອບ	-1078
້ຽງ	-1079
ເກີດ	-1080
▁ອິດ	-1081
ບໍ່ມີ	-1082
▁ເຫດການ	-1083
▁v	-1084
ກ່າວ	-1085
▁ຕາຍ	-1086
ry	-1087
▁ຈົນ	-1088
ເນີນ	-1089
າຍຸ	-1090
ໄສ	-1091
ເມື	-1092
ໍາເນີນ	-1093
ຕັດ	-1094
ສະນະ	-1095
ສງ	-1096
ຄອນ	-1097
▁ຫວ	-1098
ພຣະ	-1099
▁ພະອົງ	-1100
td	-1101
ຊື່	-1102
▁ສູງ	-1103
oft	-1104
ກອງ	-1105
▁ຕັດ	-1106
▁ເລືອກ	-1107
ສິ່ງທີ່	-1108
ສຶກສາ	-1109
▁ຈັດ	-1110
▁ທີ່ຢູ່	-1111
▁ຕ່າງໆ	-1112
▁ສໍາຄັນ	-1113
ໄລຍະ	-1114
ຊາຊົນ	-1115
ຊາຍ	-1116
ຍິງ	-1117
ເມືອງ	-1118
▁ຂ່າວ	-1119
▁ສະແດງ	-1120
▁ແຜ່ນດິນ	-1121
່ຽງ	-1122
ເອງ	-1123
▁ຄືນ	-1124
XL	-1125
▁ນິ	-1126
▁ສົ່ງ	-1127
▁ປະເທດ	-1128
ort	-1129
ຄອງ	-1130
▁ນອກ	-1131
▁ເງິນ	-1132
se	-1133
ຂະສິດ	-1134
ູມ	-1135
ind	-1136
ັ້ມ	-1137
່ວງ	-1138
ປະເພດ	-1139
▁ເດັກ	-1140
▁ນັບ	-1141
attoo	-1142
▁ພຣະອົງ	-1143
86	-1144
av	-1145
ide	-1146
.”	-1147
ກຕ່າງ	-1148
▁24	-1149
ສິດທິ	-1150
▁ນາ	-1151
ກ້	-1152
ິບ	-1153
▁ສາຍ	-1154
ies	-1155
).	-1156
▁ບົດ	-1157
ant	-1158
ຖາມ	-1159
ເບ	-1160
ill	-1161
ປົກ	-1162
▁ປະກ	-1163
ພາຍ	-1164
▁ເສັ້ນ	-1165
▁ພາກ	-1166
ເຂົາເຈົ້າ	-1167
▁ຖະ	-1168
▁ຮ້າຍ	-1169
▁ໂຄ	-1170
ລ໌	-1171
ໂຫຍດ	-1172
▁ໃສ່	-1173
ປະຊຸມ	-1174
ຕົນ	-1175
ອຽດ	-1176
ບຄ	-1177
ຈຸບັນ	-1178
▁ຫ້ອງ	-1179
ແຮງ	-1180
▁25	-1181
ອກາດ	-1182
▁ເພີ່ມ	-1183
ື້ອຍ	-1184
ໂຍ	-1185
ໂນໂລ	-1186
▁ວິດ	-1187
▁ລົດ	-1188
ຖະກິດ	-1189
all	-1190
ຄາດ	-1191
ຍາກ	-1192
▁Ltd	-1193
zh	-1194
ສາຍ	-1195
▁ກອງ	-1196
ment	-1197
▁ຫນ້າທໍາອິດ	-1198
ື່ມ	-1199
▁13	-1200
ດັ່ງ	-1201
ອາຫານ	-1202
ນະພາບ	-1203
▁ຕົ້ນ	-1204
▁ບັນດາ	-1205
▁ຊ່ອຍ	-1206
ຫນັກ	-1207
ັກໂນໂລ	-1208
ົ່ານີ້	-1209
ຜ່ານມາ	-1210
▁ເຮືອນ	-1211
້ໄຂ	-1212
ຮ້ອງ	-1213
ອອກແບບ	-1214
າບ	-1215
ສະຖານ	-1216
ໂຄງການ	-1217
),	-1218
-2	-1219
ໂມ	-1220
ເສຍ	-1221
▁ເຄີຍ	-1222
ຜິດ	-1223
sh	-1224
rin	-1225
▁[	-1226
te	-1227
▁ບອກ	-1228
▁ຫາກ	-1229
▁ຫນຸ່ມ	-1230
ສອບ	-1231
ສູນ	-1232
ລະຫວ່າງ	-1233
ີບ	-1234
ອັນ	-1235
້ຽມ	-1236
▁ດັ່ງນັ້ນ	-1237
ເລີ່ມ	-1238
ພຽງແຕ່	-1239
ສໍາຄັນ	-1240
ອີ	-1241
ເລັດ	-1242
ສື	-1243
ຫົວ	-1244
ຫວຽດນາມ	-1245
ob	-1246
ເວົ້າ	-1247
ະນຸ	-1248
່ວາ	-1249
▁ເພື່ອນ	-1250
▁14	-1251
▁ຈໍານວນ	-1252
ອຸປະກອນ	-1253
80	-1254
11	-1255
▁ພ້ອມ	-1256
ມະ	-1257
ອັດ	-1258
ບຄຸມ	-1259
▁ກາຍ	-1260
ັບສະຫນ	-1261
age	-1262
▁ຕອບ	-1263
ຈໍານວນ	-1264
ນີ	-1265
▁#	-1266
▁and	-1267
▁50	-1268
ເຊັ່ນ	-1269
ຈ້ງ	-1270
ຊິກ	-1271
ຫຍັງ	-1272
▁17	-1273
▁ຈຸດ	-1274
ໂຕ	-1275
ຫຼາດ	-1276
are	-1277
▁ດົນ	-1278
ທະຍາໄລ	-1279
ລີ	-1280
ລະດັບ	-1281
lect	-1282
60	-1283
ສຽງ	-1284
ລະອຽດ	-1285
ຣີ	-1286
ຫຍາຍ	-1287
act	-1288
ສຸກ	-1289
ແຫ່ງ	-1290
ບົດ	-1291
ເຊື່ອມ	-1292
▁ອຸປະກອນ	-1293
▁r	-1294
ັບສະຫນູນ	-1295
ຕອບ	-1296
ອກະ	-1297
▁ຍິນ	-1298
ຕ່າງໆ	-1299
▁ຊອບ	-1300
▁ສຶກ	-1301
▁ພະຍາຍາມ	-1302
ຫນາ	-1303
▁ສັງ	-1304
▁Re	-1305
▁ລະບ	-1306
▁ທັນ	-1307
ຢືນ	-1308
ລອງ	-1309
ແນວ	-1310
▁ອີເມ	-1311
ອົບ	-1312
ັບປ	-1313
▁ຍາ	-1314
▁ຄ່າ	-1315
ກໍາລັງ	-1316
▁ຍົກ	-1317
▁ຟັງ	-1318
▁ສົນ	-1319
ai	-1320
▁ຫນາ	-1321
ach	-1322
99	-1323
bo	-1324
▁ແຮງ	-1325
iv	-1326
ພົບ	-1327
ຫ້ອງ	-1328
ິວ	-1329
ell	-1330
ກັດ	-1331
ລົງທຶນ	-1332
ຕະລ	-1333
່າມ	-1334
ຫມາະ	-1335
ນ໌ໂຫລດ	-1336
▁ລັດ	-1337
ທີ່ທ່ານ	-1338
ໂອ	-1339
ສະດ	-1340
ລັດຖະ	-1341
ຈີນ	-1342
▁No	-1343
▁ພົບ	-1344
ຮັກສາ	-1345
▁2016	-1346
ຂື້ນ	-1347
▁ສາດສະຫນາ	-1348
per	-1349
▁ພາຍ	-1350
ແມ່	-1351
="	-1352
ກະຕິ	-1353
ເສດຖະກິດ	-1354
ຫາກ	-1355
12	-1356
ish	-1357
ບັບ	-1358
▁En	-1359
▁ກໍ່	-1360
▁ສາມ	-1361
ແຕກຕ່າງ	-1362
ລວມ	-1363
ສາມ	-1364
uro	-1365
ຸນາ	-1366
ກ່ຽວ	-1367
ive	-1368
ຄວ້າ	-1369
ord	-1370
ບ່ງ	-1371
ຶງ	-1372
▁ເລີຍ	-1373
40	-1374
ຢາ	-1375
ເຮົ	-1376
ໍ້າ	-1377
▁ສິດ	-1378
▁ສິນ	-1379
▁ໄມ້	-1380
ສົງ	-1381
ມາຊິກ	-1382
▁ດາວນ໌ໂຫລດ	-1383
ຈຸດ	-1384
▁ກິດ	-1385
▁ທົ່ວ	-1386
▁£	-1387
ຖ້າ	-1388
▁ແຕ່ງ	-1389
ປະສົບ	-1390
ສິ	-1391
▁Al	-1392
▁Cas	-1393
ວກັນ	-1394
ດໍາເນີນ	-1395
ເຫດ	-1396
▁ເປີດ	-1397
ຖົງ	-1398
ອີກ	-1399
45	-1400
ຽວກັນ	-1401
ຄຸນນະພາບ	-1402
ສາກ	-1403
ອຸດສາຫະກໍາ	-1404
ເມື່ອ	-1405
▁ສະພາບ	-1406
ຈ່າຍ	-1407
▁ມະນຸດ	-1408
pl	-1409
▁ແລ	-1410
່ນອນ	-1411
ແຫນ	-1412
ແກ້ໄຂ	-1413
ເປີດ	-1414
ຄວບຄຸມ	-1415
▁ອາທິດ	-1416
ຮງງານຜະລິດ	-1417
old	-1418
ກ່ອນ	-1419
oh	-1420
ວາ	-1421
▁ນີ	-1422
1,	-1423
ກ່ວາ	-1424
ບູນ	-1425
▁ສະຫນ	-1426
ຄົ້ນຄວ້າ	-1427
ປະຊາຊົນ	-1428
ທ໌	-1429
ສະຫ	-1430
ຄວນ	-1431
ສະຫມ	-1432
ເວັນ	-1433
ຕອງ	-1434
▁ສຽງ	-1435
▁ຫລັງ	-1436
▁ໂຕ	-1437
▁ສຸກ	-1438
ທີ່ບໍ່	-1439
ເວັບໄຊ	-1440
ino	-1441
ດັນ	-1442
▁ມັກ	-1443
▁ລະຫັດ	-1444
ກວ	-1445
ໄຟຟ້າ	-1446
້ອງກັນ	-1447
▁ຄັ້ງ	-1448
ເຄື່ອນ	-1449
ook	-1450
▁Pl	-1451
ົ່ານັ້ນ	-1452
ບ່ອນ	-1453
ໄດ້ຖືກ	-1454
her	-1455
ວິທີການ	-1456
ປົວ	-1457
ຕູ	-1458
ລັກ	-1459
▁ລາຄາ	-1460
ass	-1461
ລູກຄ້າ	-1462
▁ປະຕິບັດ	-1463
ເຂົ້າຮ່ວມ	-1464
ey	-1465
oun	-1466
35	-1467
oc	-1468
ນາງ	-1469
່າງກາຍ	-1470
▁ອີເມລ໌	-1471
ຮູ້ສຶກ	-1472
▁ຖື	-1473
ທະຍາສາດ	-1474
ຄັ້ງ	-1475
SO	-1476
let	-1477
ຸ່ງ	-1478
ໃຕ້	-1479
▁ຄູ່	-1480
▁ເບ	-1481
▁ອື່ນໆ	-1482
▁ເຫລົ່າ	-1483
ຸກຄົນ	-1484
▁re	-1485
▁USD	-1486
▁ຍິງ	-1487
▁ລໍາ	-1488
ເຜ	-1489
ຂີ້ຝຸ່ນ	-1490
ash	-1491
▁ຊອກ	-1492
ໍານາດ	-1493
ການຄ້າ	-1494
ຂະຫຍາຍ	-1495
ແທນ	-1496
▁ຫມູ່	-1497
▁ສະນັ້ນ	-1498
▁k	-1499
ທຶກ	-1500
15	-1501
ew	-1502
ຫມີ	-1503
ຮ້ອນ	-1504
ພະລັງງານ	-1505
▁ຖານ	-1506
▁Prin	-1507
▁ເຕັມ	-1508
▁ຍອມ	-1509
ິ່ນປົວ	-1510
▁ຂຽນ	-1511
▁ໂຮງ	-1512
ction	-1513
ເວລາທີ່	-1514
ug	-1515
ບິນ	-1516
ອດໄພ	-1517
▁Col	-1518
▁22	-1519
ລາຄາ	-1520
ະນຸຍາດ	-1521
ຈັດຕັ້ງ	-1522
ເລກ	-1523
ໄມ້	-1524
ຂ່າວ	-1525
▁ລວມ	-1526
▁ສານ	-1527
ພື້ນຖານ	-1528
▁e	-1529
ແພ	-1530
▁ຕົກ	-1531
▁ອະທິ	-1532
▁ເກມ	-1533
ັບປຸງ	-1534
ຊອບ	-1535
ran	-1536
ສູ່	-1537
▁ປະສົບ	-1538
▁ຜູ້ຄົນ	-1539
ຂ້ອງ	-1540
ກະທົບ	-1541
ສອນ	-1542
້ຍ	-1543
ail	-1544
ແທ້	-1545
▁ຕົວຢ່າງ	-1546
ile	-1547
ະນາຄ	-1548
ອາດຈະ	-1549
ເລື່ອງ	-1550
ເດັກ	-1551
▁Mark	-1552
ຸ້ງ	-1553
ຊອກ	-1554
ໄວ້	-1555
▁ປະກາດ	-1556
ວະ	-1557
▁©	-1558
ົ່ມ	-1559
▁ໂສ	-1560
ສົ່ງອອກ	-1561
ຊື້	-1562
ເຫລ	-1563
ik	-1564
▁40	-1565
▁ວັດ	-1566
-5	-1567
ສາຫະກິດ	-1568
▁ກຸ່ມ	-1569
yl	-1570
▁ໂລ	-1571
,000	-1572
ອນໄລ	-1573
ເດືອນ	-1574
▁ລະບົບ	-1575
ການຜະລິດ	-1576
IN	-1577
▁j	-1578
ite	-1579
ກອນ	-1580
ທັບ	-1581
ງ່າຍ	-1582
▁ລ້ານ	-1583
▁ລິຂະສິດ	-1584
ຊີບ	-1585
ມົນ	-1586
ແຂງ	-1587
▁Sp	-1588
▁ເຈັບ	-1589
▁ເຫລືອ	-1590
▁ບໍລິສັດ	-1591
ອະ	-1592
dro	-1593
ກວດ	-1594
ພູມ	-1595
ຕະຫຼາດ	-1596
ເຮົາມີ	-1597
ud	-1598
ເງ	-1599
ະລັດ	-1600
ັກງານ	-1601
▁ຫວັງ	-1602
ei	-1603
ina	-1604
ost	-1605
▁ໂມ	-1606
▁Ser	-1607
▁ສະເ	-1608
▁ງ່າຍ	-1609
ບໍ່ໄດ້	-1610
ຮ່	-1611
25	-1612
ນິ	-1613
ເມລິ	-1614
▁ພື້ນ	-1615
19	-1616
▁»	-1617
ີນທາງ	-1618
▁ຍາກ	-1619
ຕະຖານ	-1620
ສາກົນ	-1621
▁ຕັດສິນ	-1622
ສະເຫນີ	-1623
ສະພາ	-1624
ແນະນໍາ	-1625
ຝຶກ	-1626
▁ຜ້າ	-1627
ເຕັກໂນໂລ	-1628
ເຫຼົ່ານີ້	-1629
▁Ar	-1630
▁Un	-1631
end	-1632
▁of	-1633
າງວັນ	-1634
ທັນ	-1635
▁Man	-1636
.3	-1637
▁y	-1638
ຢັນ	-1639
ພາຍໃນ	-1640
▁ຍິ່ງ	-1641
ປະໂຫຍດ	-1642
ff	-1643
ຄະເນ	-1644
▁ແດງ	-1645
ໂດ	-1646
່າມັນ	-1647
ິລາ	-1648
▁Fl	-1649
▁by	-1650
ເຕີມ	-1651
▁ອ່ານ	-1652
▁Dust	-1653
ອນໄລນ໌	-1654
▁ຫນັງ	-1655
ໂຍບາຍ	-1656
▁ລ້ຽງ	-1657
cm	-1658
ປັດ	-1659
▁ປະຊຸມ	-1660
▁ສະຖານ	-1661
ກ່ຽວຂ້ອງ	-1662
▁ປາ	-1663
▁ສົງ	-1664
ແຕກຕ່າງກັນ	-1665
ທີ່ເປັນ	-1666
ps	-1667
ແລ	-1668
....	-1669
▁ຍີ່	-1670
▁ແຜນ	-1671
ມີການ	-1672
ເສັ້ນ	-1673
▁Euro	-1674
ດຽວກັນ	-1675
ມື້ນ	-1676
ຫວັດ	-1677
▁Hack	-1678
ລຸ	-1679
ຊານ	-1680
ເຫຼືອ	-1681
▁ຢ້ານ	-1682
▁ແລະອື່ນໆ	-1683
ຕົວຢ່າງ	-1684
75	-1685
16	-1686
ລົມ	-1687
▁ສັນຍາ	-1688
▁ອັດ	-1689
▁Con	-1690
ສະພາບ	-1691
able	-1692
▁ຂະນະ	-1693
ແຕ່ງ	-1694
ປະກັນ	-1695
ຈາລະ	-1696
▁ສູນ	-1697
ັ່ນຕອງ	-1698
ສິດທິພາບ	-1699
ne	-1700
ick	-1701
ວັນທີ	-1702
▁ອຸ	-1703
ປອດໄພ	-1704
ກ່ຽວກັບການ	-1705
▁Te	-1706
▁ໄພ	-1707
▁ບັນຫາ	-1708
ows	-1709
ຍົກ	-1710
▁ພອນ	-1711
▁ຫລວງ	-1712
▁Cl	-1713
ator	-1714
▁ຍ້ອນ	-1715
▁ພວກເຂົາ	-1716
ະນິດ	-1717
▁ຖາມ	-1718
▁ແທນ	-1719
attoos	-1720
ແລະຄວາມ	-1721
ຮມ	-1722
ຕົກ	-1723
▁ທິ	-1724
▁ແຍ	-1725
ຄະນະ	-1726
ັ້ງຢືນ	-1727
ເມລິກາ	-1728
13	-1729
ແກ່	-1730
▁ຫນັກ	-1731
ທົ່ວໄປ	-1732
ຫນົນ	-1733
ຄາດຄະເນ	-1734
▁ຄັນ	-1735
ຕ້ານ	-1736
▁ເສົ້າ	-1737
▁ຕ້ອງການ	-1738
▁ພີ	-1739
ຮົມ	-1740
ໍານົດ	-1741
ຂໍ	-1742
ດານ	-1743
ເກດ	-1744
▁Com	-1745
▁Europe	-1746
▁ຂຶ້ນຄື	-1747
iang	-1748
ສະເພາະ	-1749
▁i	-1750
ຄູ່	-1751
ເສີມ	-1752
▁ຊຸດ	-1753
ຮ່ວມມື	-1754
າວິ	-1755
່ອງທ	-1756
ໂອກາດ	-1757
ph	-1758
ໂປ	-1759
▁<	-1760
▁ຈິດ	-1761
ແສງ	-1762
▁60	-1763
ຮູບແບບ	-1764
ກອງປະຊຸມ	-1765
▁ນີ້ແມ່ນ	-1766
ທີ່ມີຄວາມ	-1767
ຢາກ	-1768
ກັ່ນຕອງ	-1769
▁ຂອບ	-1770
ໄຫວ	-1771
ຂ້າງ	-1772
.6	-1773
ure	-1774
ຢາມ	-1775
ets	-1776
ທົນ	-1777
ຮອງ	-1778
ss	-1779
ືດ	-1780
our	-1781
▁Ph	-1782
ຫນືອ	-1783
ສັງຄົມ	-1784
▁ISO	-1785
ຕໍ່ໄປ	-1786
້ຽມຢາມ	-1787
ram	-1788
ໃຊ້ເວລາ	-1789
່ໍາ	-1790
▁sp	-1791
ພາສາ	-1792
ບັນຫາ	-1793
▁Wind	-1794
ຕິດຕໍ່	-1795
ທົດລອງ	-1796
ວ່າທ່ານ	-1797
ີໂອ	-1798
▁ໃບ	-1799
▁ຖົງ	-1800
ປະມານ	-1801
▁2020	-1802
ພະນ	-1803
▁ກິນ	-1804
▁ວາງ	-1805
-0	-1806
▁•	-1807
ອື່ນ	-1808
▁00	-1809
ER	-1810
ມາດ	-1811
▁2015	-1812
ert	-1813
ົ້ມ	-1814
ao	-1815
ູ້ນ	-1816
ຫລອດ	-1817
▁ໃກ້	-1818
▁ຮ້ອງ	-1819
ທີ່ດີທີ່ສຸດ	-1820
ກໍານົດ	-1821
ັດທະນະ	-1822
▁Ex	-1823
ໍາມະຊາດ	-1824
ັງຈາກນັ້ນ	-1825
ສໍາເລັດ	-1826
▁ທີ່ຜ່ານມາ	-1827
ov	-1828
ພັກ	-1829
▁The	-1830
▁ລົມ	-1831
▁ເຂດ	-1832
ຈາລະນາ	-1833
ຢັ້ງຢືນ	-1834
ww	-1835
▁ເພາະວ່າ	-1836
ens	-1837
ຂອບ	-1838
▁Printer	-1839
▁a	-1840
່ອງທ່ຽວ	-1841
▁ອໍານາດ	-1842
▁ຮູບພາບ	-1843
ຂຽນ	-1844
ຍາວ	-1845
້ອງຖ	-1846
▁ຫນ້ອຍ	-1847
ອົບຮົມ	-1848
ຮູບພາບ	-1849
ໃຫ້ເຫັນ	-1850
▁ວິທີການ	-1851
ເລີ່ມຕົ້ນ	-1852
ຈັນ	-1853
ໂຮງ	-1854
ຫລາດ	-1855
▁ສິງ	-1856
ຂົນ	-1857
▁''	-1858
▁ມູນ	-1859
ກວ້າງ	-1860
ge	-1861
ld	-1862
ຂາວ	-1863
▁ສູ່	-1864
ມື້ນີ້	-1865
▁ຕໍ່ໄປ	-1866
pp	-1867
ຊວງ	-1868
ປາ	-1869
▁Ste	-1870
▁ສາວ	-1871
▁ແທ້ໆ	-1872
▁ຫມັ້ນ	-1873
ສະຖານທີ່	-1874
▁to	-1875
olog	-1876
▁ດາວໂຫລດ	-1877
▁ອຸດສາຫະກໍາ	-1878
ree	-1879
ຜ່ອນ	-1880
▁ເທິງ	-1881
ຄວາມຄິດ	-1882
-8	-1883
ting	-1884
▁ລັກ	-1885
▁ອາຍຸ	-1886
ການປ່ຽນ	-1887
ປະສົບການ	-1888
ໃບ	-1889
ານາ	-1890
▁23	-1891
ເຫຼັກ	-1892
▁ຝ່າຍ	-1893
▁ເຊີນ	-1894
ວ່າມັນ	-1895
ຝຶກອົບຮົມ	-1896
70	-1897
ED	-1898
lector	-1899
ial	-1900
ແຜນ	-1901
▁86	-1902
▁ອ້າຍ	-1903
▁ໄລຍະ	-1904
ຫໍ້	-1905
▁ແຂງ	-1906
ພິເສດ	-1907
ແຍ	-1908
▁ຄາດ	-1909
ພະຍາຍາມ	-1910
ກົງ	-1911
ຊາວ	-1912
ຕໍ	-1913
ເຟ	-1914
ຫຸ້ມ	-1915
▁Se	-1916
ຂັ້ນ	-1917
ລ້ອມ	-1918
▁ອາຫານ	-1919
▁°	-1920
▁21	-1921
ສະຫນັບສະຫນູນ	-1922
Ch	-1923
ax	-1924
ສັກ	-1925
▁ຢືນ	-1926
-3	-1927
ix	-1928
ງາມ	-1929
▁ຊາດ	-1930
ໂນມັດ	-1931
ox	-1932
uang	-1933
ເພີ່ມເຕີມ	-1934
ock	-1935
▁ຢາ	-1936
▁Min	-1937
90	-1938
▁ຮັກສາ	-1939
ດັ່ງກ່າວ	-1940
▁ອິນ	-1941
▁ປ້ອງ	-1942
ເຄື່ອນໄຫວ	-1943
▁De	-1944
▁ຂ້າງ	-1945
ຂອງຕົນ	-1946
▁ສະມາຊິກ	-1947
ຂອງພວກເຂົາ	-1948
ໄຫມ	-1949
▁ບາບ	-1950
▁Vess	-1951
ສະຫມັກ	-1952
ປົກກະຕິ	-1953
▁ຖະຫນົນ	-1954
▁ໄດ້ຮັບ	-1955
▁Vessoft	-1956
ວິທະຍາສາດ	-1957
ໍລະ	-1958
lock	-1959
ມືຖື	-1960
▁ດິນ	-1961
▁x	-1962
ອະນຸຍາດ	-1963
.4	-1964
▁ງາມ	-1965
▁ຂັ້ນ	-1966
ru	-1967
ງົບ	-1968
▁ພາສາ	-1969
▁ເສດ	-1970
ສົມບູນ	-1971
▁~	-1972
ເຄາະ	-1973
ຕະໂນມັດ	-1974
▁ເນື່ອງ	-1975
ຸຂະ	-1976
▁ແຫນ	-1977
ເຊື່ອມຕໍ່	-1978
de	-1979
ໂລຫະ	-1980
▁ກາງ	-1981
▁ອົດ	-1982
▁ເພດ	-1983
ກໍ່ສ້າງ	-1984
ore	-1985
ແວດ	-1986
▁ດູ	-1987
▁ເຍ	-1988
▁Sup	-1989
▁the	-1990
ຫະພູມ	-1991
ເວັບໄຊທ໌	-1992
ower	-1993
ທ້າຍ	-1994
▁ຢ່າ	-1995
▁ຄະນະ	-1996
uf	-1997
ບວນ	-1998
▁qu	-1999
ຫນັງ	-2000
ທ່ອງທ່ຽວ	-2001
24	-2002
ຫາຍ	-2003
▁ແປງ	-2004
່ຽວຊານ	-2005
ແວດລ້ອມ	-2006
ຜົນກະທົບ	-2007
▁ໂຮງງານຜະລິດ	-2008
ຄືກ	-2009
ພາດ	-2010
ical	-2011
ແຜ່ນ	-2012
ປະທານ	-2013
ຸນຫະພູມ	-2014
▁ຮູ້ຈັກ	-2015
ັດທະນະທໍາ	-2016
▁ນ້ໍາຫນັກ	-2017
900	-2018
rad	-2019
▁ch	-2020
ສັນຍາ	-2021
▁(1	-2022
ອົງການ	-2023
▁ເຫຼົ່າ	-2024
▁Windows	-2025
AN	-2026
200	-2027
iss	-2028
ະລຸນາ	-2029
ຂອງຂ້ອຍ	-2030
ພິວ	-2031
ທີ່ຖືກ	-2032
▁ທ່ານສາມາດ	-2033
ເທິງ	-2034
▁ໂສກ	-2035
ຊອກຫາ	-2036
ຫມັ້ນ	-2037
ຂັນ	-2038
ແຈ້ງ	-2039
▁ແສງ	-2040
ໍາລາຍ	-2041
ື່ອນໄຂ	-2042
ທົ່ວໂລກ	-2043
▁Collector	-2044
▁ຕີ	-2045
▁ຄົ້ນ	-2046
ໄກ	-2047
icro	-2048
ເອກະ	-2049
ວ່າຈະ	-2050
ber	-2051
▁de	-2052
ກັບການ	-2053
▁ແນ່ນອນ	-2054
ທີ່ກ່ຽວຂ້ອງ	-2055
▁ຊົມ	-2056
ເຮືອນ	-2057
▁2014	-2058
ຜິດຊອບ	-2059
▁ປະທານ	-2060
▁ຂໍ້ມູນ	-2061
▁ແນະນໍາ	-2062
ຫມາະສົມ	-2063
ຄວາມເປັນ	-2064
▁ຄວາມຄິດ	-2065
້ວນ	-2066
▁ປວດ	-2067
▁ການປ	-2068
du	-2069
ice	-2070
ire	-2071
▁ອ່ອນ	-2072
▁ເອື້ອຍ	-2073
ທີ່ແຕກຕ່າງກັນ	-2074
23	-2075
ດູ	-2076
ືອດ	-2077
▁ຄາ	-2078
aser	-2079
ໃນປີ	-2080
▁Bon	-2081
ສົນໃຈ	-2082
ຈາກການ	-2083
ທາງການ	-2084
ບຸກຄົນ	-2085
ໃຊ້ຈ່າຍ	-2086
ats	-2087
▁Casino	-2088
ນິກ	-2089
▁35	-2090
ທາງດ້ານ	-2091
UR	-2092
ມັກ	-2093
▁ໄສ	-2094
▁ເອີ້ນ	-2095
ປັດຈຸບັນ	-2096
88	-2097
zhou	-2098
ເລັກ	-2099
▁Wor	-2100
ອມພິວ	-2101
ທີ່ຢູ່	-2102
▁ສະຫວັນ	-2103
ການປ່ຽນແປງ	-2104
▁ພໍ	-2105
ອາຍຸ	-2106
droid	-2107
້ອນຮັບ	-2108
ທໍ່	-2109
▁Le	-2110
ມະນຸດ	-2111
ົວພັນ	-2112
້ານີ້	-2113
ຸຂະພາບ	-2114
ນ້	-2115
ບໍ	-2116
▁ດ້ານ	-2117
ຕາເວັນ	-2118
tt	-2119
▁Ad	-2120
ເຂັ້ມ	-2121
▁ຊັ້ນ	-2122
▁ປ່ອຍ	-2123
ທີ່ພວກເຮົາ	-2124
ີດໍາ	-2125
▁ພີ່	-2126
▁ສໍາລັບການ	-2127
.9	-2128
ພໍ	-2129
AC	-2130
oly	-2131
ອິນ	-2132
▁Mc	-2133
▁Koh	-2134
ຫນຸ່ມ	-2135
ແນວໃດ	-2136
uan	-2137
own	-2138
ສະດຸ	-2139
ບັນຊີ	-2140
່ງຂັນ	-2141
ເຊຍ	-2142
▁ຫມາກ	-2143
▁ເຜ	-2144
▁ແພ	-2145
▁ທົດ	-2146
▁ຫຍ	-2147
ood	-2148
▁ຕິດຕໍ່	-2149
ຢາງ	-2150
2018	-2151
ຫຼຸດ	-2152
▁Rong	-2153
ຂະນະ	-2154
▁Val	-2155
ຸ້ມຄອງ	-2156
ໃນໄລຍະ	-2157
ເດີນທາງ	-2158
ແວ	-2159
▁ເຂົາເຈົ້າ	-2160
.00	-2161
ບາດ	-2162
ພົວພັນ	-2163
▁ພະລັງງານ	-2164
▁ລາຍລະອຽດ	-2165
ok	-2166
ຫ້ງ	-2167
▁500	-2168
▁Blu	-2169
▁ສິບ	-2170
▁ນໍ້າ	-2171
ໂທລະສັບ	-2172
▁Android	-2173
28	-2174
kg	-2175
▁ro	-2176
▁ໂອ	-2177
▁Dist	-2178
ຮູ້ວ່າ	-2179
ຊ່ຽວຊານ	-2180
ຊະ	-2181
ich	-2182
ຄົງ	-2183
▁ຄູ	-2184
▁Fil	-2185
▁ສັ່ງ	-2186
ເຂົ້າໃຈ	-2187
ດ່	-2188
ary	-2189
ຫຼັກ	-2190
night	-2191
ufact	-2192
ໂມງ	-2193
line	-2194
ືມ	-2195
ຊັບ	-2196
ກຸ່ມ	-2197
ລະນີ	-2198
▁ຊື້	-2199
▁ກະລຸນາ	-2200
ON	-2201
min	-2202
ອ່ານ	-2203
ປະສົງ	-2204
ສ້າງຕັ້ງ	-2205
ທຽບ	-2206
rict	-2207
ທະນາ	-2208
▁ພັກ	-2209
ອາຊີບ	-2210
▁ແບ່ງ	-2211
ານາຈັກ	-2212
ufactur	-2213
chn	-2214
ເລດ	-2215
ເຄີຍ	-2216
▁ຄອບ	-2217
ຂົນສົ່ງ	-2218
ຜ້າ	-2219
ຂ່າຍ	-2220
▁ນອນ	-2221
ຊຽນ	-2222
ater	-2223
▁ຕະຫລອດ	-2224
▁ວິທະຍາໄລ	-2225
ue	-2226
gle	-2227
ອາຍ	-2228
ຕ່ໍາ	-2229
▁Sol	-2230
▁ຊົນ	-2231
▁ພຶດ	-2232
▁ເຫດຜົນ	-2233
▁ມັນເປັນ	-2234
ປະສິດທິພາບ	-2235
ont	-2236
ized	-2237
▁ນາຍ	-2238
ology	-2239
▁ໃນການ	-2240
ຈໍາເປັນ	-2241
AS	-2242
EC	-2243
ຈິດ	-2244
ອອນໄລນ໌	-2245
ລັດຖະມົນ	-2246
iber	-2247
ຮ້າຍ	-2248
ສິນຄ້າ	-2249
▁ເຂັ້ມ	-2250
ດອນ	-2251
▁ແອ	-2252
▁ພະຍານ	-2253
້ອງຖິ່ນ	-2254
ເຫມາະສົມ	-2255
17	-2256
▁Bl	-2257
ໄປໃນ	-2258
▁ປະຈໍາ	-2259
▁ຜູ້ຜະລິດ	-2260
▁ໃຜ	-2261
▁for	-2262
▁ມອບ	-2263
ແຕ່ລະ	-2264
ແທ້ຈິງ	-2265
ace	-2266
▁Tag	-2267
▁ກະຕ	-2268
▁ຂັດ	-2269
ufacturer	-2270
▁ເດັກນ້ອຍ	-2271
ah	-2272
ບ້ານ	-2273
ເຕັມ	-2274
▁ກະສັດ	-2275
.8	-2276
ບອກ	-2277
ມື້	-2278
▁ເດີນ	-2279
▁ລະຫວ່າງ	-2280
ຫໍ່	-2281
ບັນລຸ	-2282
ເພື່ອໃຫ້	-2283
ium	-2284
▁ດາ	-2285
ated	-2286
▁ບໍ່ມີ	-2287
mer	-2288
ຂວາງ	-2289
▁ຫນູນ	-2290
▁ເກີນ	-2291
ຫນ້ານີ້	-2292
ແມ່ນການ	-2293
ຊຸດ	-2294
ວິຊາ	-2295
ຕະລາງ	-2296
ປະຈໍາ	-2297
▁ແຈ້ງ	-2298
▁Car	-2299
▁ໂຍ	-2300
▁(201	-2301
▁ສະບັບ	-2302
▁ຫລັກ	-2303
▁ຫນ່ວຍ	-2304
14	-2305
18	-2306
▁28	-2307
▁ທົນ	-2308
ັງກອນ	-2309
ຄຸ້ມຄອງ	-2310
▁ຮ່າງກາຍ	-2311
">	-2312
▁For	-2313
▁ສັກ	-2314
▁City	-2315
▁Ning	-2316
ລັກສະນະ	-2317
ບໍ່ສາມາດ	-2318
▁ຊາ	-2319
▁ມິ	-2320
coin	-2321
ຫວັງ	-2322
▁ເທດ	-2323
▁ຄົງ	-2324
▁start	-2325
-6	-2326
33	-2327
▁×	-2328
ube	-2329
▁26	-2330
▁ກາ	-2331
ພ້ອມ	-2332
ສັ່ງ	-2333
ຄອບຄົວ	-2334
▁Che	-2335
▁Bonus	-2336
▁ເຮັດໃຫ້	-2337
ເກມ	-2338
ສະຫຼ	-2339
▁ແຕກ	-2340
.7	-2341
ໃສ	-2342
▁ເກັບ	-2343
ຫວັດສາດ	-2344
ຕ່າງປະເທດ	-2345
▁District	-2346
rom	-2347
າທີ	-2348
▁McK	-2349
▁dur	-2350
ົງເຂດ	-2351
▁Manufacturer	-2352
ຈິ	-2353
▁ຕຸ	-2354
ເຊິ່ງ	-2355
ux	-2356
ຊົມ	-2357
ສະຖ	-2358
ຫຼອດ	-2359
ester	-2360
ຫນ້ອຍ	-2361
ສົມບັດ	-2362
▁ຈໍາເປັນ	-2363
▁ຄວາມຄິດເຫັນ	-2364
ດາຍ	-2365
ສະນາ	-2366
▁ຄົວ	-2367
ຊີ້	-2368
ພົນ	-2369
▁Gr	-2370
ຈໍາກັດ	-2371
ລກປ່ຽນ	-2372
ome	-2373
ິ້ມ	-2374
▁ໂບ	-2375
▁Steel	-2376
▁ຫຼິ້ນ	-2377
ປ່ຽນແປງ	-2378
▁McKnight	-2379
ແຫຼ	-2380
▁Ro	-2381
ຊັ້ນ	-2382
ສ່ຽງ	-2383
ນີ້ແມ່ນ	-2384
ປ້ອງກັນ	-2385
ຂອງເຂົາເຈົ້າ	-2386
rypt	-2387
▁ຈື່	-2388
ຕະລາຍ	-2389
▁ຍ່າງ	-2390
▁ເຊື້ອ	-2391
ບໍ່ແມ່ນ	-2392
rus	-2393
ດຽວ	-2394
ວິນ	-2395
່ອມ	-2396
press	-2397
▁2013	-2398
▁ໂອກາດ	-2399
ແຂ່ງຂັນ	-2400
ຂະຫນາດໃຫຍ່	-2401
arn	-2402
ລັນ	-2403
▁ຈັບ	-2404
ສະບັບ	-2405
▁ທ້າຍ	-2406
▁ເອກະ	-2407
ບວນການ	-2408
ຮຽນຮູ້	-2409
af	-2410
ank	-2411
ລະປະ	-2412
ເຕີບ	-2413
▁Equ	-2414
▁ແດ່	-2415
▁ເວັບໄຊ	-2416
az	-2417
lot	-2418
ວຽນ	-2419
ເວລ	-2420
ັງກິດ	-2421
ເພື່ອນ	-2422
▁ຖ້າຫາກ	-2423
io	-2424
ບຽນ	-2425
▁Be	-2426
ທາລະ	-2427
▁ກົງ	-2428
ບັນທຶກ	-2429
ຜູ້ຜະລິດ	-2430
ອາເມລິກາ	-2431
ວີ	-2432
der	-2433
ນາຍ	-2434
ຣົບ	-2435
ບຕໍ່	-2436
ື້ອງ	-2437
ກໍາມະ	-2438
ການສຶກສາ	-2439
▁al	-2440
▁sh	-2441
▁th	-2442
ນເລດ	-2443
ອີເມ	-2444
▁Ningbo	-2445
▁ພັດທະນາ	-2446
ສູດ	-2447
▁un	-2448
▁ຄວ	-2449
ປະຕິ	-2450
▁300	-2451
▁ຕຽມ	-2452
ເທື່ອ	-2453
ຕ້ອນຮັບ	-2454
ຂາ	-2455
ຣິດ	-2456
ໃກ້	-2457
▁You	-2458
ກາຍເປັນ	-2459
▁ໂຄງການ	-2460
ຄວາມສາມາດ	-2461
ຂາດ	-2462
ຫລື	-2463
▁Mach	-2464
ທຸກຄົນ	-2465
ແມ່ນວ່າ	-2466
▁ຄໍາຖາມ	-2467
▁ທໍາລາຍ	-2468
22	-2469
RE	-2470
ign	-2471
▁ໄຂ	-2472
▁ທິດ	-2473
▁ລະດັບ	-2474
▁ພິຈາລະນາ	-2475
ພຶດ	-2476
▁ເງ	-2477
ູ້ນໍາ	-2478
ະນາຄົດ	-2479
ຮັບປະກັນ	-2480
▁ໍາ	-2481
ebei	-2482
ລ້ຽງ	-2483
oogle	-2484
▁ເລັດ	-2485
ກົດດັນ	-2486
ທົດສອບ	-2487
ສູງສຸດ	-2488
▁ພວກເຮົາມີ	-2489
ເມີ	-2490
ຈະກໍາ	-2491
▁ຄວາມສຸກ	-2492
ມິດ	-2493
▁ໄກ	-2494
ສິໂນ	-2495
▁Sam	-2496
ຕັດສິນ	-2497
▁ຍີ່ຫໍ້	-2498
ual	-2499
ວົງ	-2500
▁70	-2501
ແບ່ງ	-2502
▁ລໍ້	-2503
ເຊື້ອ	-2504
▁hack	-2505
▁ຫຼັງ	-2506
ຂົງເຂດ	-2507
▁ສີດໍາ	-2508
▁ດໍາ	-2509
▁ນວນ	-2510
ຸ້ງຍາກ	-2511
ຫຸ້ມຫໍ່	-2512
ons	-2513
ສິກ	-2514
ການພັດທະນາ	-2515
cl	-2516
ທັດ	-2517
ນະຄອນ	-2518
ໃຫ້ທ່ານ	-2519
:/	-2520
ລະຫັດ	-2521
ຕິດຕັ້ງ	-2522
ພື້ນທີ່	-2523
ລິຂະສິດ	-2524
▁ທັງຫມົດ	-2525
enc	-2526
load	-2527
ຂີ້ເ	-2528
▁Top	-2529
▁ກະທໍາ	-2530
ວິສາຫະກິດ	-2531
ຄວາມຕ້ອງການ	-2532
ລັງ	-2533
ຕົ້ນຕໍ	-2534
ລັດຖະບານ	-2535
ຊ່ວຍເຫຼືອ	-2536
ດິດ	-2537
ອີງ	-2538
ຶ້ມ	-2539
ຫຼວງ	-2540
▁Micro	-2541
▁Filter	-2542
ເຂັ້ມແຂງ	-2543
man	-2544
ຍູ້	-2545
▁ຊີ້	-2546
▁ຟຣີ	-2547
ໍາລົງ	-2548
ໃຫ້ແກ່	-2549
ee	-2550
://	-2551
ຈິກ	-2552
ring	-2553
ກິລາ	-2554
ະການ	-2555
▁ທໍ່	-2556
▁East	-2557
ນະໂຍບາຍ	-2558
▁ປົກຄອງ	-2559
▁ຂອງທ່ານ	-2560
ເຕັກໂນໂລຊີ	-2561
▁=	-2562
ຈຶ່ງ	-2563
ເອີ້ນ	-2564
ຊຸມຊົນ	-2565
ຕອນນີ້	-2566
ຂະນະທີ່	-2567
ລັດຖະມົນຕີ	-2568
ລັ	-2569
ໍາລະ	-2570
▁ຊື່ນ	-2571
ລັນດອນ	-2572
▁World	-2573
ບໍລິຫານ	-2574
▁ສະຫນັບສະຫນູນ	-2575
ຣກ	-2576
▁ຍຸ	-2577
▁ຂາຍ	-2578
▁ຈ່າຍ	-2579
▁ສິ້ນ	-2580
ຂອງຜູ້	-2581
▁ທີ່ມີ	-2582
ແລກປ່ຽນ	-2583
▁ປະໂຫຍດ	-2584
ST	-2585
ຍົມ	-2586
▁27	-2587
▁PC	-2588
▁ຍາມ	-2589
▁ວັນທີ	-2590
ເດັກນ້ອຍ	-2591
ດົນ	-2592
ື້ມ	-2593
ແພດ	-2594
▁1,	-2595
ຸດທະ	-2596
▁Mar	-2597
▁New	-2598
▁Main	-2599
▁ສິງຫາ	-2600
ົ້າຫມາຍ	-2601
ຂອງຂ້າພະເຈົ້າ	-2602
amp	-2603
ຂັບ	-2604
ຄານ	-2605
ຈອນ	-2606
ີຣົບ	-2607
ື້ອຍໆ	-2608
2)	-2609
ໂພ	-2610
▁Air	-2611
▁ຂັບ	-2612
▁ເພງ	-2613
▁ມັງກອນ	-2614
-4	-2615
ble	-2616
ດູດ	-2617
ທວນ	-2618
ນອກ	-2619
▁Th	-2620
▁ຫຼັກ	-2621
ທີ່ນີ້	-2622
ລາງວັນ	-2623
ທີ່ສໍາຄັນ	-2624
aw	-2625
log	-2626
ປຸ່ນ	-2627
▁ກ້າ	-2628
ອມພິວເຕີ	-2629
ເອກ	-2630
▁Hol	-2631
▁ຕໍາ	-2632
▁ສູ້	-2633
▁ຫ້າ	-2634
ມາຈາກ	-2635
▁Blue	-2636
▁ຕ້ານ	-2637
ຫຼາຍກວ່າ	-2638
sp	-2639
ຸບ	-2640
▁€	-2641
▁on	-2642
ເພາະ	-2643
▁ມີຄວາມ	-2644
ກ່ອນຫນ້ານີ້	-2645
ool	-2646
ອະທິ	-2647
ເງົາ	-2648
ປະສົມ	-2649
ສະອາດ	-2650
ຕິດຕາມ	-2651
ທາລະນະ	-2652
ການປິ່ນປົວ	-2653
▁)	-2654
ron	-2655
ຍົນ	-2656
▁45	-2657
▁AP	-2658
ຍິ່ງ	-2659
▁htt	-2660
▁ເຕີ	-2661
ໂກ	-2662
▁ກຸມ	-2663
ແຕນເລດ	-2664
ເກີດຂື້ນ	-2665
74	-2666
▁Bag	-2667
▁ມານ	-2668
ທະບຽນ	-2669
ໂດຍການ	-2670
▁ແລະການ	-2671
ET	-2672
ຂ້າມ	-2673
▁ສັບ	-2674
▁ພິເສດ	-2675
ຫນຶ່ງໃນ	-2676
▁ທໍາອິດ	-2677
ຊູ	-2678
▁2,	-2679
▁EUR	-2680
▁Ind	-2681
ເຕັ້ນ	-2682
ຽກຮ້ອງ	-2683
chnology	-2684
EM	-2685
▁pro	-2686
▁2011	-2687
ມາດຕະຖານ	-2688
▁ການຄາດຄະເນ	-2689
2,	-2690
ໂຄງ	-2691
▁Sc	-2692
▁ແຈ	-2693
ຄິດວ່າ	-2694
ສັງເກດ	-2695
▁ກົດຫມາຍ	-2696
ຢີ	-2697
▁Bot	-2698
▁ປາດ	-2699
ປັນຍາ	-2700
▁ຫນາດ	-2701
ipment	-2702
ືອຂ່າຍ	-2703
▁ເກົ່າ	-2704
ສະຫະລັດ	-2705
▁ວິນາທີ	-2706
▁ຖືກຕ້ອງ	-2707
▁໌	-2708
ຟຣີ	-2709
China	-2710
ເທົ່າ	-2711
ສູນກາງ	-2712
ທ້ອງຖິ່ນ	-2713
OS	-2714
ເນັດ	-2715
ໂນ້ຍ	-2716
ຫຍື້ອ	-2717
່າໂນ້ຍ	-2718
▁ເຈົ້າຈະ	-2719
ອັດຕະໂນມັດ	-2720
▁Hy	-2721
▁XL	-2722
ຫມືອນ	-2723
▁ປະກອບ	-2724
▁ແຫນ້ນ	-2725
ອາກາດໃນ	-2726
ອານາຈັກ	-2727
AR	-2728
ult	-2729
▁ກຽດ	-2730
▁ລູກໆ	-2731
ຜູ້ທີ່	-2732
fo	-2733
irt	-2734
org	-2735
▁ແຄ	-2736
▁ໃຕ້	-2737
▁quot	-2738
▁ຫນັບ	-2739
ຈະເປັນ	-2740
ທົບທວນ	-2741
ໂຄສະນາ	-2742
ເອກະສານ	-2743
ແຫ່ງຊາດ	-2744
AT	-2745
ແອ	-2746
han	-2747
uit	-2748
▁et	-2749
ເຊີນ	-2750
▁ຝູງ	-2751
ລາຍງານ	-2752
▁Prote	-2753
▁Valve	-2754
ຢ້ຽມຢາມ	-2755
ຟ້າອາກາດ	-2756
int	-2757
ith	-2758
ກ້າວ	-2759
▁ສີ່	-2760
▁ກ້າວ	-2761
ຕັ້ງແຕ່	-2762
ຄວາມຮ້ອນ	-2763
21	-2764
ork	-2765
ຄາມ	-2766
▁CN	-2767
▁ໂຈ	-2768
less	-2769
ຊະນະ	-2770
ຖຸນາ	-2771
▁ອໍາ	-2772
ບາງຢ່າງ	-2773
▁GB	-2774
itcoin	-2775
ຈັດການ	-2776
▁ສໍາເລັດ	-2777
▁ປະເພດທຸລະກິດ	-2778
36	-2779
ສູ້	-2780
ເດຍ	-2781
▁ສື	-2782
ware	-2783
ຊໍາລະ	-2784
ບັນຈຸ	-2785
▁ຕື່ມ	-2786
▁ສັງຄົມ	-2787
▁ອະທິຖານ	-2788
▁Equipment	-2789
ດິນຟ້າອາກາດ	-2790
▁ຜູ້ສົ່ງອອກ	-2791
77	-2792
AL	-2793
AM	-2794
▁ຣ	-2795
ins	-2796
ງວນ	-2797
ດາວ	-2798
▁Bo	-2799
▁ໃສ	-2800
ຶກສາ	-2801
▁ແກ້	-2802
arter	-2803
▁ເຮືອ	-2804
▁ສີຂາວ	-2805
ຮ່າງກາຍ	-2806
ັສ	-2807
ase	-2808
ູ່ນ	-2809
▁29	-2810
▁ອາຊຽນ	-2811
▁ເກືອບ	-2812
ຖືກຕ້ອງ	-2813
cc	-2814
ຊກ	-2815
ຫລັງ	-2816
▁Pre	-2817
jiang	-2818
ແມ່ຍິງ	-2819
▁Power	-2820
ເຕີເນັດ	-2821
oll	-2822
ທາດ	-2823
▁ad	-2824
ount	-2825
▁ຫນັງສື	-2826
ວາງສະແດງ	-2827
55	-2828
▁Wh	-2829
ຫາວິ	-2830
▁ພິມ	-2831
ື່ສານ	-2832
▁1000	-2833
▁ບັນທຶກ	-2834
ene	-2835
ລົບ	-2836
abric	-2837
▁ແຕ່ລະ	-2838
▁CO	-2839
ໃຈໃສ່	-2840
▁Free	-2841
ງ່	-2842
wit	-2843
ິຈິ	-2844
▁mm	-2845
▁sc	-2846
ຫຼວດ	-2847
▁ສຶກສາ	-2848
DF	-2849
▁90	-2850
▁ໂດ	-2851
ລິມານ	-2852
▁ກັນຍາ	-2853
▁ເຫມາະ	-2854
▁ເສັ້ນທາງ	-2855
26	-2856
ຄ້າຍ	-2857
ບັນດ	-2858
້ວາງ	-2859
▁ປັດ	-2860
▁ອ້ອມ	-2861
▁ບັນຊີ	-2862
▁ເຕັ້ນ	-2863
▁ພຶດສະພາ	-2864
ຈານ	-2865
ຍິນ	-2866
ຜ່າ	-2867
▁1.	-2868
▁150	-2869
ລະກົດ	-2870
ເນື່ອງ	-2871
ສຸຂະພາບ	-2872
ເຂົ້າໄປໃນ	-2873
IC	-2874
VC	-2875
tern	-2876
▁ຊັບ	-2877
▁ຊຸມ	-2878
ສະດວກ	-2879
ະນາຄານ	-2880
▁ພະລັງ	-2881
ງ່າຍດາຍ	-2882
29	-2883
pli	-2884
ype	-2885
ສະຕ	-2886
otor	-2887
ເຜີຍ	-2888
▁ທ້າ	-2889
ເນື້ອ	-2890
ວັດທະນະທໍາ	-2891
port	-2892
ຜູ້ຊາຍ	-2893
▁ທະຫານ	-2894
ຫຼາຍກ່ວາ	-2895
ເຄື່ອງມື	-2896
ຍອມ	-2897
ຮອດ	-2898
ແຂວງ	-2899
▁ທາຍ	-2900
▁ຮອດ	-2901
ລາຍການ	-2902
ຮັບຜິດຊອບ	-2903
ake	-2904
ifi	-2905
ເລີດ	-2906
▁ແນ່	-2907
▁ພັນທະ	-2908
▁ເຫມືອນ	-2909
ous	-2910
ທາຍ	-2911
atch	-2912
iron	-2913
▁ກົວ	-2914
▁ຫນີ	-2915
▁ໂຍນ	-2916
▁ນັ່ງ	-2917
▁ໃນປີ	-2918
ເຕີບໂຕ	-2919
▁ຍິນດີ	-2920
ຄ່າໃຊ້ຈ່າຍ	-2921
ປັບ	-2922
▁LT	-2923
ຖ່າຍ	-2924
▁Env	-2925
▁ຂີ້	-2926
▁ທັບ	-2927
ຂອງພຣະ	-2928
▁Black	-2929
ຸດທະສາດ	-2930
▁Series	-2931
▁ຖ້າທ່ານ	-2932
ຄວາມປອດໄພ	-2933
GH	-2934
ulse	-2935
▁ຫວ່າງ	-2936
ຂ່າວສານ	-2937
ມືອາຊີບ	-2938
▁ລວມທັງ	-2939
ກວ້າງຂວາງ	-2940
▁ອຸປະກອນການ	-2941
ສະແດງໃຫ້ເຫັນ	-2942
gl	-2943
ພີ	-2944
▁80	-2945
▁As	-2946
▁pl	-2947
▁ຊະ	-2948
ປະຕູ	-2949
▁ມືດ	-2950
ພະຍາດ	-2951
▁ປຶ້ມ	-2952
ຂີ້ເຫຍື້ອ	-2953
ipp	-2954
ຄັບ	-2955
ສຸມ	-2956
▁ex	-2957
▁ຂາດ	-2958
▁ບາດ	-2959
▁ລັດຖະ	-2960
ສົນທະນາ	-2961
ທາງເລືອກ	-2962
▁ຊົ່ວໂມງ	-2963
ຊໍາລະເງິນ	-2964
▁ນິລັນດອນ	-2965
ຕິກ	-2966
ອັບ	-2967
ເຈນ	-2968
ເຫນືອ	-2969
▁Inst	-2970
ປະຈຸບັນ	-2971
ພະນັກງານ	-2972
▁ລັກສະນະ	-2973
app	-2974
▁Shen	-2975
▁ພິທີ	-2976
mental	-2977
ແນ່ນອນ	-2978
▁ສໍາພັນ	-2979
ການເຄື່ອນໄຫວ	-2980
ero	-2981
▁ຄະ	-2982
▁LED	-2983
▁Lin	-2984
ຂອງລາວ	-2985
▁ປະຊາຊົນ	-2986
▁ທໍາມະຊາດ	-2987
▁Em	-2988
▁IT	-2989
▁pm	-2990
▁ໄຊ	-2991
ames	-2992
ຸກຍູ້	-2993
▁ທຸກໆ	-2994
ທີ່ໄດ້	-2995
ໍລະມານ	-2996
▁ຊະນິດ	-2997
▁Suppli	-2998
▁ຫລວງຫລາຍ	-2999
ການເຮັດວຽກ	-3000
▁Protection	-3001
ົກລັດຖະມົນຕີ	-3002
uk	-3003
ດີກ	-3004
▁ມັດ	-3005
ໍາມັນ	-3006
ິຈິຕອນ	-3007
▁ເຫນືອ	-3008
ເຂົ້າເຖິງ	-3009
ເຄື່ອງຈັກ	-3010
ໄຮ	-3011
ery	-3012
ກະຕ	-3013
▁ຕື້	-3014
▁ນາທີ	-3015
▁ຄວາມໄວ	-3016
ຊະອານາຈັກ	-3017
ລິກ	-3018
▁Ap	-3019
▁ໂປ	-3020
wide	-3021
ເຈັບ	-3022
▁you	-3023
▁ພັດ	-3024
▁ລອດ	-3025
ສະມາຊິກ	-3026
ສ່ວນຕົວ	-3027
ຂະບວນການ	-3028
▁ເຕັກໂນໂລ	-3029
▁ສະພາບອາກາດໃນ	-3030
76	-3031
ans	-3032
hai	-3033
▁Sm	-3034
▁ເຖ	-3035
ທຸກໆ	-3036
▁ນະຄອນ	-3037
▁ເຕືອນ	-3038
▁ຮັບໃຊ້	-3039
aph	-3040
oth	-3041
ນັບ	-3042
ພໍ່	-3043
ທ້ອນ	-3044
▁ໄຫມ	-3045
ອາທິດ	-3046
ປັບປຸງ	-3047
▁ທ່ານຈະ	-3048
ເງື່ອນໄຂ	-3049
ແຄ	-3050
ame	-3051
ics	-3052
ລິດ	-3053
▁ເຢ	-3054
ວນີ້	-3055
obile	-3056
▁Slot	-3057
▁ເລັກ	-3058
ສາທາລະນະ	-3059
ການນໍາໃຊ້	-3060
▁ເຄື່ອງພິມ	-3061
by	-3062
ຈໍ	-3063
500	-3064
ຈາຍ	-3065
▁(3	-3066
▁ມມ	-3067
▁ຫານ	-3068
▁ຕື່ນ	-3069
ຕົນເອງ	-3070
▁ສະຫງົບ	-3071
▁Environ	-3072
ທີ່ແທ້ຈິງ	-3073
▁ເຄື່ອງມື	-3074
▁Worldwide	-3075
be	-3076
cs	-3077
air	-3078
▁On	-3079
aric	-3080
zhen	-3081
ating	-3082
▁Cert	-3083
ສືບຕໍ່	-3084
ສະຫວ່າງ	-3085
ເວົ້າວ່າ	-3086
▁ມາດຕະຖານ	-3087
ການບໍລິການ	-3088
ຫຼັງຈາກນັ້ນ	-3089
ll	-3090
ung	-3091
ຈົນ	-3092
▁Or	-3093
ions	-3094
▁ລອງ	-3095
▁ຂ້າມ	-3096
ທົບທວນຄືນ	-3097
ຂະຫນາດນ້ອຍ	-3098
ໂຮງງານຜະລິດ	-3099
IL	-3100
iew	-3101
ແຜ່	-3102
າບັນ	-3103
▁ຍາວ	-3104
ໄປໄດ້	-3105
▁ມີນາ	-3106
▁Google	-3107
▁ດໍາເນີນ	-3108
▁ວັດສະດຸ	-3109
ໃນເວລາທີ່	-3110
ການຝຶກອົບຮົມ	-3111
ຫີນ	-3112
▁ເຟ	-3113
ອາໄສ	-3114
ອີເມວ	-3115
ຮູ້ຈັກ	-3116
▁Botou	-3117
▁ພຽງແຕ່	-3118
▁ແຕ່ງງານ	-3119
ສົດ	-3120
▁ທັດ	-3121
▁ປັບ	-3122
ສະການ	-3123
ກົດຫມາຍ	-3124
ເພີ່ມຂຶ້ນ	-3125
ຮ້ອງສະຫມັກ	-3126
▁Environmental	-3127
ລັບ	-3128
▁Sk	-3129
ື້ອມ	-3130
▁ທາດ	-3131
▁ປະຕູ	-3132
▁tattoos	-3133
ໃຫ້ພວກເຮົາ	-3134
ໃຍ	-3135
out	-3136
▁ພູ	-3137
▁Res	-3138
▁XXL	-3139
▁ໄລ່	-3140
ລະບຽບ	-3141
▁ຕຸລາ	-3142
▁ນັບຖື	-3143
▁ປະມານ	-3144
▁ແລະຂ້ອຍ	-3145
ຍ້າຍ	-3146
ສະວະ	-3147
ຮ້ານ	-3148
ເຢັນ	-3149
ມາຄົມ	-3150
▁Park	-3151
▁Tags	-3152
▁ຮ້ອນ	-3153
ສະຫນາມ	-3154
ແຮງງານ	-3155
ທໍາມະຊາດ	-3156
▁ການນໍາໃຊ້	-3157
▁ພວກເຮົາໄດ້	-3158
39	-3159
fl	-3160
lex	-3161
▁ສຸ	-3162
ປ້ອງ	-3163
▁Met	-3164
▁ຍາດ	-3165
▁ຂ້ອງ	-3166
▁ເຜີຍ	-3167
▁Technology	-3168
ຮ່າງ	-3169
ຸດົມ	-3170
▁ກັດ	-3171
▁ນານ	-3172
▁ແຍກ	-3173
້ອື່ນ	-3174
ອອກຈາກ	-3175
▁ຄວາມຄິດເຫັນທີ່	-3176
ອຸ	-3177
▁32	-3178
land	-3179
▁ຮອບ	-3180
ustom	-3181
ວຽກງານ	-3182
ໂຮງຮຽນ	-3183
ຂັ້ນຕອນ	-3184
▁ກອງທັບ	-3185
▁ປົກກະຕິ	-3186
ຜົນປະໂຫຍດ	-3187
me	-3188
ys	-3189
▁ໂນ	-3190
ຖະຫນາ	-3191
▁ກິລາ	-3192
ຊື່ສຽງ	-3193
▁ສາດສະ	-3194
ທີ່ຂ້ອຍ	-3195
ຕອບສະຫນອງ	-3196
ພວກເຮົາມີ	-3197
85	-3198
PS	-3199
les	-3200
ode	-3201
ຕໍາ	-3202
▁36	-3203
▁75	-3204
ະພາບ	-3205
▁Des	-3206
▁ນຶກ	-3207
ining	-3208
ຄືກັນ	-3209
ລະພາບ	-3210
▁ເນື້ອ	-3211
▁ອົງການ	-3212
ຕັດສິນໃຈ	-3213
່ຍ	-3214
acc	-3215
ump	-3216
ກິນ	-3217
ເພງ	-3218
▁AC	-3219
▁fl	-3220
▁ແກະ	-3221
ຍາກອນ	-3222
ໃນໂລກ	-3223
▁ສະຕິ	-3224
▁ເມສາ	-3225
▁ແຂວງ	-3226
▁ທັນວາ	-3227
ການເງິນ	-3228
ມື້ອື່ນ	-3229
▁ມັນແມ່ນ	-3230
▁ຫຼັງຈາກນັ້ນ	-3231
FC	-3232
ໂສ	-3233
▁XX	-3234
▁Zh	-3235
▁ໂກ	-3236
atic	-3237
▁ດຶງ	-3238
▁ບານ	-3239
ພະນັນ	-3240
▁ຄ້າຍ	-3241
▁ສະເຫນີ	-3242
ຄຸນນະພາບສູງ	-3243
▁ເຫລົ່ານັ້ນ	-3244
ນາຍົກລັດຖະມົນຕີ	-3245
MP	-3246
sm	-3247
ວັງ	-3248
▁ຣະ	-3249
ilic	-3250
ingd	-3251
ືກັບ	-3252
▁ກວດ	-3253
Hebei	-3254
chain	-3255
ສະຈັນ	-3256
່ນ້ອງ	-3257
▁Comp	-3258
▁ນິ້ວ	-3259
ສະເຫມີ	-3260
ຫົວຂໍ້	-3261
ຮ່ຈ	-3262
▁ດວງ	-3263
້າສຸດ	-3264
ຍິ່ງໃຫຍ່	-3265
ແລະອື່ນໆ	-3266
▁ອະທິບາຍ	-3267
ຈໍານວນຫຼາຍ	-3268
▁ຂອງພວກເຮົາ	-3269
AD	-3270
▁IP	-3271
▁ກິ	-3272
ຫມູ່	-3273
ແຫນ່ງ	-3274
ດິຈິຕອນ	-3275
ເປັນການ	-3276
▁ຕາຕະລາງ	-3277
▁ໃນເວລາທີ່	-3278
▁ໂບດ	-3279
ວິຫານ	-3280
ອັງກິດ	-3281
▁Fiber	-3282
▁ພະຈິກ	-3283
▁ເສື້ອ	-3284
ຂອງຄວາມ	-3285
ໃນປະເທດ	-3286
ສໍາລັບມື້ນີ້	-3287
ຮອບ	-3288
▁ປິດ	-3289
utter	-3290
ໍາລຸງ	-3291
▁ກ່ອງ	-3292
▁ລາຊະອານາຈັກ	-3293
ລື	-3294
orn	-3295
rop	-3296
ບຸນ	-3297
ແຮມ	-3298
duct	-3299
▁LTD	-3300
▁0086	-3301
▁XXXL	-3302
ພາກສ່ວນ	-3303
ົ້ວ	-3304
▁iP	-3305
.000	-3306
ເກີນ	-3307
▁App	-3308
▁100%	-3309
witter	-3310
ກວດສອບ	-3311
້ານ້ອຍ	-3312
ຮ່ວມງານ	-3313
ອຸນຫະພູມ	-3314
▁ຢ້ຽມຢາມ	-3315
ເທົ່ານັ້ນ	-3316
▁Shenzhen	-3317
▁ກອງປະຊຸມ	-3318
ດໍາເນີນການ	-3319
we	-3320
ຫມໍ	-3321
▁ເຫ	-3322
ຍ້ອນ	-3323
ອ່ອນ	-3324
▁ຈົດ	-3325
▁ຕູ້	-3326
▁ສອບ	-3327
▁ແຫ້ງ	-3328
▁ໂລຫະ	-3329
ສູນເສຍ	-3330
▁Block	-3331
▁Markets	-3332
▁ພະເຈົ້າ	-3333
ID	-3334
ml	-3335
ຖຸ	-3336
und	-3337
urn	-3338
ເທີ	-3339
▁--	-3340
▁Ne	-3341
idth	-3342
ໃນຕອນ	-3343
▁ກໍານ	-3344
ກໍລະນີ	-3345
ວິຊາການ	-3346
▁ດໍາລົງ	-3347
▁ນອກຈາກ	-3348
ການກັ່ນຕອງ	-3349
100	-3350
▁ph	-3351
▁ລີ	-3352
ີມິນ	-3353
▁Cam	-3354
▁ຢຸດ	-3355
▁ໂມງ	-3356
astic	-3357
▁Poly	-3358
▁ເຕີບ	-3359
ຄໍາຖາມ	-3360
ສິລະປະ	-3361
78	-3362
ແຈ	-3363
ແຍກ	-3364
ency	-3365
ປ່ອຍ	-3366
▁ພະນ	-3367
ໃດກໍ່	-3368
ພາກພື້ນ	-3369
ຮ່ຈີມິນ	-3370
▁ຫຼັງຈາກ	-3371
IT	-3372
vel	-3373
ຄ້ວ	-3374
ລໍາ	-3375
▁ວົງ	-3376
▁Post	-3377
ຄວາມໄວ	-3378
ວິດີໂອ	-3379
▁tattoo	-3380
▁ກໍານົດ	-3381
▁ປະເພດຜະລິດຕະພັນ	-3382
5)	-3383
US	-3384
gen	-3385
orm	-3386
ບັງ	-3387
ຝາກ	-3388
ອດຄ	-3389
ther	-3390
▁ປາກ	-3391
▁Live	-3392
▁ຖິ້ມ	-3393
▁Chang	-3394
▁ສົມບູນ	-3395
ars	-3396
ຕິງ	-3397
▁CH	-3398
▁MH	-3399
ຫລັບ	-3400
▁ຫມໍ	-3401
▁ຫີນ	-3402
▁ເມຍ	-3403
▁Holm	-3404
▁Port	-3405
▁Soft	-3406
▁ເລືອດ	-3407
▁ໄຟຟ້າ	-3408
▁ຈໍາກັດ	-3409
ສົ່ງເສີມ	-3410
4,	-3411
▁າ	-3412
▁31	-3413
ວ່ານ	-3414
ແກັສ	-3415
▁Gre	-3416
ຂອບໃຈ	-3417
ອດຕິງ	-3418
ການປົກ	-3419
▁Guang	-3420
▁Laser	-3421
▁ກຸມພາ	-3422
▁ສິ່ງທີ່	-3423
ເປົ້າຫມາຍ	-3424
38	-3425
ວ່	-3426
ກຽມ	-3427
ປະຊາ	-3428
ແກ້ວ	-3429
▁ຢາງ	-3430
ໄປສູ່	-3431
▁ຫລານ	-3432
▁ເຫນີ	-3433
ownload	-3434
ເຕັກໂນໂລຢີ	-3435
):	-3436
ale	-3437
ape	-3438
ສະຫະ	-3439
ສິ້ນ	-3440
▁ສວນ	-3441
▁ວິດີໂອ	-3442
ທີ່ບໍ່ມີ	-3443
CS	-3444
arm	-3445
oid	-3446
ມອບ	-3447
ເກືອບ	-3448
ຂອງມັນ	-3449
ລັອດຕິງ	-3450
ຫຼັງຈາກ	-3451
▁ເລື້ອຍໆ	-3452
▁ສະຖານທີ່	-3453
ຍຸ	-3454
ົ໋	-3455
REE	-3456
ify	-3457
ott	-3458
ຄັດ	-3459
ບຸກ	-3460
▁be	-3461
ຄຣິດ	-3462
▁Pin	-3463
▁ສົບ	-3464
▁Home	-3465
▁ສະລະ	-3466
ດີທີ່ສຸດ	-3467
ທີ່ສາມາດ	-3468
▁ກໍລະກົດ	-3469
ຍີ່	-3470
ເດດ	-3471
▁UV	-3472
▁Dav	-3473
▁Dis	-3474
▁Nor	-3475
▁ແພງ	-3476
ເລກທີ	-3477
▁ປະຕິ	-3478
▁ເລິກ	-3479
▁ອັນຕະລາຍ	-3480
In	-3481
-20	-3482
▁Mid	-3483
▁ຫາຍ	-3484
▁ໂຄງ	-3485
ເບື້ອງ	-3486
▁ຫລິ້ນ	-3487
ກໍາມະການ	-3488
ຕາເວັນອອກ	-3489
ພວກເຮົາຈະ	-3490
▁ອຸນຫະພູມ	-3491
44	-3492
OR	-3493
ລິນ	-3494
ໍ່າ	-3495
▁PR	-3496
▁min	-3497
▁ຝຶກ	-3498
ເກົ່າ	-3499
▁ຟື້ນ	-3500
ຄົນອື່ນ	-3501
▁ຄວາມຫນາ	-3502
▁ປະສົບການ	-3503
▁ການຫຸ້ມຫໍ່	-3504
▁ໂທລະສັບມືຖື	-3505
2.	-3506
ES	-3507
IS	-3508
nes	-3509
osh	-3510
ຈົດ	-3511
ຊິດ	-3512
▁ແຫ	-3513
ille	-3514
over	-3515
▁ບຸກ	-3516
ouble	-3517
ວ່າການ	-3518
hejiang	-3519
ອະທິບາຍ	-3520
▁ສົງຄາມ	-3521
ຍຸດທະສາດ	-3522
ຫຼຸດຜ່ອນ	-3523
ໃນປັດຈຸບັນ	-3524
?—	-3525
EN	-3526
yst	-3527
ທູດ	-3528
ປິດ	-3529
read	-3530
▁ແນະ	-3531
ustri	-3532
▁info	-3533
▁ຄລິດ	-3534
▁ເນີນ	-3535
ກັບຄືນ	-3536
ອັນດັບ	-3537
ເຫດການ	-3538
▁Press	-3539
ational	-3540
ທີ່ຫນ້າ	-3541
ສຸດທ້າຍ	-3542
▁ຄາສິໂນ	-3543
▁ບຸກຄົນ	-3544
▁Suppliers	-3545
95	-3546
ise	-3547
ply	-3548
ແພງ	-3549
ພິທີ	-3550
▁FREE	-3551
▁ຍ້າຍ	-3552
▁ຫ່ວງ	-3553
ເອີຣົບ	-3554
▁ເປົ້າ	-3555
▁ສະຫນອງ	-3556
▁ສະຫະລັດ	-3557
▁ສາສະຫນາ	-3558
ຄອມພິວເຕີ	-3559
ປະຫວັດສາດ	-3560
ຫຼດ	-3561
ound	-3562
ປື້ມ	-3563
ຕິທໍາ	-3564
▁ຊະນະ	-3565
▁ເຫມີ	-3566
ເຫດຜົນ	-3567
ເປັນຜູ້	-3568
▁ມິຖຸນາ	-3569
▁ລາງວັນ	-3570
▁ການບໍລິການ	-3571
ຣາ	-3572
ath	-3573
ota	-3574
ມງານ	-3575
▁ລວງ	-3576
▁ແປກ	-3577
ຊື້ຂາຍ	-3578
ສໍາຫຼວດ	-3579
ອະນາຄົດ	-3580
▁ຄຸນຄ່າ	-3581
ຈຸດປະສົງ	-3582
ຊາວຫນຸ່ມ	-3583
ເກີດຂຶ້ນ	-3584
▁ສະຫວ່າງ	-3585
ທີ່ຜ່ານມາ	-3586
CL	-3587
ພູ	-3588
ເຢ	-3589
▁z	-3590
enn	-3591
ແດນ	-3592
▁Hu	-3593
▁cl	-3594
▁Rou	-3595
▁Web	-3596
ສິກໍາ	-3597
ຫຼິ້ນ	-3598
ເວັ້ນ	-3599
ເລັກໂຕ	-3600
▁ອາກາດ	-3601
▁ຮູບແບບ	-3602
27	-3603
CH	-3604
ger	-3605
van	-3606
ພັດ	-3607
ເດີ	-3608
hone	-3609
soft	-3610
ຕາລີ	-3611
ທະເລ	-3612
ຄືກັບ	-3613
ແຫຼ່ງ	-3614
▁Dong	-3615
ສື່ສານ	-3616
ຫນັງສື	-3617
▁ວິຫານ	-3618
▁Zhejiang	-3619
ຫາວິທະຍາໄລ	-3620
ອິນເຕີເນັດ	-3621
ນອນ	-3622
▁HD	-3623
▁Up	-3624
▁ກວ	-3625
ເຄມີ	-3626
ເມີນ	-3627
▁PVC	-3628
▁com	-3629
▁ກາດ	-3630
▁ມົນ	-3631
lette	-3632
ປະກາດ	-3633
▁ເສີມ	-3634
▁crypt	-3635
ຮຽກຮ້ອງ	-3636
ການປັບປຸງ	-3637
▁ພະນັກງານ	-3638
ສິ່ງແວດລ້ອມ	-3639
ond	-3640
rid	-3641
ຍັດ	-3642
▁ລໍ	-3643
▁ໄຮ	-3644
ited	-3645
▁Fit	-3646
ໍານວຍ	-3647
▁West	-3648
▁ຖິ່ນ	-3649
▁ສໍານ	-3650
▁ຕິດຕາມ	-3651
ສະແຕນເລດ	-3652
ຫຼາຍທີ່ສຸດ	-3653
ຂໍ້ມູນຂ່າວສານ	-3654
ຢ່າງກວ້າງຂວາງ	-3655
▁≤	-3656
ແນກ	-3657
ຄ້ວາ	-3658
agram	-3659
▁ເຊົາ	-3660
ordpress	-3661
▁ບໍລິການ	-3662
▁ລັດຖະບານ	-3663
ann	-3664
uck	-3665
ອັກ	-3666
▁05	-3667
▁lo	-3668
ີນີ້	-3669
▁All	-3670
▁ປອດ	-3671
▁ສວຍ	-3672
▁ປ່ວຍ	-3673
▁ຝຸ່ນ	-3674
ຄົນທີ່	-3675
ດີກວ່າ	-3676
▁ເຊື່ອມ	-3677
▁ທັງຫລາຍ	-3678
ຄູ	-3679
ຟູ	-3680
”.	-3681
▁ໆ	-3682
eld	-3683
ຟັງ	-3684
▁Tr	-3685
ates	-3686
fish	-3687
ງວຽນ	-3688
ເວທີ	-3689
▁ບຸນ	-3690
▁ຮອງ	-3691
▁ໂທດ	-3692
ເດັ່ນ	-3693
▁ຮ້ານ	-3694
▁David	-3695
▁ຢູ່ໃນ	-3696
▁ເກົ້າ	-3697
ດັ່ງນັ້ນ	-3698
▁ຂ້ານ້ອຍ	-3699
▁ຍີ່ປຸ່ນ	-3700
▁ພາກສ່ວນ	-3701
ການປະຕິບັດ	-3702
oz	-3703
ກ້າ	-3704
ເຊີ	-3705
▁01	-3706
▁Am	-3707
▁QR	-3708
ales	-3709
▁120	-3710
▁800	-3711
▁ບິນ	-3712
▁ປານ	-3713
▁ພວມ	-3714
▁ອອນ	-3715
ສ້າງສັນ	-3716
▁ສັກສິດ	-3717
▁ໃນໄລຍະ	-3718
........	-3719
ເຄືອຂ່າຍ	-3720
▁Tattoos	-3721
ຄໍາແນະນໍາ	-3722
ຂອງບໍລິສັດ	-3723
▁ເຂົ້າຮ່ວມ	-3724
!!	-3725
ຈັບ	-3726
ວົນ	-3727
▁Art	-3728
ປະດິດ	-3729
ຽບທຽບ	-3730
▁1500	-3731
▁Pulse	-3732
▁Shang	-3733
▁ສິດທິ	-3734
ມັດສະການ	-3735
ການລົງທຶນ	-3736
erv	-3737
ory	-3738
ກົນ	-3739
ຍົງ	-3740
ແນ່	-3741
▁le	-3742
▁ຈຸ	-3743
ຊົ່ວ	-3744
▁Ide	-3745
▁ພາດ	-3746
▁ເມດ	-3747
ການບິນ	-3748
ທັງສອງ	-3749
▁North	-3750
▁Intern	-3751
▁Mobile	-3752
▁ຕາເວັນ	-3753
▁ຜູ້ນໍາ	-3754
▁ຫົວຂໍ້	-3755
ສ່ວນໃຫຍ່	-3756
▁ພີ່ນ້ອງ	-3757
ເກັບຮັກສາ	-3758
ຂອງພວກເຮົາແມ່ນ	-3759
▁ກ່ຽວກັບພວກເຮົາ	-3760
96	-3761
ec	-3762
ຖວ	-3763
ຂຽວ	-3764
▁ເດີ	-3765
ໍາມະດາ	-3766
ເອີ້ນວ່າ	-3767
98	-3768
ime	-3769
ຍືນ	-3770
▁he	-3771
▁ວາ	-3772
ຣນິກ	-3773
ເຮືອ	-3774
ປະທັບ	-3775
ຫຼີ້ນ	-3776
ອັດຕາ	-3777
ເຊົ້າ	-3778
ໂດຍຜ່ານ	-3779
▁ຕະຫຼອດ	-3780
▁ລາຍການ	-3781
ຂອງມະນຸດ	-3782
▁ຫົວຫນ້າ	-3783
ສົມບູນແບບ	-3784
▁ການອອກແບບ	-3785
▁ຂ້າພະເຈົ້າໄດ້	-3786
3,	-3787
OT	-3788
els	-3789
net	-3790
ute	-3791
ຣິກ	-3792
ສີ່	-3793
▁Cy	-3794
▁ຜະ	-3795
▁ອົບ	-3796
ໂຮງງານ	-3797
▁ເນັ້ນ	-3798
▁ພຣະກິດ	-3799
ປະກອບສ່ວນ	-3800
▁ພວກເຮົາຈະ	-3801
94	-3802
uy	-3803
urr	-3804
ຫລັກ	-3805
ເປົ໋	-3806
ໃດກໍ	-3807
▁CNC	-3808
▁Par	-3809
▁ກອນ	-3810
ເອກະລ	-3811
▁ກ້ອນ	-3812
▁ຖ້ອຍ	-3813
ອດຄ່ອງ	-3814
ຮັບຮອງ	-3815
▁fabric	-3816
▁ສັງເກດ	-3817
ວິທະຍາໄລ	-3818
ໃຫຍ່ທີ່ສຸດ	-3819
ໃຫ້ບໍລິການ	-3820
▁Microsoft	-3821
St	-3822
ເວນ	-3823
jian	-3824
ຟື້ນ	-3825
ແລະມີ	-3826
▁ແມັດ	-3827
▁ແລ່ນ	-3828
ຂອບເຂດ	-3829
ໂດຍກົງ	-3830
▁ທີ່ຈະ	-3831
▁ອາຄານ	-3832
ແບ່ງປັນ	-3833
▁ເປັນຫຍັງ	-3834
ຈໍາເປັນຕ້ອງ	-3835
31	-3836
▁@	-3837
any	-3838
ດຶງ	-3839
ບາກ	-3840
ຕະນາ	-3841
▁+86	-3842
▁Cop	-3843
▁PDF	-3844
▁ລົບ	-3845
▁Long	-3846
▁Online	-3847
ໃດກໍ່ຕາມ	-3848
▁ທັດສະນະ	-3849
ປະກອບດ້ວຍ	-3850
▁ພວກເຂົາເຈົ້າ	-3851
je	-3852
mp	-3853
▁1:	-3854
▁CS	-3855
▁ແວ	-3856
▁ເມີ	-3857
ebook	-3858
ເຄືອບ	-3859
▁ເວັບ	-3860
ເປັນເຈົ້າ	-3861
▁ອາເມລິກາ	-3862
▁ເງື່ອນໄຂ	-3863
▁ເຈົ້າບໍ່	-3864
▁ໃນຂະນະທີ່	-3865
ທີ່ເຫມາະສົມ	-3866
ຕູ້	-3867
ທ້າ	-3868
ປານ	-3869
ພິດ	-3870
ສວຍ	-3871
ຕື່ນ	-3872
ທະວີ	-3873
ນັ່ງ	-3874
▁250	-3875
▁ຜົວ	-3876
▁ຫັນ	-3877
meric	-3878
▁Gold	-3879
▁ລຸ້ນ	-3880
▁ບັນລຸ	-3881
▁ເວັ້ນ	-3882
32	-3883
34	-3884
ote	-3885
ຢຸດ	-3886
ຖານະ	-3887
▁600	-3888
▁Pet	-3889
▁www	-3890
ຽວນີ້	-3891
▁ແບ່ງປັນ	-3892
CC	-3893
rag	-3894
ania	-3895
ສັ້ນ	-3896
▁Net	-3897
▁ສະຖ	-3898
ນິຍົມ	-3899
▁ນຸ່ງ	-3900
▁Elect	-3901
▁ຖະຫນາ	-3902
ustrial	-3903
ຊ່ວຍໃຫ້	-3904
▁ສະເຫມີ	-3905
▁ທໍລະມານ	-3906
▁ນະໂຍບາຍ	-3907
ສິ່ງບາງຢ່າງ	-3908
▁Blockchain	-3909
OM	-3910
lim	-3911
ury	-3912
ຫວາ	-3913
▁FX	-3914
ener	-3915
ະຄອນ	-3916
▁ຄ້າ	-3917
▁ດອກ	-3918
▁ລິດ	-3919
ປຶກສາ	-3920
ວ່າມີ	-3921
ສະຕຽນ	-3922
ເລກຸນ	-3923
ແຫນ້ນ	-3924
▁ຫລຽວ	-3925
ບັນດານ	-3926
▁ສະໄຫມ	-3927
ພະຍາກອນ	-3928
ຖືກນໍາໃຊ້	-3929
▁ນັ້ນແມ່ນ	-3930
ໃຊ	-3931
den	-3932
ນັດ	-3933
ໂຣກ	-3934
▁Ac	-3935
▁ຈາ	-3936
loem	-3937
ົ້ານ	-3938
▁ຊັງ	-3939
▁ລືມ	-3940
ກວດກາ	-3941
▁ສະພາ	-3942
ທ້າທາຍ	-3943
▁Forex	-3944
▁Samloem	-3945
ການອອກແບບ	-3946
ull	-3947
▁3,	-3948
ຍ່ອຍ	-3949
▁ຊິກ	-3950
▁ອີງ	-3951
board	-3952
ກະຊວງ	-3953
ແນ່ໃຈ	-3954
▁Asia	-3955
▁ຮຸ່ນ	-3956
ອໍານວຍ	-3957
ຄົ້ນຄ້ວາ	-3958
▁Machine	-3959
▁ເຄື່ອງຈັກ	-3960
▁ການທົບທວນຄືນ	-3961
9)	-3962
ສາວ	-3963
ິຕິ	-3964
ໂຍງ	-3965
ouse	-3966
ຫຼັງ	-3967
ເລິກ	-3968
ແຫ້ງ	-3969
▁ດັດ	-3970
▁ດັບ	-3971
▁ບິດ	-3972
▁ລຶກ	-3973
ວນຊົນ	-3974
▁ທ້າວ	-3975
▁ເມັດ	-3976
ເຮັດໄດ້	-3977
ໃດຫນຶ່ງ	-3978
ບັນດາປະເທດ	-3979
▁ການກັ່ນຕອງ	-3980
go	-3981
-10	-3982
ແປກ	-3983
ໄຫຼ	-3984
▁Af	-3985
ຊ້ອນ	-3986
ູມິນ	-3987
▁ພົນ	-3988
▁ສູດ	-3989
▁ຮົບ	-3990
ຫນ່ວຍ	-3991
ຸນແຮງ	-3992
ຂອງນາງ	-3993
ວິເຄາະ	-3994
▁ປະຈັກ	-3995
▁Americ	-3996
▁Minnes	-3997
▁ໂຮງຮຽນ	-3998
68	-3999
ໂຊ	-4000
ກາກ	-4001
ປັກ	-4002
ສູບ	-4003
ແລນ	-4004
ໂພກ	-4005
▁cr	-4006
ange	-4007
ider	-4008
ຮ້ອຍ	-4009
ໂຫວາ	-4010
▁ແຫຼ	-4011
▁Stre	-4012
▁ລ່ວງ	-4013
ພວກມັນ	-4014
ສຸມໃສ່	-4015
▁ກະຊວງ	-4016
▁ຫງວຽນ	-4017
▁ຫົວໃຈ	-4018
▁ອອນໄລນ໌	-4019
▁ເດີນທາງ	-4020
ສ້າງຕັ້ງຂຶ້ນ	-4021
TA	-4022
ໂບ	-4023
ole	-4024
ຍລະ	-4025
ທ່າ	-4026
▁ແມ	-4027
ript	-4028
▁Jet	-4029
▁Off	-4030
▁ນິດ	-4031
▁ມິດ	-4032
ຊະນິດ	-4033
ສະໄຫມ	-4034
ັງວົນ	-4035
ເວລາດ	-4036
ingdao	-4037
ພາຍໃຕ້	-4038
▁ທັນທີ	-4039
▁ສີແດງ	-4040
ຫນ້າທີ່	-4041
ສິດທິຜົນ	-4042
ຂະຫຍາຍຕົວ	-4043
▁ເປັນຄວາມ	-4044
xy	-4045
ley	-4046
pro	-4047
ຊາກ	-4048
ຜິວ	-4049
ence	-4050
vent	-4051
ໄປຫາ	-4052
▁Oce	-4053
▁Heng	-4054
ອີງໃສ່	-4055
ກັນຂ້າມ	-4056
▁ວິນຍານ	-4057
ທີ່ຍິ່ງໃຫຍ່	-4058
▁ນະມັດສະການ	-4059
ໃຜ	-4060
ປິນ	-4061
▁ne	-4062
ຫ່າງ	-4063
▁400	-4064
▁OEM	-4065
▁ທ່າ	-4066
▁ດື່ມ	-4067
ຕໍ່ຕ້ານ	-4068
ປະເພດຂອງ	-4069
▁ເວັບໄຊທ໌	-4070
ງວນລິຂະສິດ	-4071
ສ່ວນບຸກຄົນ	-4072
▁ວິທະຍາສາດ	-4073
▁ເຖິງແມ່ນວ່າ	-4074
-7	-4075
8,	-4076
ໄມ	-4077
vey	-4078
ຈະລ	-4079
ຕາຍ	-4080
ລຶກ	-4081
ແຮ່	-4082
▁ໂຊ	-4083
▁20%	-4084
▁che	-4085
▁ຍຶດ	-4086
▁ນົກ	-4087
▁ໂຮມ	-4088
▁Line	-4089
▁ສັ້ນ	-4090
▁ເວັນ	-4091
ຢູ່ທີ່	-4092
ຄໍາສັ່ງ	-4093
ຄໍາເຫັນ	-4094
▁ກໍລະນີ	-4095
▁ຊື່ສັດ	-4096
ຫຍຸ້ງຍາກ	-4097
▁Qingdao	-4098
ການຮ່ວມມື	-4099
ພວກເຂົາເຈົ້າ	-4100
ສະພາບແວດລ້ອມ	-4101
ໃຫ	-4102
ella	-4103
rist	-4104
ອ້າງ	-4105
▁ນົດ	-4106
▁ວາວ	-4107
ຈະບໍ່	-4108
ທັນທີ	-4109
▁Play	-4110
▁ຖ່ອມ	-4111
▁ແກ້ວ	-4112
ຍືນຍົງ	-4113
ຮັບຮູ້	-4114
ຸດຄົ້ນ	-4115
▁ສະບາຍ	-4116
▁ສະເພາະ	-4117
ື່ມວນຊົນ	-4118
ເສັ້ນທາງ	-4119
▁Charter	-4120
ເກັບຂີ້ຝຸ່ນ	-4121
ຕ້ອງການທີ່ຈະ	-4122
:00	-4123
dle	-4124
row	-4125
ມວນ	-4126
ເຕະ	-4127
ເສບ	-4128
▁55	-4129
▁He	-4130
▁Pe	-4131
▁Qu	-4132
ital	-4133
ຢ້ຽມ	-4134
ແມັດ	-4135
▁Mac	-4136
▁Win	-4137
▁ອາຍ	-4138
ກະຈາຍ	-4139
▁Road	-4140
▁http	-4141
ູມິນຽມ	-4142
ication	-4143
ຂອງເຮົາ	-4144
ຮູບເງົາ	-4145
ໃດກໍຕາມ	-4146
▁Plastic	-4147
▁ຂໍ້ຄວາມ	-4148
ຂອງລູກຄ້າ	-4149
ເຄື່ອງພິມ	-4150
ຄັ້ງທໍາອິດ	-4151
▁Minnesota	-4152
hu	-4153
lt	-4154
pcs	-4155
ton	-4156
ກຸນ	-4157
ສວນ	-4158
ຫ້າ	-4159
▁Dri	-4160
ducts	-4161
▁2000	-4162
ຍອມຮັບ	-4163
ທະນາຄານ	-4164
▁ແລະມັນ	-4165
▁ຈັດຕັ້ງ	-4166
▁ອະນຸຍາດ	-4167
▁ເນື່ອງຈາກ	-4168
.,	-4169
ng	-4170
ts	-4171
ຍູ	-4172
lin	-4173
lug	-4174
ບອນ	-4175
ິ້ງ	-4176
ົາມ	-4177
▁Gl	-4178
vers	-4179
ເທີງ	-4180
▁ພືດ	-4181
▁ຫມາ	-4182
▁ກໍາມ	-4183
ລາຍຊື່	-4184
▁reply	-4185
ເກັບກໍາ	-4186
ພິຈາລະນາ	-4187
▁ເຮັດວຽກ	-4188
▁wordpress	-4189
▁ເຕັກໂນໂລຊີ	-4190
nc	-4191
umb	-4192
ກະດ	-4193
ດອກ	-4194
ຕູນ	-4195
▁en	-4196
▁ບາ	-4197
shop	-4198
ular	-4199
ຊີ້ນ	-4200
ຣັ່ງ	-4201
▁con	-4202
ຕະຫຼອດ	-4203
ສວຍງາມ	-4204
▁ເຕົ້າ	-4205
ປະກອບມີ	-4206
ວ່າເປັນ	-4207
▁ທົດລອງ	-4208
ດຽວກັນກັບ	-4209
▁ພຣະວິຫານ	-4210
▁ຫຍຸ້ງຍາກ	-4211
▁ຖ້າຫາກວ່າທ່ານ	-4212
4)	-4213
47	-4214
ke	-4215
ຊົງ	-4216
ອາຊີ	-4217
ເຕົາ	-4218
ເສັງ	-4219
ແຫນງ	-4220
▁She	-4221
ສັກຢາ	-4222
▁Star	-4223
▁Wall	-4224
▁ລົ້ມ	-4225
▁ຫ່າງ	-4226
▁Certs	-4227
▁ສະອາດ	-4228
▁ເຫຼັກ	-4229
ວັດສະດຸ	-4230
▁ຜູ້ຍິງ	-4231
ທີ່ໃຊ້ເວລາ	-4232
▁ໃບຢັ້ງຢືນ	-4233
GS	-4234
sc	-4235
ເຍ	-4236
ແຊ	-4237
rew	-4238
ັກຊ	-4239
shan	-4240
ັນຍູ	-4241
▁Pay	-4242
▁ທານ	-4243
▁ແຜ່	-4244
ເຕືອນ	-4245
▁Word	-4246
▁ຕ່ໍາ	-4247
▁ປ່ອງ	-4248
ຫຼຸດລົງ	-4249
▁ລູກຄ້າ	-4250
ບໍ່ມີການ	-4251
ລາຍລະອຽດ	-4252
▁Download	-4253
▁Shanghai	-4254
ຜົນສໍາເລັດ	-4255
ເລັກໂຕຣນິກ	-4256
▁ຄລິດສະຕຽນ	-4257
▁ການພັດທະນາ	-4258
▁ປະສິດທິພາບ	-4259
",	-4260
eth	-4261
ພືດ	-4262
▁2.	-4263
▁AS	-4264
ັກສະ	-4265
▁Med	-4266
▁ແຂນ	-4267
ເປົ໋າ	-4268
▁ອາໄສ	-4269
ແລະຜູ້	-4270
▁ແກ້ໄຂ	-4271
ບໍລິໂພກ	-4272
ສະຖາບັນ	-4273
ຮ່ວມກັນ	-4274
▁ລໍາບາກ	-4275
▁ສາດສະດາ	-4276
▁ຕ່າງໆທີ່	-4277
▁ປະຕິບັດຕາມ	-4278
65	-4279
Sh	-4280
▁້	-4281
ave	-4282
ນາມ	-4283
▁Bi	-4284
ctor	-4285
ລຸ້ນ	-4286
ເທົາ	-4287
▁70%	-4288
▁des	-4289
▁ທຽບ	-4290
▁Shop	-4291
▁ຂົ່ມ	-4292
▁ຮ່າງ	-4293
ຍລະມັນ	-4294
ຕົວຈິງ	-4295
າລະສານ	-4296
▁Dress	-4297
▁admin	-4298
ຂໍ້ຄວາມ	-4299
▁Twitter	-4300
▁ປ້ອງກັນ	-4301
ທີ່ດີເລີດ	-4302
ບາງສິ່ງບາງຢ່າງ	-4303
67	-4304
oud	-4305
urg	-4306
ປາກ	-4307
▁cm	-4308
▁ຍະ	-4309
▁ແບ	-4310
ຍ່າງ	-4311
ຢູ່ນ	-4312
ແທ້ໆ	-4313
▁HGH	-4314
▁Red	-4315
▁ຜົງ	-4316
ingle	-4317
ຖ້າຫາກ	-4318
▁ນ້ອຍໆ	-4319
▁ເຊົ້າ	-4320
▁ເຖົ້າ	-4321
ອຸປະກອນການ	-4322
▁ການລົງທຶນ	-4323
ຄວາມເປັນຈິງ	-4324
3)	-4325
ma	-4326
bal	-4327
ໃດໆ	-4328
▁am	-4329
ນິທິ	-4330
▁Cor	-4331
▁ຄົບ	-4332
9001,	-4333
ative	-4334
ຂອງໂລກ	-4335
ສໍາພັນ	-4336
▁motor	-4337
▁ເປົ່າ	-4338
urrency	-4339
ກິດຈະກໍາ	-4340
▁Bitcoin	-4341
▁ພື້ນຖານ	-4342
ເຊື່ອມໂຍງ	-4343
▁ການຜະລິດ	-4344
▁International	-4345
9,	-4346
EL	-4347
IF	-4348
www	-4349
▁Cr	-4350
▁PP	-4351
ຄ່ໍາ	-4352
ປາໄສ	-4353
▁Mod	-4354
▁ບາຍ	-4355
ified	-4356
▁2010	-4357
▁ເຢັນ	-4358
irtual	-4359
ຊຸກຍູ້	-4360
ວິນຍານ	-4361
▁ຄັ້ງທີ	-4362
▁ເອກະຊົນ	-4363
ທ່ານສາມາດ	-4364
▁ກິດຈະກໍາ	-4365
▁ປະຫວັດສາດ	-4366
ແສ	-4367
ING	-4368
rol	-4369
ທະນ	-4370
ລຸດ	-4371
▁DC	-4372
▁Me	-4373
▁ຫໍ	-4374
▁ແສ	-4375
-201	-4376
umin	-4377
▁Rel	-4378
▁ຫັດ	-4379
▁ໃດໆ	-4380
ivers	-4381
ັດເຈນ	-4382
▁ສະຫມ	-4383
ຕົວແທນ	-4384
ສະຫຼອງ	-4385
▁laser	-4386
▁ຂະຫຍາຍ	-4387
▁ໂດຍການ	-4388
ເອົາໃຈໃສ່	-4389
▁ຈຸດປະສົງ	-4390
▁ຍິນດີຕ້ອນຮັບ	-4391
MC	-4392
cel	-4393
ips	-4394
ວາຍ	-4395
olor	-4396
ນຸ່ງ	-4397
▁ຈົບ	-4398
▁ດູດ	-4399
▁ຟ້າ	-4400
ປະສານ	-4401
ມືກັບ	-4402
ສະບາຍ	-4403
▁Cont	-4404
▁ຫນອງ	-4405
▁ຮ້ອຍ	-4406
▁ແລ້ງ	-4407
ookies	-4408
ຂອງນັກ	-4409
ບັນຍັດ	-4410
ປະເມີນ	-4411
▁ກວ້າງ	-4412
ກັບຄວາມ	-4413
▁ໃນນັ້ນ	-4414
▁ຄວາມສູງ	-4415
▁ຄຸນນະພາບ	-4416
ຄໍາຮ້ອງສະຫມັກ	-4417
1%	-4418
37	-4419
6)	-4420
BS	-4421
TF	-4422
ແຫ	-4423
ໄທ	-4424
300	-4425
iao	-4426
ohn	-4427
ors	-4428
▁37	-4429
▁Ed	-4430
▁ແຊ	-4431
ings	-4432
ຂວັນ	-4433
ຈະມີ	-4434
ໂດລາ	-4435
▁USB	-4436
▁ຍົນ	-4437
▁ດອງ	-4438
elash	-4439
ຫ້ອງການ	-4440
▁ໄດ້ຮັບການ	-4441
ປູ	-4442
key	-4443
▁at	-4444
▁is	-4445
▁wh	-4446
▁ຊູ	-4447
▁ໂພ	-4448
oooo	-4449
ເບີດ	-4450
▁Ant	-4451
irect	-4452
ສະຕິກ	-4453
▁Zone	-4454
ມູນຄ່າ	-4455
ລວມທັງ	-4456
▁ດົນຕີ	-4457
▁ມີການ	-4458
ລະເມືອງ	-4459
▁ການຄ້າ	-4460
▁ຕໍ່ສູ້	-4461
▁ເຢໂຫວາ	-4462
ປະສິດທິຜົນ	-4463
▁ເຄື່ອງຕັດ	-4464
▁ອັດຕະໂນມັດ	-4465
5,	-4466
AP	-4467
LC	-4468
top	-4469
ແນນ	-4470
/201	-4471
ເຊີຍ	-4472
▁Spe	-4473
▁res	-4474
▁ແອວ	-4475
ສະມາຄົມ	-4476
ສັງເຄາະ	-4477
ຕັ້ງຂຶ້ນ	-4478
▁ຮ່າໂນ້ຍ	-4479
ocurrency	-4480
▁ຫນ້າທາງການ	-4481
ີງ	-4482
▁{	-4483
ids	-4484
lic	-4485
vin	-4486
ຍອດ	-4487
▁We	-4488
coot	-4489
ibbe	-4490
ideo	-4491
ສະຫລ	-4492
▁17,	-4493
▁Hot	-4494
▁Rik	-4495
▁ດັງ	-4496
ເລືອດ	-4497
▁Miss	-4498
▁Pack	-4499
ແຜນການ	-4500
ຄວາມຈິງ	-4501
ປົກປ້ອງ	-4502
▁Street	-4503
ສາດສະຫນາ	-4504
▁ບໍ່ແມ່ນ	-4505
ຄວາມສະອາດ	-4506
▁Industrial	-4507
ຂອງຜະລິດຕະພັນ	-4508
▁ພວກເຮົາສາມາດ	-4509
ຣດ	-4510
ush	-4511
ຂັດ	-4512
ຕີນ	-4513
▁Ge	-4514
▁Sch	-4515
▁Squ	-4516
▁ປັນ	-4517
ຊອບແວ	-4518
ຫນ່າຍ	-4519
ທີ່ໃຊ້	-4520
ທ່ານຈະ	-4521
ຸງແຕ່ງ	-4522
ກະສິກໍາ	-4523
ຮ່າໂນ້ຍ	-4524
ຕໍາແຫນ່ງ	-4525
▁ເວົ້າວ່າ	-4526
▁ສະບັບເລກທີ	-4527
ການຊໍາລະເງິນ	-4528
ext	-4529
lor	-4530
ນານ	-4531
ເນຍ	-4532
▁ac	-4533
▁ໄທ	-4534
ຫມາກ	-4535
▁Gro	-4536
▁ທອງ	-4537
▁ຜູກ	-4538
.2018	-4539
enoid	-4540
▁Tian	-4541
▁ອ້າງ	-4542
ຜູ້ນໍາ	-4543
້ວາງໃຈ	-4544
▁ພະຍາດ	-4545
ອາຍແກັສ	-4546
▁ບໍລິສຸດ	-4547
ການຄວບຄຸມ	-4548
ສື່ມວນຊົນ	-4549
າວິສາຫະກິດ	-4550
▁ການປ່ຽນແປງ	-4551
▁ວັດທະນະທໍາ	-4552
6,	-4553
▁(5	-4554
▁38	-4555
▁cs	-4556
ford	-4557
ກາເຟ	-4558
▁Bel	-4559
▁ຄຸມ	-4560
asino	-4561
ເຜົ່າ	-4562
▁Copy	-4563
▁ທ້ອງ	-4564
▁ມ່ວນ	-4565
▁ອາຊີ	-4566
ຄົ້ນຫາ	-4567
ຕົກລົງ	-4568
ພຣະອົງ	-4569
ໃນເວລາ	-4570
▁ປັນຍາ	-4571
ທຸກຢ່າງ	-4572
▁ສຸຂະພາບ	-4573
ໃນທົ່ວໂລກ	-4574
▁ເລີ່ມຕົ້ນ	-4575
▁ໂດຍສະເພາະ	-4576
▁ການເດີນທາງ	-4577
▁ຕິດຕໍ່ຕອນນີ້	-4578
1)	-4579
ໄອ	-4580
ier	-4581
ປ່າ	-4582
ຜົມ	-4583
ໄກ່	-4584
ໄລ່	-4585
▁CE	-4586
work	-4587
ເນີດ	-4588
▁ຕຶກ	-4589
ຈິດໃຈ	-4590
ຈຸລັງ	-4591
ຍັງມີ	-4592
▁ແຈ່ມ	-4593
ຊີ້ຂາດ	-4594
ສົມທົບ	-4595
▁ຂອບໃຈ	-4596
▁ມີຄ່າ	-4597
acebook	-4598
ສິ້ນສຸດ	-4599
▁ໃນຖານະ	-4600
▁ຂັ້ນຕອນ	-4601
▁ເຈົ້າກໍ	-4602
ຂ້າພະເຈົ້າໄດ້	-4603
TC	-4604
▁ະ	-4605
App	-4606
esh	-4607
▁CP	-4608
amic	-4609
ສບຸກ	-4610
ຫຍັດ	-4611
ຫນູນ	-4612
ition	-4613
ພຽງພໍ	-4614
▁Vacc	-4615
▁poly	-4616
▁ໂຫລດ	-4617
ທົນທານ	-4618
▁Light	-4619
ຕາຕະລາງ	-4620
ອາດສາມາດ	-4621
ML	-4622
pos	-4623
ven	-4624
ກູ້	-4625
ຈິນ	-4626
ເຈຍ	-4627
Tube	-4628
▁ກຽມ	-4629
ມີແສງ	-4630
ເຫຼີມ	-4631
່ານຫີນ	-4632
▁https	-4633
▁ແຫຼ່ງ	-4634
▁ການສຶກສາ	-4635
ຊັບພະຍາກອນ	-4636
ພວກເຮົາໄດ້	-4637
ຶມ	-4638
▁Uk	-4639
▁ນ້	-4640
ພາສີ	-4641
າວຸດ	-4642
ໂຫຼດ	-4643
ເວລານ	-4644
ເຫລືອ	-4645
▁Mini	-4646
▁ຫມອງ	-4647
ທາງເພດ	-4648
ວມເອົາ	-4649
▁width	-4650
▁ຄໍາຕອບ	-4651
▁ແຮງດັນ	-4652
▁ປະລິມານ	-4653
▁ປິ່ນປົວ	-4654
ຄວາມກົດດັນ	-4655
▁Instagram	-4656
▁ເພີ່ມຂຶ້ນ	-4657
ອົງການຈັດຕັ້ງ	-4658
ກິ	-4659
ade	-4660
ຜັນ	-4661
▁4,	-4662
rica	-4663
ຝ່າຍ	-4664
ະຊວງ	-4665
ເຊັນ	-4666
ເຜົາ	-4667
▁Gal	-4668
▁gal	-4669
▁ຄອມ	-4670
▁ຮາກ	-4671
ເພິ່ນ	-4672
▁Flat	-4673
▁Mold	-4674
ຍີ່ຫໍ້	-4675
ຜິດພາດ	-4676
ອໍານາດ	-4677
▁ການສະ	-4678
▁ແມ່ຍິງ	-4679
▁ແຕ່ລະຄົນ	-4680
▁ຜູ້ສະຫນອງ	-4681
:0	-4682
Hz	-4683
yn	-4684
ເຣ	-4685
ett	-4686
ມາກ	-4687
▁33	-4688
▁as	-4689
▁tr	-4690
▁ແຮ	-4691
ປ່ຽງ	-4692
ເລີຍ	-4693
ແຕ້ມ	-4694
▁ບົບ	-4695
▁ອົກ	-4696
ville	-4697
▁ຊ່ອງ	-4698
ibbean	-4699
ເສບຕິດ	-4700
▁Super	-4701
▁Whats	-4702
ເຊື່ອຖື	-4703
▁Middle	-4704
▁ຜູ້ທີ່	-4705
ຕໍ່ເນື່ອງ	-4706
▁Roulette	-4707
▁Caribbean	-4708
ການຄົ້ນຄວ້າ	-4709
."	-4710
oy	-4711
ava	-4712
isc	-4713
uts	-4714
ບົນ	-4715
ແຂນ	-4716
▁>>	-4717
▁Gu	-4718
▁ຖາ	-4719
ະນຸມ	-4720
ໃຫ້ນ	-4721
▁ຖຽງ	-4722
ລະວັງ	-4723
ເຄິ່ງ	-4724
ເຊົ່າ	-4725
່ອງໄວ	-4726
▁ຢ້ຽມ	-4727
▁ຫລີກ	-4728
▁ເຕົາ	-4729
ບັງຄັບ	-4730
ອັບເດດ	-4731
ປະລິມານ	-4732
▁ໄດ້ຖືກ	-4733
ອັນຕະລາຍ	-4734
▁ເສັ້ນໃຍ	-4735
ຄວາມຮູ້ສຶກ	-4736
ດໍາເນີນງານ	-4737
ທີ່ພວກເຂົາ	-4738
ເຫຼີມສະຫຼອງ	-4739
▁ການປະຕິບັດ	-4740
▁ໃນປັດຈຸບັນ	-4741
48	-4742
OP	-4743
▁6,	-4744
▁7,	-4745
▁Su	-4746
aper	-4747
atal	-4748
ylon	-4749
ຣິກາ	-4750
▁Mon	-4751
▁jet	-4752
▁pre	-4753
▁ຫົກ	-4754
▁ເຕກ	-4755
enter	-4756
ainless	-4757
ໄດ້ຢ່າງ	-4758
▁Africa	-4759
ຫນຶ່ງຂອງ	-4760
▁ບົດຄວາມ	-4761
▁ພື້ນທີ່	-4762
ອໍານວຍການ	-4763
▁ເພື່ອໃຫ້	-4764
▁ຮັບຜິດຊອບ	-4765
ທີ່ມີຊື່ສຽງ	-4766
ໂທລະສັບມືຖື	-4767
ຄະນະກໍາມະການ	-4768
ທີ່ໃຫຍ່ທີ່ສຸດ	-4769
3.	-4770
kw	-4771
.”—	-4772
rip	-4773
ພອນ	-4774
້ວງ	-4775
ຊື່ນ	-4776
ເວັບ	-4777
▁19,	-4778
▁RFC	-4779
▁ຍຸດ	-4780
▁ທູດ	-4781
▁ປ່າ	-4782
▁ສືບ	-4783
clone	-4784
ຕົວເອງ	-4785
ຜູ້ໃຊ້	-4786
▁Other	-4787
▁ອັດຕາ	-4788
▁ອາລົມ	-4789
ນະສົມບັດ	-4790
▁Vaccine	-4791
▁ອະນາຄົດ	-4792
▁ເຫລື້ອມ	-4793
▁Software	-4794
▁ເສດຖະກິດ	-4795
IP	-4796
ບຸ	-4797
ໄຈ	-4798
iam	-4799
iet	-4800
isa	-4801
ປາຍ	-4802
acks	-4803
izer	-4804
ຢ້ານ	-4805
ລຸ່ມ	-4806
ໄຟລ໌	-4807
▁Ext	-4808
▁Tra	-4809
▁ຝັນ	-4810
▁ຢາມ	-4811
ກວ່ານ	-4812
ເປົ່າ	-4813
▁Cast	-4814
cooter	-4815
ທີມງານ	-4816
ໄປບ່ອນ	-4817
▁Email	-4818
ພົບເຫັນ	-4819
ຫຼ້າສຸດ	-4820
ໂຄງສ້າງ	-4821
▁Dining	-4822
▁ທີ່ບໍ່	-4823
ລົງທະບຽນ	-4824
:5	-4825
BA	-4826
ຕຸ	-4827
▁\	-4828
sul	-4829
ສິບ	-4830
າດາ	-4831
perb	-4832
ຫມຶກ	-4833
▁220	-4834
▁cor	-4835
▁ຄຽດ	-4836
▁ທົບ	-4837
▁ປົດ	-4838
▁ສື່	-4839
-2018	-4840
ກະກຽມ	-4841
ຈະຖືກ	-4842
ຍາບັນ	-4843
ລິນຍາ	-4844
ືອບິນ	-4845
ແນໃສ່	-4846
▁ເຂັມ	-4847
andong	-4848
ຄຸນຄ່າ	-4849
ທົດແທນ	-4850
▁Green	-4851
▁ຊອບແວ	-4852
▁Double	-4853
▁Single	-4854
▁ບໍາລຸງ	-4855
ຫມາຍຄວາມ	-4856
▁ກະຕັນຍູ	-4857
▁Americas	-4858
▁ມັນສາມາດ	-4859
ໃນການຜະລິດ	-4860
▁ທີ່ດີທີ່ສຸດ	-4861
▁ຢ່າງໃດກໍຕາມ	-4862
46	-4863
7,	-4864
MS	-4865
PC	-4866
ຕານ	-4867
ຖີ່	-4868
້ຽວ	-4869
▁ທາ	-4870
oint	-4871
rade	-4872
▁Bas	-4873
▁iOS	-4874
▁ຂີ່	-4875
▁ຄອງ	-4876
▁ຊົງ	-4877
▁ດາບ	-4878
▁ຜິວ	-4879
▁2012	-4880
▁Ukra	-4881
▁yarn	-4882
ຕໍ່ການ	-4883
ບານເຕະ	-4884
ປະຫຍັດ	-4885
▁ກະທົບ	-4886
▁ເລົ່າ	-4887
ກຸນເງິນ	-4888
ຂ້າງເທິງ	-4889
ຫມັ້ນຄົງ	-4890
ໃນຂົງເຂດ	-4891
▁Oceania	-4892
ໂດຍສະເພາະ	-4893
▁Products	-4894
ດ້ານວິຊາການ	-4895
8)	-4896
ຈີ	-4897
fly	-4898
its	-4899
oto	-4900
ວາວ	-4901
ໂອນ	-4902
▁Br	-4903
here	-4904
ling	-4905
ster	-4906
ຊີວະ	-4907
ຕື່ມ	-4908
▁ລຸກ	-4909
▁ເລກ	-4910
▁Best	-4911
▁Fran	-4912
▁ຫລອດ	-4913
▁ເລີ່	-4914
ກະຕຸ້ນ	-4915
ແປພາສາ	-4916
ເອກະລັກ	-4917
▁Square	-4918
▁ກະຕຸ້ນ	-4919
perbaric	-4920
ການເມືອງ	-4921
ນ້ໍາຫນັກ	-4922
▁Rikoooo	-4923
ສະຖານະການ	-4924
emb	-4925
ize	-4926
ລໍ້	-4927
▁Kh	-4928
▁sk	-4929
dong	-4930
gden	-4931
ລ້າງ	-4932
▁ຂົນ	-4933
▁ຕີນ	-4934
▁ພິວ	-4935
ransp	-4936
ຕະພາບ	-4937
ຕະຫລາດ	-4938
ໂຮງແຮມ	-4939
▁China	-4940
▁ນໍາພາ	-4941
▁ແລະໃນ	-4942
ມັນເປັນ	-4943
ອົງປະກອບ	-4944
▁Shopify	-4945
▁YouTube	-4946
▁ຄ່າໃຊ້ຈ່າຍ	-4947
ແມ	-4948
-15	-4949
cer	-4950
▁ໄມ	-4951
.0.2	-4952
▁ດັນ	-4953
▁ແຍງ	-4954
ດົນຕີ	-4955
ຕິກໍາ	-4956
ັກນິກ	-4957
▁86-5	-4958
▁Serv	-4959
▁Tube	-4960
▁ປະຊາ	-4961
bygden	-4962
ຄາສິໂນ	-4963
ມາເຖິງ	-4964
ວິສະວະ	-4965
ະນຸມັດ	-4966
▁Video	-4967
▁ຄູ່ມື	-4968
ສອດຄ່ອງ	-4969
▁ເຈົ້າມີ	-4970
▁ປັດຈຸບັນ	-4971
ຂອງປະຊາຊົນ	-4972
ພວກເຮົາສາມາດ	-4973
.’	-4974
OW	-4975
ແບ	-4976
ays	-4977
raw	-4978
ຄຽງ	-4979
ຜັງ	-4980
▁kr	-4981
ance	-4982
ateg	-4983
▁1.5	-4984
▁John	-4985
▁ຖານະ	-4986
▁ປ້າຍ	-4987
▁ຫວັນ	-4988
terest	-4989
▁ເຫຼືອ	-4990
vanized	-4991
ຕະນາການ	-4992
▁Server	-4993
▁spring	-4994
▁ກັນດານ	-4995
▁ສູງສຸດ	-4996
ດ້ວຍຄວາມ	-4997
ສະພາບການ	-4998
▁Ukraine	-4999
▁bitcoin	-5000
▁ທໍາມະດາ	-5001
▁ຫນ້າທີ່	-5002
ຂອງຕົນເອງ	-5003
ຜົນໄດ້ຮັບ	-5004
ໃນປະຈຸບັນ	-5005
ການຄຸ້ມຄອງ	-5006
ປະຕິບັດຕາມ	-5007
▁ເອົາໃຈໃສ່	-5008
▁ຄວາມກົດດັນ	-5009
92	-5010
aud	-5011
ຈີ່	-5012
ອີ້	-5013
▁34	-5014
▁48	-5015
▁Sw	-5016
arin	-5017
ສະນີ	-5018
ຫຍໍ້	-5019
ໍເຕີ	-5020
▁110	-5021
▁Opt	-5022
▁Pan	-5023
▁ຈັນ	-5024
▁ດອນ	-5025
▁ຊ່ວງ	-5026
▁ຍື່ນ	-5027
▁ເຈັດ	-5028
▁ເລີດ	-5029
ບົດບາດ	-5030
▁iPhone	-5031
▁ອິນເດຍ	-5032
ຂອງປະເທດ	-5033
ທາງອາກາດ	-5034
ເສຍຊີວິດ	-5035
▁ທ່ານຮອງ	-5036
▁ພິທີການ	-5037
▁ນັບຕັ້ງແຕ່	-5038
ທີ່ມີປະສິດທິພາບ	-5039
".	-5040
7)	-5041
SS	-5042
rum	-5043
ຝັງ	-5044
ຟອມ	-5045
ອົດ	-5046
ຶ້ງ	-5047
ໂດດ	-5048
່ຽມ	-5049
ຫນົດ	-5050
▁ກົນ	-5051
edust	-5052
▁ມື້ນ	-5053
▁ໂຫຍດ	-5054
ຟື້ນຟູ	-5055
າງຫນ້າ	-5056
▁Solut	-5057
▁sales	-5058
▁ເຄືອບ	-5059
utterfly	-5060
ສ່ວນຮ່ວມ	-5061
▁ເອກະສານ	-5062
ຜ່າສູນກາງ	-5063
ໄປຢ້ຽມຢາມ	-5064
▁ດັ່ງກ່າວ	-5065
ພົນລະເມືອງ	-5066
ທີ່ສົມບູນແບບ	-5067
5%	-5068
ft	-5069
ວບ	-5070
AMI	-5071
ສີດ	-5072
ົາມີ	-5073
▁mod	-5074
▁ກະທ	-5075
oster	-5076
ຍາກາດ	-5077
▁ສະຫະ	-5078
▁ໂທລະ	-5079
ຮັບໃຊ້	-5080
ແຮງດັນ	-5081
ເຂົ້າໃນ	-5082
ແຫນງການ	-5083
▁ຄວບຄຸມ	-5084
ປັກຮັກສາ	-5085
ເລັກນ້ອຍ	-5086
ການພົວພັນ	-5087
ນໍາສະເຫນີ	-5088
ປະດິດສ້າງ	-5089
ຸດົມສົມບູນ	-5090
▁Holmbygden	-5091
66	-5092
72	-5093
MM	-5094
aj	-5095
345	-5096
iff	-5097
ros	-5098
rui	-5099
ຕັນ	-5100
ຢັດ	-5101
ລາມ	-5102
ຫົ່ມ	-5103
ເດີມ	-5104
ເຕີ້	-5105
ເປົາ	-5106
▁ກີດ	-5107
▁ຄາວ	-5108
▁ແງ່	-5109
▁ໄຫລ	-5110
Press	-5111
veyor	-5112
ຕະວັດ	-5113
ລົດໄຟ	-5114
▁ຄວ້າ	-5115
▁ທໍານ	-5116
▁ຮ້າງ	-5117
ມວນຜົນ	-5118
ຄົ້ນພົບ	-5119
ຫົວຫນ້າ	-5120
▁ສະທ້ອນ	-5121
ຕົວເມືອງ	-5122
▁Youjian	-5123
▁cookies	-5124
▁ທຸລະກິດ	-5125
ເຫລົ່ານີ້	-5126
▁ປະເທດຈີນ	-5127
▁Stainless	-5128
ຄວາມເປັນສ່ວນຕົວ	-5129
QS	-5130
SD	-5131
ij	-5132
ຊິ	-5133
ane	-5134
bon	-5135
box	-5136
inj	-5137
ink	-5138
ner	-5139
▁OD	-5140
▁SK	-5141
▁hy	-5142
9002	-5143
▁ກອບ	-5144
ສີຂາວ	-5145
▁Blog	-5146
▁Cage	-5147
▁ຜ່ອນ	-5148
▁ເຍີ້	-5149
ຂອງລັດ	-5150
▁ສັນຕິ	-5151
▁ພຣະຄໍາ	-5152
ຄັດເລືອກ	-5153
ຕັ້ງຢູ່ໃນ	-5154
ທີ່ຖືກຕ້ອງ	-5155
▁Polyester	-5156
▁ເຫຼົ່ານີ້	-5157
▁cryptocurrency	-5158
1-	-5159
?”	-5160
ມິ	-5161
ລໍ	-5162
ສຸ	-5163
▁·	-5164
ati	-5165
ose	-5166
ແກນ	-5167
▁9:	-5168
rick	-5169
ຕ່ອງ	-5170
▁11%	-5171
▁ຈອງ	-5172
▁ນາດ	-5173
▁ສົດ	-5174
ທິພົນ	-5175
▁2006	-5176
▁FAMI	-5177
▁ເຍາະ	-5178
▁Ideas	-5179
▁Smart	-5180
▁ສັດຕູ	-5181
ໂມເລກຸນ	-5182
▁ກ້າຫານ	-5183
▁ປະຫລາດ	-5184
ກວ່ານັ້ນ	-5185
▁Fitting	-5186
▁ແຕກຕ່າງ	-5187
ຂອງໂຄງການ	-5188
▁Shandong	-5189
ອະນຸຍາດໃຫ້	-5190
▁	-5191
aff	-5192
oph	-5193
uff	-5194
ພີມ	-5195
ແທກ	-5196
ໂຮມ	-5197
▁06	-5198
▁3.	-5199
▁FS	-5200
▁or	-5201
iver	-5202
rush	-5203
ລົ້ມ	-5204
▁Tur	-5205
▁ຄຸກ	-5206
▁ມົມ	-5207
▁ອັກ	-5208
uxury	-5209
ystem	-5210
▁ຫວອດ	-5211
▁ຫຼວດ	-5212
ຫນ້າຈໍ	-5213
ນ້ໍາມັນ	-5214
▁Machin	-5215
ທີ່ມີການ	-5216
ທີ່ມີຢູ່	-5217
ສ້າງຄວາມ	-5218
ຕື່ນເຕັ້ນ	-5219
▁ແມ່ນຫຍັງ	-5220
ປະຕິບັດການ	-5221
ແກ້ໄຂບັນຫາ	-5222
▁Pinterest	-5223
,,	-5224
84	-5225
ຖ່	-5226
ຢູ	-5227
▁ໍ	-5228
.10	-5229
uss	-5230
ດັດ	-5231
ໂສ້	-5232
iant	-5233
reak	-5234
ກ່ອງ	-5235
ຊ່ອງ	-5236
▁ລັນ	-5237
▁ອັບ	-5238
allet	-5239
ights	-5240
ລະປິນ	-5241
▁Arch	-5242
▁Page	-5243
▁ຊິ້ນ	-5244
▁ຫຼີກ	-5245
▁ເກີບ	-5246
eramic	-5247
ຜູ້ແທນ	-5248
▁ມາສູ່	-5249
▁ວັດຖຸ	-5250
▁ເພິ່ງ	-5251
limited	-5252
ຄຸນະພາບ	-5253
ຕາງຫນ້າ	-5254
ບໍ່ເຄີຍ	-5255
ປະຊາຄົມ	-5256
ແຕ່ລະຄົນ	-5257
ທີ່ສວຍງາມ	-5258
ຫາພວກເຮົາ	-5259
ແນວຄວາມຄິດ	-5260
ແສງສະຫວ່າງ	-5261
ເພື່ອເຮັດໃຫ້	-5262
KW	-5263
OL	-5264
PP	-5265
ym	-5266
alt	-5267
ild	-5268
olt	-5269
raz	-5270
ມິນ	-5271
ລາສ	-5272
ອອນ	-5273
ໄຫລ	-5274
▁5:	-5275
▁Is	-5276
▁PM	-5277
ຊຶ່ງ	-5278
ມະຫາ	-5279
ລົ້ນ	-5280
ອ້ອມ	-5281
▁(1)	-5282
▁20,	-5283
▁4.0	-5284
▁ຜ່າ	-5285
▁ພູມ	-5286
▁ໂຕ້	-5287
ກ້ວາງ	-5288
▁ສາມີ	-5289
▁ເຈ້ຍ	-5290
igital	-5291
ການຂາຍ	-5292
ຄັ້ງທີ	-5293
ນັກຮຽນ	-5294
ີ້ແມ່ນ	-5295
▁Games	-5296
ຂ້ອຍໄດ້	-5297
ຕ່ອງໂສ້	-5298
ທັດສະນະ	-5299
ບໍລິສຸດ	-5300
▁Design	-5301
▁ມົນທົນ	-5302
▁ສະຫລາດ	-5303
▁ອອກແບບ	-5304
▁ໃຫ້ການ	-5305
ກ້າວຫນ້າ	-5306
ທັນສະໄຫມ	-5307
ໂຮ່ຈີມິນ	-5308
▁ຂ່າວສານ	-5309
▁ບ່ອນທີ່	-5310
ໃນຂະນະທີ່	-5311
▁ຜົນກະທົບ	-5312
▁ອັດສະຈັນ	-5313
ທີ່ບໍ່ແມ່ນ	-5314
ຜູ້ຊ່ຽວຊານ	-5315
ຕິດຕໍ່ຕອນນີ້	-5316
▁‘	-5317
oss	-5318
ຈົບ	-5319
ຊວນ	-5320
ດົກ	-5321
ປີກ	-5322
▁FA	-5323
▁ບຸ	-5324
ness	-5325
ooth	-5326
ທ້າວ	-5327
ລ້ານ	-5328
ຫລ່ງ	-5329
ອຸ່ນ	-5330
ື້ອນ	-5331
▁Ben	-5332
▁Cap	-5333
▁Key	-5334
▁sup	-5335
▁ວາດ	-5336
ທະຫານ	-5337
▁ກ້ອງ	-5338
▁ມະຕະ	-5339
▁ຫມວດ	-5340
ວ່ອງໄວ	-5341
ໍລະດົກ	-5342
▁ເຄິ່ງ	-5343
ເບິ່ງຄື	-5344
ເພາະວ່າ	-5345
▁Univers	-5346
▁ຍຸຕິທໍາ	-5347
▁ຮູບເງົາ	-5348
ທົ່ວປະເທດ	-5349
ຢູ່ທີ່ນີ້	-5350
▁ສະພາບການ	-5351
ສາມາດໄດ້ຮັບການ	-5352
ຂໍ້ມູນເພີ່ມເຕີມ	-5353
pr	-5354
uc	-5355
itt	-5356
led	-5357
off	-5358
ຍົບ	-5359
ືລື	-5360
ໂຕ້	-5361
▁(2	-5362
▁1/	-5363
▁2:	-5364
▁AU	-5365
▁Fe	-5366
▁Sn	-5367
▁ກູ	-5368
ນໍ້າ	-5369
ເສີນ	-5370
▁0.1	-5371
▁61%	-5372
▁Jin	-5373
▁ປຸກ	-5374
ature	-5375
glass	-5376
ຄວນຈະ	-5377
▁Case	-5378
ຂັບລົດ	-5379
ສະທ້ອນ	-5380
ອິນເດຍ	-5381
ເກີນໄປ	-5382
▁2018,	-5383
▁Cheat	-5384
▁ຫລາຍໆ	-5385
ປະທັບໃຈ	-5386
▁Custom	-5387
▁ແຕ່ວ່າ	-5388
ຄວາມສ່ຽງ	-5389
ປະມວນຜົນ	-5390
ຫຼວງຫຼາຍ	-5391
▁Hengrui	-5392
▁ຂໍຂອບໃຈ	-5393
▁ຕໍ່ຫນ້າ	-5394
ຄຸນສົມບັດ	-5395
▁ການກໍ່ສ້າງ	-5396
An	-5397
sk	-5398
="1	-5399
alk	-5400
ປາດ	-5401
▁65	-5402
▁9,	-5403
▁Fo	-5404
▁an	-5405
▁ປິ	-5406
▁ໂຢ	-5407
▁ຄັດ	-5408
▁ຄົມ	-5409
▁ຕັນ	-5410
eless	-5411
ທັກສະ	-5412
ພີມມາ	-5413
ilicon	-5414
ຊັບສິນ	-5415
່າຍຮູບ	-5416
▁Group	-5417
ກັບທ່ານ	-5418
ສິ່ງນີ້	-5419
▁Provin	-5420
▁ບັງຄັບ	-5421
ການພະນັນ	-5422
ຈໍາຫນ່າຍ	-5423
▁ຂ້ອຍໄດ້	-5424
ຄ້າຍຄືກັນ	-5425
ທີ່ໄດ້ຮັບ	-5426
▁ກໍາມະການ	-5427
▁ການຄວບຄຸມ	-5428
97	-5429
OC	-5430
▁?	-5431
ກອບ	-5432
ລວງ	-5433
ົວກ	-5434
ເຈີ	-5435
▁DN	-5436
▁PL	-5437
ible	-5438
ives	-5439
onic	-5440
ລະດູ	-5441
▁10%	-5442
▁Aut	-5443
▁Box	-5444
▁Xin	-5445
▁ຝັງ	-5446
▁ໂຊກ	-5447
ັ່ງມີ	-5448
▁Hang	-5449
▁ສາຂາ	-5450
▁ເກາະ	-5451
▁ແຄ້ນ	-5452
ກັງວົນ	-5453
ທີ່ສູງ	-5454
▁ພາຍໃນ	-5455
ຫນູນຊ່ວຍ	-5456
ໃບອະນຸຍາດ	-5457
▁ສະລັອດຕິງ	-5458
▁ໂດຍທົ່ວໄປ	-5459
▁ແລະຫຼັງຈາກນັ້ນ	-5460
.)	-5461
ເຫ	-5462
▁—	-5463
TFE	-5464
ari	-5465
ກົມ	-5466
ລິບ	-5467
ແອວ	-5468
▁($	-5469
▁8:	-5470
▁AM	-5471
▁ບູ	-5472
rans	-5473
ລະບຸ	-5474
ເລ່ຍ	-5475
▁ປູກ	-5476
▁ແປດ	-5477
▁ໄຕ່	-5478
aster	-5479
ement	-5480
ປູເຈຍ	-5481
ລະບາດ	-5482
▁ເຕີມ	-5483
▁ເວທີ	-5484
▁ເສີນ	-5485
ບໍ່ແຮ່	-5486
ສະຕາລີ	-5487
ສະຫມອງ	-5488
▁ບາງທີ	-5489
ກໍາຫນົດ	-5490
▁ດຽວນີ້	-5491
▁ນາງໄດ້	-5492
▁ລາວໄດ້	-5493
▁ສໍານຶກ	-5494
▁ເອີຣົບ	-5495
ຕໍ່ໄປນີ້	-5496
ມັດລະວັງ	-5497
ຫຼາຍຢ່າງ	-5498
ເຮັດແນວໃດ	-5499
▁Province	-5500
▁ເກົ້າອີ້	-5501
ປະຕິບັດງານ	-5502
▁WordPress	-5503
▁ຄວາມສາມາດ	-5504
▁ວິສາຫະກິດ	-5505
▁ນອກຈາກນັ້ນ	-5506
▁ກຸ່ມນະໂຍບາຍ	-5507
91	-5508
ໄຕ	-5509
755	-5510
ces	-5511
uri	-5512
ຄຸກ	-5513
ຈື່	-5514
▁CR	-5515
▁pe	-5516
ໄຮໂດ	-5517
▁24,	-5518
▁ປຽບ	-5519
▁ມາກ	-5520
▁ມຸມ	-5521
color	-5522
cript	-5523
ength	-5524
ຊາກອນ	-5525
ພະຍົບ	-5526
ອອກມາ	-5527
▁Comm	-5528
▁High	-5529
▁ຄຣິດ	-5530
▁ບິດາ	-5531
▁ຢູ່ນ	-5532
ກໍາຈັດ	-5533
ສໍາພັດ	-5534
ແມ່ນມີ	-5535
ໃກ້ຊິດ	-5536
ວັດທະນາ	-5537
▁Dedust	-5538
▁lovers	-5539
▁ອັງກິດ	-5540
▁ທະນາຄານ	-5541
▁WhatsApp	-5542
▁ຂຽນເມື່ອ	-5543
▁ຄວາມຫມາຍ	-5544
▁ນອກເຫນືອ	-5545
▁Hyperbaric	-5546
▁ໃນຖານະເປັນ	-5547
ການເຊື່ອມຕໍ່	-5548
▁ພວກເຮົາມີຄວາມ	-5549
/0	-5550
PY	-5551
ji	-5552
mg	-5553
▁`	-5554
-19	-5555
osm	-5556
ຖີບ	-5557
ແກຼ	-5558
▁3:	-5559
▁CD	-5560
▁EV	-5561
▁ຜີ	-5562
▁ຫະ	-5563
gram	-5564
ັນທີ	-5565
▁ສູບ	-5566
▁ໄຫວ	-5567
ອາຈານ	-5568
▁PTFE	-5569
▁with	-5570
▁ລະດູ	-5571
▁ຫມັກ	-5572
▁ຮຸ່ງ	-5573
ຄິດໄລ່	-5574
ສະຫວັນ	-5575
eyelash	-5576
ກວມເອົາ	-5577
ປະຕິວັດ	-5578
ືລືລົ້ນ	-5579
▁Alumin	-5580
▁ຂອງການ	-5581
▁ແຜນຜັງ	-5582
ຊົນເຜົ່າ	-5583
▁ຈົດຫມາຍ	-5584
▁ປາຖະຫນາ	-5585
ບໍ່ພຽງແຕ່	-5586
ບໍ່ມີຄວາມ	-5587
ເລືອກເອົາ	-5588
ໃນອະນາຄົດ	-5589
▁ທີ່ໃຊ້ເວລາ	-5590
ຸດຄົ້ນບໍ່ແຮ່	-5591
▁ບັນຊີຜະລິດຕະພັນ	-5592
vc	-5593
ດີດ	-5594
ໂມນ	-5595
▁(0	-5596
▁Gh	-5597
▁Ha	-5598
▁ID	-5599
▁NO	-5600
▁ສິ	-5601
view	-5602
ລັອກ	-5603
ແກຼມ	-5604
▁Can	-5605
▁Cle	-5606
▁app	-5607
▁ກະດ	-5608
▁ຈັງ	-5609
▁ຊິດ	-5610
▁ທໍ້	-5611
ໃນເຂດ	-5612
▁mold	-5613
▁ທ່ຽວ	-5614
▁ຫນາວ	-5615
ສະຫງົບ	-5616
ເສຍຫາຍ	-5617
ໃຊ້ໄດ້	-5618
▁ລະບຽບ	-5619
▁Golden	-5620
▁ເບື້ອງ	-5621
ransposh	-5622
ຈັນຍາບັນ	-5623
▁ຄວາມທຸກ	-5624
▁ພາສາລາວ	-5625
▁ຄອມພິວເຕີ	-5626
ທີ່ທ່ານສາມາດ	-5627
ມະຫາວິທະຍາໄລ	-5628
ລະຫວ່າງປະເທດ	-5629
▁ນັກຄົ້ນຄວ້າ	-5630
ຂໍ້ມູນກ່ຽວກັບ	-5631
ep	-5632
to	-5633
als	-5634
gan	-5635
ຄົບ	-5636
ຕີກ	-5637
▁At	-5638
▁MT	-5639
▁ຂາ	-5640
sung	-5641
ທໍານ	-5642
ບ່າຍ	-5643
ິນາດ	-5644
ເສລີ	-5645
▁Ari	-5646
▁ຊັກ	-5647
▁ນາມ	-5648
▁ປັກ	-5649
▁ແຖວ	-5650
▁Iron	-5651
▁ທະເລ	-5652
▁ປຸ່ມ	-5653
▁ຫຼຽນ	-5654
▁ເຫັງ	-5655
rading	-5656
▁ປະພຶດ	-5657
ຕັ້ງຄ່າ	-5658
ບໍລິເວນ	-5659
ສໍາຫລັບ	-5660
ແລະເປັນ	-5661
▁Center	-5662
▁ກາງຄືນ	-5663
▁ບົດບາດ	-5664
▁ອົດທົນ	-5665
ຍັງສາມາດ	-5666
▁ການແກ້ໄຂ	-5667
▁ເຄືອຂ່າຍ	-5668
▁ໂຮ່ຈີມິນ	-5669
້ອງຖ່າຍຮູບ	-5670
▁ການປິ່ນປົວ	-5671
▁ສະຫງວນລິຂະສິດ	-5672
CN	-5673
EA	-5674
]:	-5675
oon	-5676
ດັງ	-5677
▁04	-5678
▁UK	-5679
ຈ້າງ	-5680
ຊັ່ນ	-5681
ດື່ມ	-5682
ດູແລ	-5683
▁San	-5684
▁can	-5685
▁per	-5686
▁ບາກ	-5687
▁ເກດ	-5688
▁ໂຣກ	-5689
ມານີ້	-5690
ຫົວໃຈ	-5691
▁ຂວັນ	-5692
▁ລຸ່ມ	-5693
▁ຫຼຸດ	-5694
▁ເສົາ	-5695
▁ແນັດ	-5696
ຊັດເຈນ	-5697
ດຶງດູດ	-5698
ທຽບໃສ່	-5699
ລາຍໄດ້	-5700
ວິທະຍາ	-5701
ສັບສົນ	-5702
ຮຸນແຮງ	-5703
າກຫຼາຍ	-5704
▁Theme	-5705
▁block	-5706
▁ຈາລຶກ	-5707
▁ມັນມີ	-5708
ກໍາເນີດ	-5709
ບ່ອນທີ່	-5710
ປະຈໍາປີ	-5711
ອຸດສາຫະ	-5712
▁ຊຸກຍູ້	-5713
▁ນັກຮຽນ	-5714
aricella	-5715
ບັນດານັກ	-5716
ະລູມິນຽມ	-5717
ຕາເວັນຕົກ	-5718
ໃບຢັ້ງຢືນ	-5719
▁Solutions	-5720
▁ບົດລາຍງານ	-5721
ບັນດາວິສາຫະກິດ	-5722
OD	-5723
ບູ	-5724
ION	-5725
red	-5726
ກຽດ	-5727
ເມນ	-5728
ແນະ	-5729
▁5,	-5730
▁CF	-5731
▁Di	-5732
anta	-5733
ຈົ່ງ	-5734
ຊ່ວງ	-5735
▁Ass	-5736
▁PCB	-5737
▁Rob	-5738
▁ປາຍ	-5739
▁ສຸມ	-5740
▁FXCL	-5741
▁Pump	-5742
▁jack	-5743
▁ທົ່ງ	-5744
verter	-5745
ຮ້ອງຂໍ	-5746
ເຫຼືອງ	-5747
▁Beach	-5748
▁Hebei	-5749
▁ແລະມີ	-5750
ຄວາມຮັກ	-5751
ຕ້ານທານ	-5752
ເຜີຍແຜ່	-5753
້ອນຂ້າງ	-5754
▁ຄົ້ນຫາ	-5755
▁ບົດຮຽນ	-5756
▁ປີແຫ່ງ	-5757
▁ເມື່ອຍ	-5758
▁ຮຽກຮ້ອງ	-5759
ຮ່ວມມືກັບ	-5760
▁ນັກສຶກສາ	-5761
▁ໃຫ້ຮູ້ວ່າ	-5762
ສະເຫຼີມສະຫຼອງ	-5763
,”	-5764
ໂຈ	-5765
pot	-5766
ຊິນ	-5767
ທຽມ	-5768
ມຸມ	-5769
▁TT	-5770
▁ວີ	-5771
ຫລວງ	-5772
▁28,	-5773
▁web	-5774
▁ຄຽງ	-5775
▁ປີກ	-5776
ຈະນໍາ	-5777
ຝຣັ່ງ	-5778
ອາຊຽນ	-5779
ເສື້ອ	-5780
ໍານານ	-5781
▁3000	-5782
▁Type	-5783
▁ຄ່ອຍ	-5784
▁ພົ້ນ	-5785
▁ລ້ອມ	-5786
▁ຫນົມ	-5787
▁ແຫວງ	-5788
▁Phone	-5789
▁ສົນໃຈ	-5790
▁ເດັ່ນ	-5791
unction	-5792
ເລື້ອຍໆ	-5793
ນັ້ນແມ່ນ	-5794
ຫັດສະຈັນ	-5795
ເປີດເຜີຍ	-5796
ແນ່ໃຈວ່າ	-5797
▁ສົນທະນາ	-5798
▁ເຂົ້າໃຈ	-5799
ການທົດລອງ	-5800
ພາກສະຫນາມ	-5801
ອມພິວເຕີ້	-5802
ທີ່ເຮັດໃຫ້	-5803
PE	-5804
▁→	-5805
ຍືດ	-5806
▁8,	-5807
▁La	-5808
▁RN	-5809
▁ຊມ	-5810
▁ເຝ	-5811
iler	-5812
mail	-5813
▁Rem	-5814
▁Tri	-5815
ລະບາຍ	-5816
ຫລາຍໆ	-5817
▁roll	-5818
▁ຖ້ວນ	-5819
▁ສະຫລ	-5820
▁ເມີດ	-5821
ກາກບອນ	-5822
ລະເບີດ	-5823
ວົງຈອນ	-5824
ສະນັ້ນ	-5825
ເສຍຄ່າ	-5826
▁ຊອກຫາ	-5827
▁ປະທັບ	-5828
▁ພິນາດ	-5829
▁ເຄັ່ງ	-5830
ດາວໂຫລດ	-5831
ຮ້າຍແຮງ	-5832
ະນິດສາດ	-5833
▁System	-5834
▁ເຟສບຸກ	-5835
ໃນມື້ນີ້	-5836
▁ວາລະສານ	-5837
▁ເຂົ້າມາ	-5838
▁ສະແຕນເລດ	-5839
ກົງກັນຂ້າມ	-5840
ວັດທະນາການ	-5841
▁Guangdong	-5842
▁Varicella	-5843
▁ລາຄາປົກກະຕິ	-5844
ຢ່າງຕໍ່ເນື່ອງ	-5845
▁ສະແດງໃຫ້ເຫັນ	-5846
▁ເຊັ່ນດຽວກັນກັບ	-5847
ທີ່ມີຄຸນນະພາບສູງ	-5848
ca	-5849
ຜະ	-5850
ແຟ	-5851
ໄນ	-5852
-12	-5853
Pro	-5854
amb	-5855
ata	-5856
con	-5857
ຄາວ	-5858
ຫຼີ	-5859
▁4.	-5860
▁bl	-5861
▁ຟູ	-5862
▁ລຸ	-5863
azon	-5864
ຫະນະ	-5865
ຮົ້ວ	-5866
▁23,	-5867
▁Glo	-5868
▁Ref	-5869
▁ຊ້າ	-5870
▁ຍອດ	-5871
antom	-5872
icker	-5873
ະນາໄມ	-5874
▁ຜູ້ນ	-5875
▁ເບີກ	-5876
▁Jiang	-5877
ຈັດສົ່ງ	-5878
ສອບເສັງ	-5879
ສິລະປິນ	-5880
ຫຼັກສູດ	-5881
ເຕັກນິກ	-5882
ສິນເຊື່ອ	-5883
▁Cyclone	-5884
▁Powered	-5885
▁ບໍລິຈາກ	-5886
▁ໃນເດືອນ	-5887
ຂອງເຄື່ອງ	-5888
ຜັນຂະຫຍາຍ	-5889
ສະລັອດຕິງ	-5890
▁ການແປພາສາ	-5891
▁ເປົ້າຫມາຍ	-5892
▁University	-5893
CE	-5894
cn	-5895
dy	-5896
ບາ	-5897
ຣິ	-5898
ags	-5899
ret	-5900
▁03	-5901
▁85	-5902
▁ST	-5903
▁co	-5904
▁ແຟ	-5905
char	-5906
ouch	-5907
ຫຼີກ	-5908
ໍ້ໄຟ	-5909
▁18,	-5910
▁Inc	-5911
▁One	-5912
▁Wir	-5913
▁ປອບ	-5914
▁ສະດ	-5915
▁ເບີ	-5916
▁ເປີ	-5917
ຍິນດີ	-5918
ປະຢັດ	-5919
ເສົ້າ	-5920
▁Java	-5921
▁ຖ່າຍ	-5922
▁ສະຫຼ	-5923
▁ຫວານ	-5924
ກອງທຶນ	-5925
ຂະແຫນງ	-5926
ໃຫ້ການ	-5927
ຖ້າທ່ານ	-5928
ຫນ້າຂອງ	-5929
ໃນບັນດາ	-5930
▁custom	-5931
ກໍານົດໄວ້	-5932
ສະກຸນເງິນ	-5933
ໃນລະຫວ່າງ	-5934
▁Copyshop	-5935
ສາດສະຫນາຈັກ	-5936
▁ຄວາມອາດສາມາດ	-5937
41	-5938
89	-5939
★★	-5940
ຝັນ	-5941
ລາງ	-5942
▁(4	-5943
▁TR	-5944
arch	-5945
ຄະດີ	-5946
ເສົາ	-5947
ແລ່ນ	-5948
ໂທຫາ	-5949
▁1.0	-5950
▁lot	-5951
▁ປອມ	-5952
▁ພັບ	-5953
▁ຮຽບ	-5954
ກິດຈະ	-5955
ຫນ່າງ	-5956
ເນັ້ນ	-5957
▁ມະຫາ	-5958
▁ເຍຊູ	-5959
▁ເສລີ	-5960
▁ແຕ່ວ	-5961
ຊີ້ວັດ	-5962
ລັດເຊຍ	-5963
ວາງແຜນ	-5964
▁ອາຊີບ	-5965
▁ເຫລັກ	-5966
▁ໃນຕອນ	-5967
▁ຢືນຢັນ	-5968
ຂ້ອນຂ້າງ	-5969
ລະບົບການ	-5970
▁ອານາຈັກ	-5971
ຄວາມສົນໃຈ	-5972
ສໍາລັບຜູ້	-5973
ເພີ່ມທະວີ	-5974
ພາຍໃນປະເທດ	-5975
ຮຽກຮ້ອງໃຫ້	-5976
ms	-5977
ສ໌	-5978
113	-5979
203	-5980
ago	-5981
ມຸດ	-5982
ີ້ມ	-5983
▁39	-5984
▁El	-5985
ager	-5986
aint	-5987
raph	-5988
ຫນາວ	-5989
ເມີດ	-5990
ເສີດ	-5991
▁900	-5992
▁ຂາວ	-5993
▁ປວງ	-5994
▁ໂມນ	-5995
ender	-5996
ກະທໍາ	-5997
ທີສາມ	-5998
ວັດຖຸ	-5999
▁ທ່າມ	-6000
ຕໍ່ສູ້	-6001
▁Motor	-6002
▁inter	-6003
▁ອຸທິດ	-6004
ຖ່ານຫີນ	-6005
ວ່າດ້ວຍ	-6006
ຫຍໍ້ຂອງ	-6007
ເດັກຍິງ	-6008
ເຮືອບິນ	-6009
▁ສົມລົດ	-6010
ຢ່າງເຕັມ	-6011
ຫຼາກຫຼາຍ	-6012
▁ເງິນຝາກ	-6013
ທີ່ຕ້ອງການ	-6014
ນັບຕັ້ງແຕ່	-6015
ຈະໄດ້ຮັບການ	-6016
ນັກຄົ້ນຄວ້າ	-6017
▁ໃນຄວາມເປັນຈິງ	-6018
ged	-6019
ລາດ	-6020
ສິງ	-6021
້ຽນ	-6022
▁0.	-6023
▁JW	-6024
▁ap	-6025
ເກີບ	-6026
ແຫວງ	-6027
ໂນ້ມ	-6028
▁(1,	-6029
▁125	-6030
▁130	-6031
▁Rot	-6032
▁ຝົນ	-6033
▁ຮອຍ	-6034
ຕະການ	-6035
ຫຼາຍໆ	-6036
▁(200	-6037
▁Seal	-6038
▁ລ່ຽງ	-6039
▁ຫລຸດ	-6040
ບໍາລຸງ	-6041
ເຂົາມີ	-6042
▁ບັນພະ	-6043
▁ຫຍຸ້ງ	-6044
▁ທາງວິນ	-6045
▁ພາຍໃຕ້	-6046
ສາສະຫມັກ	-6047
ອົບພະຍົບ	-6048
▁Digital	-6049
▁Samsung	-6050
▁ກໍ່ສ້າງ	-6051
ທາງສັງຄົມ	-6052
▁Aluminum	-6053
ຊ່ວຍໃຫ້ທ່ານ	-6054
▁ການຢັ້ງຢືນ	-6055
▁ຂຽນເມື່ອສຸດ	-6056
ດໍາເນີນທຸລະກິດ	-6057
▁ເສັ້ນໃຍສັງເຄາະ	-6058
IR	-6059
pa	-6060
pm	-6061
ye	-6062
ໍກ	-6063
800	-6064
bed	-6065
unn	-6066
ກຸມ	-6067
ແຈກ	-6068
ໂທດ	-6069
໊ອກ	-6070
▁se	-6071
▁ຫູ	-6072
guan	-6073
olis	-6074
ໍໂມນ	-6075
▁180	-6076
▁ພົວ	-6077
▁ສາກ	-6078
▁ໂຈມ	-6079
store	-6080
ນ້ອຍໆ	-6081
ຟຣິກາ	-6082
▁Char	-6083
▁Sand	-6084
▁ຄ່ໍາ	-6085
▁ປື້ມ	-6086
▁ຫນີ້	-6087
ulator	-6088
ຕະຫລອດ	-6089
ບາງຄົນ	-6090
▁Mount	-6091
▁Nylon	-6092
▁ບັນຈຸ	-6093
▁ປະສົງ	-6094
ຜົມສ່ວນ	-6095
▁ສືບຕໍ່	-6096
▁ໂຮງແຮມ	-6097
ຈົດທະບຽນ	-6098
▁ນ້ໍາມັນ	-6099
▁ແມ່ນການ	-6100
▁ໃນປະເທດ	-6101
▁ສົ່ງເສີມ	-6102
ເຊື່ອມໂລຫະ	-6103
▁ຖ້າຫາກວ່າ	-6104
▁ແລະພວກເຮົາ	-6105
69	-6106
71	-6107
GO	-6108
HS	-6109
UN	-6110
yt	-6111
ກີ	-6112
▁฿	-6113
ACK	-6114
umm	-6115
ves	-6116
ກາດ	-6117
ປະຖ	-6118
ເບີ	-6119
້ວມ	-6120
▁4:	-6121
▁By	-6122
ippi	-6123
ປ່ອງ	-6124
▁10,	-6125
▁11,	-6126
▁Arm	-6127
▁Bul	-6128
▁sol	-6129
ບຸລຸດ	-6130
ປະດັບ	-6131
▁Cent	-6132
▁Mill	-6133
▁Part	-6134
▁ປ່ຽງ	-6135
ກັນແລະ	-6136
ຊີ້ນໍາ	-6137
ຕີລາຄາ	-6138
ປະເຊີນ	-6139
ຸ່ນຍົນ	-6140
ໄດ້ຍິນ	-6141
▁Apple	-6142
▁Excel	-6143
▁ອາວຸດ	-6144
issippi	-6145
ແຜ່ນດິນ	-6146
ໄດ້ເຫັນ	-6147
▁ໂຮງງານ	-6148
ຢູ່ໃນການ	-6149
▁ພັກຜ່ອນ	-6150
▁ອະທິການ	-6151
▁ເຈົ້າຂໍ	-6152
ທີ່ຮູ້ຈັກ	-6153
▁Portable	-6154
ການບໍລິຫານ	-6155
ຂອງຫວຽດນາມ	-6156
ຜົມສ່ວນບົນ	-6157
ເປັນທາງການ	-6158
▁Changzhou	-6159
▁ຄວາມປອດໄພ	-6160
▁ຊ່ວຍເຫຼືອ	-6161
▁ຊື່ຫຍໍ້ຂອງ	-6162
▁ຄໍາຮ້ອງສະຫມັກ	-6163
LE	-6164
PR	-6165
SM	-6166
the	-6167
ກົວ	-6168
ຊະນ	-6169
ແກະ	-6170
▁44	-6171
▁AR	-6172
▁PH	-6173
▁Si	-6174
illa	-6175
rice	-6176
ຍ້ອງ	-6177
ສະດີ	-6178
ຫາລື	-6179
ເກົາ	-6180
ເທຣດ	-6181
ເພນີ	-6182
ໃຊ້ອ	-6183
▁Har	-6184
-2020	-6185
ກະດູກ	-6186
ຫນ່ວງ	-6187
ເຈັບປ	-6188
▁APEC	-6189
▁Chat	-6190
▁Hand	-6191
▁ກິໂລ	-6192
▁ລ້າງ	-6193
rusher	-6194
ສະຖິຕິ	-6195
▁ລະອຽດ	-6196
▁ອາການ	-6197
ຄົນເຈັບ	-6198
ຕີກະຊວງ	-6199
ເຮັດງານ	-6200
ໃນເດືອນ	-6201
▁Cheats	-6202
▁ແຜນການ	-6203
▁ສະມາຄົມ	-6204
ການເຕີບໂຕ	-6205
ທີ່ດີກວ່າ	-6206
ໂດຍທົ່ວໄປ	-6207
▁Conveyor	-6208
▁ຂະບວນການ	-6209
ການປ້ອງກັນ	-6210
ເຊົ້າວັນທີ	-6211
▁ເອເລັກໂຕຣນິກ	-6212
42	-6213
VN	-6214
hy	-6215
ka	-6216
tr	-6217
▁±	-6218
for	-6219
opt	-6220
ຍຸດ	-6221
ຕົງ	-6222
ບເບ	-6223
ມຸງ	-6224
▁02	-6225
▁BS	-6226
ayer	-6227
eter	-6228
ters	-6229
ພໍໃຈ	-6230
ສົ້ມ	-6231
▁21,	-6232
▁Per	-6233
▁Pur	-6234
▁Sim	-6235
▁ກົມ	-6236
▁ດີກ	-6237
▁ນຸດ	-6238
▁ອຶດ	-6239
▁ໂຕນ	-6240
ບເບິນ	-6241
ປານໃດ	-6242
ພະຈິກ	-6243
ົາລົບ	-6244
▁2005	-6245
▁Prec	-6246
▁Tour	-6247
▁back	-6248
andard	-6249
ສະເລ່ຍ	-6250
ເຕັມໄປ	-6251
▁Cloud	-6252
▁ອົງສາ	-6253
duction	-6254
ຕ້ອງໄດ້	-6255
ສ່ຽງໃຕ້	-6256
ອະທິຖານ	-6257
ເຂົ້າມາ	-6258
▁ຍອມຮັບ	-6259
▁ປັບປຸງ	-6260
▁ມັນໄດ້	-6261
ເປັນເວລາ	-6262
ເວທີປາໄສ	-6263
▁ກາຍເປັນ	-6264
▁ປະຕິເສດ	-6265
ຂອງພຣະອົງ	-6266
ບົດລາຍງານ	-6267
ເລື່ອງນີ້	-6268
ການແຂ່ງຂັນ	-6269
ຄອມພິວເຕີ້	-6270
ຄູ່ຮ່ວມງານ	-6271
ປະສົມປະສານ	-6272
▁ກະລຸນາໃສ່	-6273
▁ເຈົ້າຈຶ່ງ	-6274
▁ເພີ່ມເຕີມ	-6275
ຄວາມພະຍາຍາມ	-6276
▁ໄດ້ຈັດຕັ້ງ	-6277
▁ກ່າວຄໍາເຫັນ	-6278
▁ສໍາລັບຜູ້ຊາຍ	-6279
▁ເສັ້ນຜ່າສູນກາງ	-6280
1:	-6281
61	-6282
IV	-6283
OV	-6284
ຄໍ	-6285
ທາ	-6286
໊າ	-6287
use	-6288
ົ່ນ	-6289
ເກີ	-6290
ເມດ	-6291
ແກ້	-6292
▁AT	-6293
▁Li	-6294
▁OS	-6295
▁up	-6296
▁ຈໍ	-6297
form	-6298
ross	-6299
very	-6300
ຫລານ	-6301
▁2.5	-6302
▁Ang	-6303
▁Fer	-6304
▁Pat	-6305
▁Ray	-6306
▁Sou	-6307
erved	-6308
ກາຕູນ	-6309
ນະບົດ	-6310
▁Book	-6311
▁pump	-6312
ຕາມການ	-6313
ຕົວແບບ	-6314
ບັນດາກ	-6315
ວັດແທກ	-6316
ສັນຍານ	-6317
▁Crack	-6318
ກ່າວວ່າ	-6319
ຂຶ້ນກັບ	-6320
ຜ່ານການ	-6321
▁ທີ່ໄດ້	-6322
▁ປະຫວັດ	-6323
▁ເສຍຫາຍ	-6324
▁scooter	-6325
▁ກະເປົ໋າ	-6326
▁ບັນເທີງ	-6327
ຈັດອັນດັບ	-6328
ຕົ້ນສະບັບ	-6329
ການກໍ່ສ້າງ	-6330
ສິ່ງທີ່ທ່ານ	-6331
GB	-6332
VD	-6333
cy	-6334
ze	-6335
zz	-6336
-01	-6337
ara	-6338
hua	-6339
ird	-6340
stR	-6341
uge	-6342
ກະທ	-6343
ຮົບ	-6344
▁Dr	-6345
ragm	-6346
ຫນົມ	-6347
ຫວານ	-6348
▁22,	-6349
▁FAQ	-6350
▁Gas	-6351
▁Max	-6352
▁Roy	-6353
▁lad	-6354
▁ຍູ້	-6355
▁ທີມ	-6356
▁ຫິວ	-6357
▁ແກນ	-6358
rylic	-6359
ຄູ່ມື	-6360
ໄສທັດ	-6361
▁Plus	-6362
▁View	-6363
▁wood	-6364
▁ວິຊາ	-6365
▁ແຍ້ງ	-6366
ategor	-6367
ການພິມ	-6368
ດໍາລົງ	-6369
ບໍ່ຮູ້	-6370
ຜູ້ຄົນ	-6371
stRider	-6372
ມີຊີວິດ	-6373
ນຸ່ງຫົ່ມ	-6374
ສ້າງຂື້ນ	-6375
▁Service	-6376
oundation	-6377
▁ເຂົ້າກັນ	-6378
ວ່າມັນເປັນ	-6379
ເຖິງແມ່ນວ່າ	-6380
▁ແນວຄວາມຄິດ	-6381
▁ແລະພວກເຂົາ	-6382
▁ງານວາງສະແດງ	-6383
!”	-6384
--	-6385
43	-6386
82	-6387
IA	-6388
QL	-6389
bs	-6390
ha	-6391
vi	-6392
ທຸ	-6393
axy	-6394
ຊ້າ	-6395
▁Ox	-6396
▁SS	-6397
▁sm	-6398
▁ຈີ	-6399
▁ຊິ	-6400
▁ຝາ	-6401
▁ອິ	-6402
tery	-6403
ຊ່ອຍ	-6404
ນ້ອງ	-6405
ມ່ວນ	-6406
າວອນ	-6407
ເຈ້ຍ	-6408
ໄວວາ	-6409
▁10:	-6410
▁30%	-6411
▁380	-6412
▁CHF	-6413
▁ກວນ	-6414
▁ທຶນ	-6415
▁ທຽນ	-6416
▁ປຸງ	-6417
▁ລອຍ	-6418
▁ລີ້	-6419
▁ແດນ	-6420
▁ໂອ້	-6421
ທີ່ເຄ	-6422
ປະກົດ	-6423
ພະແນກ	-6424
າດຊາຍ	-6425
▁King	-6426
▁Pass	-6427
▁ຊ່າງ	-6428
▁ມິຕິ	-6429
▁ຫ້າມ	-6430
▁ອຸປະ	-6431
▁ອຸ່ນ	-6432
▁ເຊັບ	-6433
atalog	-6434
ທີ່ວ່າ	-6435
ບົດຮຽນ	-6436
ອັກສອນ	-6437
▁ມັນຈະ	-6438
▁ອີເມວ	-6439
aphragm	-6440
ການປ່ອຍ	-6441
ບົດຄວາມ	-6442
ປະກັນໄພ	-6443
ສັດລ້ຽງ	-6444
ອະນຸມັດ	-6445
ເອກະຊົນ	-6446
ໃນຊີວິດ	-6447
▁Amazon	-6448
▁Christ	-6449
▁casino	-6450
▁ບໍ່ໄດ້	-6451
▁ສະຖານີ	-6452
▁ສະຖາບັນ	-6453
ສະຫນາມບິນ	-6454
ສົມທົບກັບ	-6455
ແລະເຄື່ອງ	-6456
▁ດ້ວຍຄວາມ	-6457
▁ເຂັ້ມແຂງ	-6458
▁ຄຸນສົມບັດ	-6459
▁ໃນລະຫວ່າງ	-6460
ຫມາຍຄວາມວ່າ	-6461
ໃຫ້ເຂົາເຈົ້າ	-6462
ຄວາມຄິດສ້າງສັນ	-6463
ໄດ້ຢ່າງງ່າຍດາຍ	-6464
KG	-6465
ls	-6466
ກູ	-6467
ຫໍ	-6468
VAC	-6469
oor	-6470
ກວນ	-6471
ຂຸມ	-6472
ຍາມ	-6473
ຖອນ	-6474
ບຽງ	-6475
ລືມ	-6476
ອົກ	-6477
▁EN	-6478
▁It	-6479
oard	-6480
play	-6481
ປ້າຍ	-6482
ແຕ່ວ	-6483
▁Ber	-6484
▁GBP	-6485
▁Rad	-6486
▁Ult	-6487
▁ກູ້	-6488
▁ຄຶດ	-6489
▁ແພດ	-6490
▁ໂຕະ	-6491
ພະຍານ	-6492
ອາການ	-6493
▁Test	-6494
▁card	-6495
▁ກັ້ນ	-6496
▁ຊໍ້າ	-6497
▁ສໍ່າ	-6498
▁ໂດລາ	-6499
▁ໄຫມ້	-6500
ທິດຖານ	-6501
▁insul	-6502
▁Direct	-6503
▁ສອບຖາມ	-6504
▁ເຫລົ້າ	-6505
▁ເຫຼົ້າ	-6506
▁ຄວາມຍາວ	-6507
ລະດັບຄວາມ	-6508
ເນື່ອງຈາກ	-6509
▁Solenoid	-6510
▁Wireless	-6511
ໄດ້ຖືກນໍາໃຊ້	-6512
▁ເນື່ອງຈາກວ່າ	-6513
4.	-6514
51	-6515
EF	-6516
UB	-6517
UM	-6518
gy	-6519
ky	-6520
ຶບ	-6521
esc	-6522
ola	-6523
way	-6524
ຂີ່	-6525
ຊຶມ	-6526
ພັບ	-6527
ມໄຟ	-6528
ລອດ	-6529
ຮານ	-6530
ແຂກ	-6531
ແຍງ	-6532
▁Kn	-6533
▁Lo	-6534
▁Pa	-6535
ient	-6536
rost	-6537
ອະນຸ	-6538
▁Bay	-6539
▁Jun	-6540
▁Mel	-6541
▁Pip	-6542
▁gsm	-6543
▁ຖັດ	-6544
▁ໂຈນ	-6545
▁ໂພດ	-6546
imate	-6547
ບນ້ໍາ	-6548
ສະມັດ	-6549
ສະຫຼະ	-6550
ສີຂຽວ	-6551
ັດທະນ	-6552
▁Cart	-6553
▁Lock	-6554
▁inst	-6555
▁ຕົວະ	-6556
▁ເຈາະ	-6557
ຜູ້ຊົມ	-6558
ຜ່າຕັດ	-6559
ມິຖຸນາ	-6560
▁Flash	-6561
▁ຖົງມື	-6562
▁ສັ້ນໆ	-6563
ພຶດສະພາ	-6564
ຢູ່ເທິງ	-6565
ສ່ວນຂອງ	-6566
ຫລັງຈາກ	-6567
ເງິນຝາກ	-6568
▁online	-6569
ການແກ້ໄຂ	-6570
ຂອງເຈົ້າ	-6571
ປະກອບການ	-6572
▁ຕິດຕັ້ງ	-6573
▁ທ່າມກາງ	-6574
ສ່ວນປະກອບ	-6575
▁ອະທິດຖານ	-6576
▁ຮັບປະກັນ	-6577
ສອດຄ່ອງກັບ	-6578
▁ປີແຫ່ງວັນ	-6579
ທີ່ໄດ້ຮັບການ	-6580
ຜູ້ເຂົ້າຮ່ວມ	-6581
73	-6582
iy	-6583
▁≥	-6584
oot	-6585
ທອງ	-6586
ຢາຍ	-6587
ສືບ	-6588
ັກຄ	-6589
▁(6	-6590
▁58	-6591
▁6:	-6592
▁DR	-6593
▁PN	-6594
▁RF	-6595
▁TH	-6596
▁te	-6597
▁ຕູ	-6598
▁ນຸ	-6599
cept	-6600
itch	-6601
rome	-6602
ທະຍຸ	-6603
▁Bro	-6604
▁ITS	-6605
ounty	-6606
ຕໍ່ມາ	-6607
ທິການ	-6608
ລະຄອນ	-6609
ວບລວມ	-6610
ຫລິ້ນ	-6611
ອຸທິດ	-6612
ໃນວັນ	-6613
▁1200	-6614
▁Coin	-6615
▁ຟ້າວ	-6616
▁ຫວັດ	-6617
ລະເມີດ	-6618
ສອງສາມ	-6619
▁2019,	-6620
▁Board	-6621
▁ກະທູ້	-6622
ຊົ່ວໂມງ	-6623
ລາຄາຖືກ	-6624
ຫຸ້ມຂອງ	-6625
▁Tattoo	-6626
▁ທີ່ຖືກ	-6627
▁ສົມບັດ	-6628
▁ເລື່ອນ	-6629
osterone	-6630
ອີກເທື່ອ	-6631
ເວລານັ້ນ	-6632
ແບບຍືນຍົງ	-6633
ຄິດກ່ຽວກັບ	-6634
ເຮັດງານທໍາ	-6635
▁ການທົດສອບ	-6636
▁ຄວາມກວ້າງ	-6637
ອຸດົມສົມບູນ	-6638
▁ເມື່ອທຽບໃສ່	-6639
▁ການຝຶກອົບຮົມ	-6640
CO	-6641
TS	-6642
na	-6643
▁o	-6644
aki	-6645
ams	-6646
bit	-6647
nov	-6648
ລະດ	-6649
▁5.	-6650
▁Im	-6651
▁LC	-6652
▁NY	-6653
-200	-6654
ding	-6655
ດ່ວນ	-6656
ເກາະ	-6657
▁And	-6658
▁Fre	-6659
▁Led	-6660
ridge	-6661
ສະກັດ	-6662
▁Card	-6663
▁Foam	-6664
▁ຊ້ໍາ	-6665
▁ຕໍ່າ	-6666
▁ຫນາມ	-6667
▁ຫລົງ	-6668
zhuang	-6669
ຊານຕົງ	-6670
ທໍາລາຍ	-6671
ສະຫຼຸບ	-6672
ແລະບໍ່	-6673
ໂປແກຼມ	-6674
▁White	-6675
▁Zhong	-6676
▁ຄໍາພີ	-6677
▁ປະສົມ	-6678
ຄາດຫວັງ	-6679
ພັກຜ່ອນ	-6680
ຫ່າງຈາກ	-6681
▁ເຄື່ອນ	-6682
ກົດລະບຽບ	-6683
ຂອງບັນດາ	-6684
ບັນລຸໄດ້	-6685
ບ່າຍວັນທີ	-6686
ແລະແມ່ຍິງ	-6687
▁........	-6688
▁Fittings	-6689
▁ຕໍາແຫນ່ງ	-6690
▁ທ້ອງຖິ່ນ	-6691
▁ຢູ່ນະຄອນ	-6692
▁ເຈົ້າຍັງ	-6693
ມີສ່ວນຮ່ວມ	-6694
ເຄື່ອງຫມາຍ	-6695
ຂອງລັດຖະບານ	-6696
ເພື່ອນຮ່ວມງານ	-6697
ທີ່ກ່ຽວຂ້ອງກັບ	-6698
MA	-6699
RL	-6700
su	-6701
Jar	-6702
gsm	-6703
ike	-6704
nam	-6705
par	-6706
ຄົວ	-6707
ວອນ	-6708
ວານ	-6709
ິມະ	-6710
▁42	-6711
▁DJ	-6712
ield	-6713
ລ່າງ	-6714
ແຂ້ວ	-6715
▁(35	-6716
▁450	-6717
▁Bar	-6718
▁Bow	-6719
▁Lim	-6720
▁ຕານ	-6721
▁ຖອຍ	-6722
▁ທຶກ	-6723
inder	-6724
uitar	-6725
ຄະແນນ	-6726
ປີນີ້	-6727
ໍາລອງ	-6728
▁Aria	-6729
▁Jack	-6730
▁Mult	-6731
▁Roll	-6732
▁your	-6733
▁ຂວາງ	-6734
▁ອະນຸ	-6735
▁Basel	-6736
▁micro	-6737
▁ອຸດົມ	-6738
ບໍລິຈາກ	-6739
ປະຊາກອນ	-6740
ເນື້ອໃນ	-6741
▁ພູເຂົາ	-6742
▁ສື່ສານ	-6743
▁ສົມຄວນ	-6744
ພາດສະຕິກ	-6745
▁phantom	-6746
▁ຫ້ອງການ	-6747
▁Dongguan	-6748
▁ຈັດພີມມາ	-6749
ວ່າພວກເຂົາ	-6750
ສັງເກດເຫັນ	-6751
▁ເຊິ່ງເປັນ	-6752
ບັນຊີລາຍຊື່	-6753
▁ການຂົນສົ່ງ	-6754
ກັບຄືນໄປບ່ອນ	-6755
ເວົ້າກ່ຽວກັບ	-6756
mo	-6757
ັຍ	-6758
▁Φ	-6759
oop	-6760
ບິດ	-6761
ປູກ	-6762
▁IN	-6763
▁PE	-6764
▁Rd	-6765
ages	-6766
pson	-6767
udio	-6768
ປຸ່ມ	-6769
ລິມະ	-6770
ລ່ວງ	-6771
ເມັດ	-6772
▁(2)	-6773
▁AUD	-6774
▁Eng	-6775
▁mon	-6776
▁ດາຍ	-6777
ທີສອງ	-6778
▁2009	-6779
▁ຈະມີ	-6780
▁ແຮ່ງ	-6781
ຖະຫນົນ	-6782
ທິດທາງ	-6783
ຢືນຢັນ	-6784
ົດເຊີຍ	-6785
▁2019.	-6786
▁ງ່າຍໆ	-6787
▁ປະກົດ	-6788
▁ປຶກສາ	-6789
▁ລະວັງ	-6790
▁ເຍີ້ຍ	-6791
ຄວາມຮູ້	-6792
ປິ່ນປົວ	-6793
ລິເລີ່ມ	-6794
ຫຼັກການ	-6795
ຫຼາຍຄົນ	-6796
▁Flight	-6797
▁ຜູ້ຊາຍ	-6798
▁ແຕ່ມັນ	-6799
▁SlotJar	-6800
▁ຄໍາສັ່ງ	-6801
▁ຫນຶ່ງໃນ	-6802
ການທົດສອບ	-6803
ເພື່ອສ້າງ	-6804
▁ມື້ຫນຶ່ງ	-6805
ອາສາສະຫມັກ	-6806
ເຮັດໃຫ້ການ	-6807
▁ເພີ່ມທະວີ	-6808
ທີ່ທັນສະໄຫມ	-6809
ທີ່ເຂັ້ມແຂງ	-6810
eyelashstore	-6811
ຂອງພວກເຮົາມີ	-6812
ຢ່າງຫຼວງຫຼາຍ	-6813
▁ມະຫາວິທະຍາໄລ	-6814
**	-6815
58	-6816
79	-6817
AY	-6818
FF	-6819
600	-6820
ict	-6821
pal	-6822
rif	-6823
ຜັດ	-6824
ຜູກ	-6825
ຟິກ	-6826
ລະນ	-6827
ໂປຼ	-6828
້ວຍ	-6829
▁Ba	-6830
▁Hi	-6831
▁MB	-6832
▁ທຸ	-6833
oney	-6834
ານີ້	-6835
▁FSX	-6836
▁Jan	-6837
▁Sur	-6838
▁ຂີດ	-6839
▁ຮຸນ	-6840
orial	-6841
ກໍາໄລ	-6842
ຂອງປີ	-6843
ພັນທະ	-6844
ສີຟ້າ	-6845
ສົງໄສ	-6846
ີນ້ໍາ	-6847
ເປົ້າ	-6848
▁Wire	-6849
▁csgo	-6850
▁plug	-6851
▁ຕໍ່ໆ	-6852
▁ສ່ອງ	-6853
▁ຫນົນ	-6854
itting	-6855
ຊາຍແດນ	-6856
ທໍານຽມ	-6857
ພາຍນອກ	-6858
ໂດຍບໍ່	-6859
▁ລໍຖ້າ	-6860
▁ເຊືອກ	-6861
ທໍລະມານ	-6862
ເວລາດົນ	-6863
ໃນແຕ່ລະ	-6864
▁ປະເຊີນ	-6865
▁ວິສະວະ	-6866
▁ສະຫນາມ	-6867
ພຣະເຈົ້າ	-6868
ແມ່ເຫຼັກ	-6869
ໂລກລະບາດ	-6870
▁ແລະຄວາມ	-6871
▁ກ້າວຫນ້າ	-6872
▁ແທນທີ່ຈະ	-6873
ategorized	-6874
ຢ່າງວ່ອງໄວ	-6875
ເບື້ອງຕົ້ນ	-6876
▁ສໍານັກງານ	-6877
▁Foundation	-6878
▁ຄຸນນະສົມບັດ	-6879
ແລະການບໍລິການ	-6880
▁ເຮັດໃຫ້ມີແສງ	-6881
-9	-6882
63	-6883
II	-6884
OG	-6885
Th	-6886
ks	-6887
ັ໊	-6888
ເຖ	-6889
ໂຟ	-6890
250	-6891
des	-6892
elf	-6893
ora	-6894
ຍຸກ	-6895
ຖັງ	-6896
ທືນ	-6897
ວກະ	-6898
ື່ງ	-6899
ແຄມ	-6900
ແຖວ	-6901
▁54	-6902
▁Bu	-6903
▁Ly	-6904
ream	-6905
ກະສີ	-6906
ື່ອມ	-6907
ເບົາ	-6908
▁0.0	-6909
▁0.5	-6910
▁14,	-6911
▁Dub	-6912
▁Mal	-6913
▁are	-6914
▁ser	-6915
▁ຈອນ	-6916
▁ທະນ	-6917
▁ເອກ	-6918
▁ແຈກ	-6919
riend	-6920
thank	-6921
▁Mich	-6922
▁ປິ່ນ	-6923
ຈະແຈ້ງ	-6924
ນີ້ໄດ້	-6925
ປາຍທາງ	-6926
ພາຫະນະ	-6927
ສະຫມຸດ	-6928
▁10000	-6929
▁Model	-6930
▁ນິດໄສ	-6931
▁ປອດໄພ	-6932
▁ແຫລ່ງ	-6933
ທິດສະດີ	-6934
▁wooden	-6935
▁ນໍາໃຊ້	-6936
ພຶດຕິກໍາ	-6937
ຂອງຮູບພາບ	-6938
▁Facebook	-6939
▁ຄວາມເປັນ	-6940
▁ເຂົ້າຈີ່	-6941
▁ເຈົ້າຮູ້	-6942
▁ໃນມື້ນີ້	-6943
ການສໍາຫຼວດ	-6944
ສົ່ງເສີມການ	-6945
ໂດຍບໍ່ມີການ	-6946
▁ການຕິດຕັ້ງ	-6947
▁ບັນພະບຸລຸດ	-6948
ອີເມວຂອງທ່ານ	-6949
1.	-6950
BC	-6951
va	-6952
XVN	-6953
fer	-6954
ibr	-6955
val	-6956
ຖຽງ	-6957
ບວກ	-6958
▁09	-6959
▁CB	-6960
▁HP	-6961
▁My	-6962
▁Od	-6963
▁SD	-6964
▁im	-6965
3456	-6966
reen	-6967
ກັ້ນ	-6968
ກ້ອນ	-6969
ສໍານ	-6970
ເລີກ	-6971
▁2.0	-6972
▁350	-6973
▁CAD	-6974
▁Int	-6975
▁Tem	-6976
▁ກົກ	-6977
▁ມ້າ	-6978
ental	-6979
ethyl	-6980
ການໂທ	-6981
ພົບປະ	-6982
ສີດໍາ	-6983
ເຕົ້າ	-6984
ໍາໃຊ້	-6985
▁2008	-6986
▁86-1	-6987
▁Engl	-6988
▁Tool	-6989
▁cart	-6990
▁ດີ້ນ	-6991
▁ທ້ອນ	-6992
▁ລົ້ນ	-6993
▁ຫລາດ	-6994
ໃຫ້ນັກ	-6995
▁Jizer	-6996
▁crate	-6997
ຢູ່ບ່ອນ	-6998
ໃນລະດັບ	-6999
▁Luxury	-7000
▁ເງື່ອນ	-7001
▁ເຮົາຈະ	-7002
ຊົນນະບົດ	-7003
ເຂົ້າສູ່	-7004
▁ປະຊາຄົມ	-7005
ການປົກຄອງ	-7006
ຂໍ້ມູນທີ່	-7007
ຂອງທ່ານແລະ	-7008
ຈິນຕະນາການ	-7009
ທີ່ມີຢູ່ໃນ	-7010
ຫມູ່ເພື່ອນ	-7011
▁ຕັ້ງຢູ່ໃນ	-7012
▁ເຕັກໂນໂລຢີ	-7013
ເປັນເຈົ້າຂອງ	-7014
ຂອງພວກເຮົາໄດ້	-7015
▁ແຜນຜັງເວັບໄຊ	-7016
4:	-7017
ໄດ	-7018
ano	-7019
ica	-7020
izh	-7021
que	-7022
ດຸນ	-7023
ຢອກ	-7024
ຮາກ	-7025
▁Du	-7026
▁RM	-7027
▁ຄໍ	-7028
heel	-7029
oker	-7030
ກະແສ	-7031
ຕຸລາ	-7032
ຕໍ່າ	-7033
ສໍາມ	-7034
ຮຸ່ນ	-7035
ີດເພ	-7036
ຼລິກ	-7037
ເຢຊູ	-7038
▁3.0	-7039
▁ຄວບ	-7040
▁ຜືນ	-7041
▁ແຂກ	-7042
▁ໂງ່	-7043
ities	-7044
ອອກໄປ	-7045
ໃນທາງ	-7046
▁free	-7047
▁hand	-7048
▁ຈ້າງ	-7049
▁ພາລະ	-7050
▁ເບົາ	-7051
ີດເພີນ	-7052
▁Crypt	-7053
▁ທິພົນ	-7054
▁ພະແນກ	-7055
ຈັດຂຶ້ນ	-7056
ຖ່າຍຮູບ	-7057
ທຸກສິ່ງ	-7058
ພ້ອມກັບ	-7059
ສິ່ງເສດ	-7060
ຮູບຮ່າງ	-7061
ຽນລະພາບ	-7062
ໂຄງລ່າງ	-7063
▁Rights	-7064
▁ຄົນທີ່	-7065
▁ປຽບທຽບ	-7066
▁ລໍາດັບ	-7067
▁ໃນເວລາ	-7068
ຄະນິດສາດ	-7069
າກ່ຽວກັບ	-7070
ເບິ່ງແຍງ	-7071
▁Virtual	-7072
▁virtual	-7073
▁ຕ້ອນຮັບ	-7074
▁ຕໍ່ຕ້ານ	-7075
▁ປ່ຽນແປງ	-7076
ແລະມີຄວາມ	-7077
▁Reserved	-7078
▁ເປັນຕ້ອງ	-7079
ທັງຫມົດຂອງ	-7080
▁Machinery	-7081
ກໍາລັງຊອກຫາ	-7082
▁ສູດໂມເລກຸນ	-7083
ຕັ້ງຂຶ້ນໃນປີ	-7084
▁Meyelashstore	-7085
);	-7086
ຈາ	-7087
ຖບ	-7088
150	-7089
ope	-7090
ray	-7091
າວຸ	-7092
໊າຊ	-7093
▁08	-7094
▁66	-7095
▁Ag	-7096
▁DM	-7097
▁HB	-7098
▁PU	-7099
▁ຢູ	-7100
isco	-7101
ຫລົກ	-7102
ເກ່ຍ	-7103
ເຮັງ	-7104
▁16,	-7105
▁Cal	-7106
▁Dec	-7107
▁tra	-7108
▁ງຽບ	-7109
▁ບໍາ	-7110
▁ມອງ	-7111
osmos	-7112
right	-7113
ບໍ່ດີ	-7114
ຫຍື່ອ	-7115
▁Coil	-7116
▁Hong	-7117
▁Ninj	-7118
▁Rock	-7119
▁ຊຶ້ງ	-7120
▁ເຊັນ	-7121
apolis	-7122
ກົດຈິດ	-7123
ພັດທະນ	-7124
ພາກໃຕ້	-7125
ສະຖານີ	-7126
▁Gener	-7127
▁Linux	-7128
▁River	-7129
▁Sheet	-7130
▁Slots	-7131
▁Solom	-7132
▁ເກັ່ງ	-7133
.......	-7134
ວິທີທີ່	-7135
ໃນວັນທີ	-7136
▁ຕົກລົງ	-7137
▁ທີ່ນີ້	-7138
▁ລັດເຊຍ	-7139
▁ລາຍງານ	-7140
▁ລາຍຊື່	-7141
▁ສະຫມັກ	-7142
▁ສັບສົນ	-7143
▁ສົມທົບ	-7144
ໃຫຍ່ຫຼວງ	-7145
ໄຮໂດຼລິກ	-7146
▁ດ້ວຍການ	-7147
ຂໍ້ກໍານົດ	-7148
ໃນຕອນຕົ້ນ	-7149
▁Archives	-7150
▁ບາງເທື່ອ	-7151
ຫມັ້ນສັນຍາ	-7152
ເຊື່ອຖືໄດ້	-7153
ເວລາດຽວກັນ	-7154
ເຫຼົ່ານັ້ນ	-7155
▁transposh	-7156
▁ເມື່ອທ່ານ	-7157
ຄວາມເຂົ້າໃຈ	-7158
▁Mississippi	-7159
ຜູ້ໃຫ້ບໍລິການ	-7160
ສະຫະລັດອາເມລິກາ	-7161
49	-7162
LS	-7163
por	-7164
ume	-7165
ຄອມ	-7166
ຍໍາ	-7167
▁.:	-7168
▁72	-7169
▁DX	-7170
▁SH	-7171
▁SM	-7172
▁TS	-7173
▁Tw	-7174
▁ໃຫ	-7175
atin	-7176
atte	-7177
jack	-7178
onal	-7179
ກິ່ງ	-7180
ຊ້ໍາ	-7181
ສ້ອມ	-7182
▁1.2	-7183
▁Mag	-7184
▁Set	-7185
▁Tim	-7186
▁ຄົດ	-7187
▁ຊານ	-7188
▁ບັບ	-7189
▁ບົກ	-7190
▁ຟັນ	-7191
▁ລາມ	-7192
▁ຫັກ	-7193
ensor	-7194
ມັກຈະ	-7195
ມໍເຕີ	-7196
▁mult	-7197
▁ຕຸ້ນ	-7198
asting	-7199
ທຸກຍາກ	-7200
ສະຫຼາດ	-7201
ສົງຄາມ	-7202
ໃຫ້ກັບ	-7203
▁2018.	-7204
▁Dubai	-7205
▁Speed	-7206
▁ມຕົ້ນ	-7207
ຈຸດຫມາຍ	-7208
ສະຫະພັນ	-7209
ເຈັບປວດ	-7210
ໃຫມ່ຂອງ	-7211
ໄດ້ເຮັດ	-7212
▁(2015)	-7213
▁Global	-7214
▁Length	-7215
▁Office	-7216
▁ລັບການ	-7217
▁ຫນ້າຈໍ	-7218
▁ພ້ອມທັງ	-7219
ບັງຄັບໃຊ້	-7220
ສະຫນອງການ	-7221
ສໍາລັບທ່ານ	-7222
▁ຄໍາແນະນໍາ	-7223
▁ຜົນໄດ້ຮັບ	-7224
▁ຫນັກຫນ່ວງ	-7225
ເຊັ່ນດຽວກັນ	-7226
▁ອິນເຕີເນັດ	-7227
▁ແສງສະຫວ່າງ	-7228
▁ຄວາມຕ້ອງການ	-7229
62	-7230
ht	-7231
.99	-7232
EAN	-7233
USD	-7234
ift	-7235
omb	-7236
ren	-7237
ນິດ	-7238
ະລາ	-7239
ໂຊກ	-7240
▁43	-7241
▁51	-7242
▁95	-7243
▁PS	-7244
▁TC	-7245
▁TP	-7246
▁To	-7247
▁UN	-7248
eder	-7249
lymp	-7250
ract	-7251
ກະໂປ	-7252
ຂົ່ມ	-7253
ຫຍິບ	-7254
ແຍ້ງ	-7255
▁ABS	-7256
▁Mat	-7257
▁SKU	-7258
▁Soc	-7259
▁Str	-7260
▁ພຽນ	-7261
▁ໂດດ	-7262
ທັນວາ	-7263
ລໍຖ້າ	-7264
ເປືອກ	-7265
ເລເຊຍ	-7266
ເອົາມ	-7267
▁ITIL	-7268
▁Karn	-7269
▁Ther	-7270
▁plus	-7271
▁ຄື້ນ	-7272
▁ສ້ອມ	-7273
ອອນລາຍ	-7274
▁ຈິດໃຈ	-7275
ການສ້າງ	-7276
ຊັ້ນນໍາ	-7277
ດ້ວຍການ	-7278
ແຕ່ງງານ	-7279
▁ທົ່ວໄປ	-7280
▁ມູນຄ່າ	-7281
ອິດທິພົນ	-7282
າລະໂອກາດ	-7283
ໃນຕະຫຼາດ	-7284
▁ການປ່ອຍ	-7285
▁ບັງເກີດ	-7286
▁ສຸດທ້າຍ	-7287
ຈະເຮັດໃຫ້	-7288
ສັງເກດການ	-7289
ທີ່ມີຊີວິດ	-7290
ໃນປະເທດຈີນ	-7291
▁Butterfly	-7292
▁ພຣະບັນຍັດ	-7293
ບັນດາໂຄງການ	-7294
▁ເພື່ອແນໃສ່	-7295
ທີ່ຫນ້າສົນໃຈ	-7296
DA	-7297
OB	-7298
RP	-7299
Re	-7300
-00	-7301
ife	-7302
ior	-7303
lee	-7304
opp	-7305
pen	-7306
res	-7307
ບອດ	-7308
ຢືມ	-7309
ລຸກ	-7310
ຫົນ	-7311
ຫ້ວ	-7312
▁49	-7313
▁MP	-7314
▁la	-7315
▁we	-7316
alls	-7317
burg	-7318
user	-7319
ມະນາ	-7320
▁160	-7321
▁LLC	-7322
▁Oct	-7323
▁Pri	-7324
▁Ter	-7325
▁ben	-7326
▁sub	-7327
▁ຊວນ	-7328
▁ຕຶງ	-7329
▁ທອດ	-7330
▁ນິວ	-7331
▁ຮຽກ	-7332
light	-7333
otrop	-7334
posit	-7335
ພິການ	-7336
ໃນທຸກ	-7337
ໄປຍັງ	-7338
▁Idea	-7339
▁Wood	-7340
▁game	-7341
acking	-7342
rusion	-7343
ການປັບ	-7344
ຂອງພວກ	-7345
ຄໍາສັບ	-7346
ຍັງບໍ່	-7347
▁2017,	-7348
▁Inter	-7349
▁ນິຍົມ	-7350
ຊົດເຊີຍ	-7351
ມະນາຄົມ	-7352
ໄກ່ເກ່ຍ	-7353
▁123456	-7354
▁cheats	-7355
▁double	-7356
▁ການາດາ	-7357
▁ຈັດການ	-7358
▁ສິດສອນ	-7359
▁ເຈົ້ານ	-7360
ຈະໄດ້ຮັບ	-7361
ພາກເຫນືອ	-7362
▁ການອ່ານ	-7363
▁ມູນນິທິ	-7364
▁ຮ້າຍແຮງ	-7365
ification	-7366
ກ່ອນທີ່ຈະ	-7367
ທົນທານຕໍ່	-7368
ຮູ້ສຶກວ່າ	-7369
▁ເຖິງຢ່າງ	-7370
▁ໃນກໍລະນີ	-7371
▁ອົດສະຕາລີ	-7372
categorized	-7373
▁galvanized	-7374
ເຊື່ອມຕໍ່ກັບ	-7375
▁ພວກເຮົາແມ່ນ	-7376
▁ຄະນະກໍາມະການ	-7377
9%	-7378
AE	-7379
fe	-7380
ຍໍ	-7381
ມມ	-7382
ໂຣ	-7383
▁;	-7384
-86	-7385
acy	-7386
ais	-7387
ple	-7388
ຜັກ	-7389
ຣັດ	-7390
ວຽດ	-7391
ຫິດ	-7392
ແມງ	-7393
▁91	-7394
▁Ab	-7395
▁SP	-7396
▁TG	-7397
▁ra	-7398
▁ມໍ	-7399
avor	-7400
iece	-7401
long	-7402
orts	-7403
ກວາງ	-7404
ັກຄີ	-7405
ໄຫມ້	-7406
▁12:	-7407
▁ຂວດ	-7408
▁ຄັບ	-7409
▁ປີນ	-7410
▁ເມນ	-7411
▁ແບກ	-7412
ional	-7413
ision	-7414
ກຸມພາ	-7415
ຫາຍໄປ	-7416
ເທືອນ	-7417
ໄປທີ່	-7418
▁Inje	-7419
▁iPad	-7420
▁prin	-7421
▁ຄະດີ	-7422
▁ເສີດ	-7423
etooth	-7424
ຂອງຄົນ	-7425
ທ່າແຮງ	-7426
ຢູ່ກັບ	-7427
▁Giant	-7428
▁ຄືກັບ	-7429
▁ແນວໃດ	-7430
ຈໍາເພາະ	-7431
ຍັງເປັນ	-7432
ຜູ້ໃຫຍ່	-7433
ສໍາມະນາ	-7434
ແມ່ນຍໍາ	-7435
ໃນໂອກາດ	-7436
▁County	-7437
▁Driver	-7438
▁crypto	-7439
▁ສີເທົາ	-7440
▁ໄຕ່ຕອງ	-7441
inecolor	-7442
ຂອງຊີວິດ	-7443
ຍົກເວັ້ນ	-7444
▁ທ່ານນາງ	-7445
ຊ່ວຍເຫລືອ	-7446
ເລິກເຊິ່ງ	-7447
▁Solomons	-7448
▁ປ່ອງຢ້ຽມ	-7449
▁ເກີດຂຶ້ນ	-7450
ການທ່ອງທ່ຽວ	-7451
ດໍາລົງຊີວິດ	-7452
▁ກ່ຽວກັບການ	-7453
ສິ່ງເສດເຫຼືອ	-7454
ແລະພວກເຮົາຈະ	-7455
▁ມົນທົນຊານຕົງ	-7456
▁ກ່າວຄໍາເຫັນທີ່	-7457
54	-7458
GE	-7459
IM	-7460
LL	-7461
au	-7462
sy	-7463
ອຟ	-7464
”,	-7465
▁đ	-7466
.16	-7467
ຄາຍ	-7468
ດູນ	-7469
ນິວ	-7470
ຟຸກ	-7471
▁7:	-7472
▁Ga	-7473
auda	-7474
engo	-7475
luor	-7476
unch	-7477
ສັ່ນ	-7478
ໍາມາ	-7479
▁12,	-7480
▁15,	-7481
▁25,	-7482
▁car	-7483
▁ລົນ	-7484
▁ໄຖ່	-7485
▁ໄຫ້	-7486
allow	-7487
ພະລັງ	-7488
ລະພິດ	-7489
ສະມາດ	-7490
ຮໍໂມນ	-7491
ເຫລໍກ	-7492
▁Last	-7493
▁News	-7494
▁that	-7495
▁ສ່ຽງ	-7496
ipping	-7497
ທີ່ດິນ	-7498
ຜົນງານ	-7499
ພໍ່ແມ່	-7500
ລົງທືນ	-7501
ສົນທະນ	-7502
ແນວຄິດ	-7503
ແບບນີ້	-7504
▁South	-7505
▁dress	-7506
▁screw	-7507
▁ກະຈາຍ	-7508
ization	-7509
ຕົ້ນໄມ້	-7510
ປະລິນຍາ	-7511
ເຫັນໄດ້	-7512
ແນວໂນ້ມ	-7513
▁0086-5	-7514
▁Karnar	-7515
▁ກວດສອບ	-7516
▁ທີມງານ	-7517
▁ວຽກງານ	-7518
▁ເອື້ອມ	-7519
neapolis	-7520
ຈ່າຍເງິນ	-7521
ຢ່າງໄວວາ	-7522
ເຢຍລະມັນ	-7523
▁Casengo	-7524
▁ຈາກນັ້ນ	-7525
▁ມື້ນັ້ນ	-7526
▁ໂຄງສ້າງ	-7527
ຄູ່ຮ່ວມມື	-7528
ທາງການແພດ	-7529
ວ່າຈະເປັນ	-7530
ອາດຈະເປັນ	-7531
▁ການສະແດງ	-7532
▁ກໍາປູເຈຍ	-7533
▁ຫມັ້ນຄົງ	-7534
ການປົກປ້ອງ	-7535
ໂດຍຜ່ານການ	-7536
▁ການປັບປຸງ	-7537
▁ທ່ານອາດຈະ	-7538
▁ປະກອບສ່ວນ	-7539
ຄວາມຄິດເຫັນ	-7540
ສາທາລະນະສຸກ	-7541
ເອເລັກໂຕຣນິກ	-7542
ທີ່ຂ້າພະເຈົ້າ	-7543
▁ຜູ້ອໍານວຍການ	-7544
ພື້ນຖານເສດຖະກິດ	-7545
▁...............	-7546
GD	-7547
PA	-7548
li	-7549
ui	-7550
▁]	-7551
-30	-7552
="2	-7553
Air	-7554
Com	-7555
bar	-7556
een	-7557
ຈອດ	-7558
ທິນ	-7559
ລອຍ	-7560
ອາງ	-7561
ເທນ	-7562
ແປດ	-7563
▁kg	-7564
acet	-7565
amin	-7566
cial	-7567
head	-7568
ians	-7569
inal	-7570
ກາລະ	-7571
ຄ່ອຍ	-7572
ດີຈີ	-7573
ມຸ່ງ	-7574
ຫຸ້ນ	-7575
ຽງໄຮ	-7576
ເບີກ	-7577
ແນວນ	-7578
່ງໃສ	-7579
▁000	-7580
▁170	-7581
▁190	-7582
▁API	-7583
▁Bra	-7584
▁Gen	-7585
▁Hat	-7586
▁Sub	-7587
▁mac	-7588
▁nad	-7589
▁pet	-7590
▁ຢິວ	-7591
▁ໂລດ	-7592
aring	-7593
ocket	-7594
ຊຸມປີ	-7595
ຕິພາບ	-7596
ຖະແຫຼ	-7597
ລວມມີ	-7598
ລະດົມ	-7599
▁Flor	-7600
▁Link	-7601
▁Prof	-7602
▁Qual	-7603
▁wind	-7604
▁ຄຸ້ມ	-7605
▁ຍິ້ມ	-7606
▁ບັນດ	-7607
ກະເປົາ	-7608
ການແພດ	-7609
ຍົກສູງ	-7610
ຕົ້ນປີ	-7611
ລວບລວມ	-7612
ໂດຍໃຊ້	-7613
▁Hotel	-7614
ຄວາມສຸກ	-7615
ຫຸ່ນຍົນ	-7616
ເຖິງການ	-7617
▁ການພິມ	-7618
▁ຈະເປັນ	-7619
▁ຮຸນແຮງ	-7620
ເຂົ້າກັບ	-7621
▁Jizerou	-7622
▁ສິ່ງນີ້	-7623
ຖ້າຫາກວ່າ	-7624
ເປັນໄປໄດ້	-7625
ໃນໄລຍະຍາວ	-7626
▁ຫລາຍກວ່າ	-7627
ການຂົນສົ່ງ	-7628
ຍົກຕົວຢ່າງ	-7629
ແລະເຮັດໃຫ້	-7630
▁ນອກຈາກນີ້	-7631
▁ພິເສດແມ່ນ	-7632
▁ກົງກັນຂ້າມ	-7633
▁ຢູ່ຮ່າໂນ້ຍ	-7634
ໃນອຸດສາຫະກໍາ	-7635
ສະເພາະໃດຫນຶ່ງ	-7636
▁ການຊໍາລະເງິນ	-7637
▁Uncategorized	-7638
▁ຂຸດຄົ້ນບໍ່ແຮ່	-7639
ds	-7640
yr	-7641
400	-7642
FTA	-7643
ico	-7644
uki	-7645
ຊັນ	-7646
ຖອຍ	-7647
ບາບ	-7648
ມັງ	-7649
ເວີ	-7650
▁41	-7651
▁NZ	-7652
▁gl	-7653
▁vs	-7654
aker	-7655
ants	-7656
avic	-7657
ijia	-7658
ryst	-7659
uddy	-7660
yang	-7661
ມ້ວນ	-7662
ຫຼຽນ	-7663
ະນະນ	-7664
ືກັນ	-7665
▁(10	-7666
▁0.2	-7667
▁Act	-7668
▁Aug	-7669
▁Saf	-7670
▁Sar	-7671
▁Tab	-7672
▁rou	-7673
▁ທວນ	-7674
▁ບວກ	-7675
▁ປົວ	-7676
▁ເອີ	-7677
urity	-7678
venue	-7679
ກັບມາ	-7680
ກົນໄກ	-7681
ລະທໍາ	-7682
ັກຊີນ	-7683
ເລເຊີ	-7684
ໂບນັດ	-7685
ໄວ້ໃນ	-7686
▁Chem	-7687
▁List	-7688
▁Over	-7689
▁Tape	-7690
▁ຫລອກ	-7691
▁ເກົາ	-7692
▁ເຄາະ	-7693
▁ແຂ້ວ	-7694
▁ແຍ່ງ	-7695
▁ແຕ້ມ	-7696
ຂ້ອຍຈະ	-7697
ສູງແລະ	-7698
າຍຄວາມ	-7699
▁Cauda	-7700
▁Glass	-7701
▁Panel	-7702
▁Union	-7703
▁mavic	-7704
▁ປາກົດ	-7705
▁ສາເຫດ	-7706
ຍີ່ປຸ່ນ	-7707
ດີຈີຕອນ	-7708
ປະຕິເສດ	-7709
ຢ້ານກົວ	-7710
▁Fabric	-7711
▁ທີ່ສຸດ	-7712
▁ພາກຮຽນ	-7713
▁ສະແຫວງ	-7714
atalogue	-7715
ມິດຕະພາບ	-7716
ຫລາຍກວ່າ	-7717
ເຊື່ອວ່າ	-7718
ເຕີບໃຫຍ່	-7719
ເປັນຫຍັງ	-7720
▁English	-7721
▁ປະເທດໄທ	-7722
▁ສັດລ້ຽງ	-7723
ຖານຂໍ້ມູນ	-7724
ແມ່ນຢູ່ໃນ	-7725
ແສງຕາເວັນ	-7726
▁2006-2020	-7727
▁Guangzhou	-7728
▁ຂະແຫນງການ	-7729
ຜົນກະທົບຕໍ່	-7730
ເປັນມືອາຊີບ	-7731
▁ເຄື່ອງຫມາຍ	-7732
ທີ່ຈະເຮັດໃຫ້	-7733
ທີ່ເປັນໄປໄດ້	-7734
▁Minneapolis	-7735
▁ແຫຼ່ງຂໍ້ມູນ	-7736
ຜະລິດຕະພັນຫຼື	-7737
/5	-7738
Ar	-7739
Se	-7740
UT	-7741
Un	-7742
ะน	-7743
bag	-7744
ige	-7745
ots	-7746
son	-7747
ຕິນ	-7748
ປຽບ	-7749
▁46	-7750
▁Az	-7751
▁MS	-7752
▁RH	-7753
▁Wu	-7754
abol	-7755
ader	-7756
chat	-7757
raft	-7758
ພົ້ນ	-7759
ເພັດ	-7760
▁240	-7761
▁29,	-7762
▁50%	-7763
▁Rod	-7764
▁ext	-7765
▁ປອກ	-7766
▁ວັງ	-7767
▁ຫນູ	-7768
▁ອວດ	-7769
ather	-7770
lythe	-7771
offee	-7772
ution	-7773
ເຮົາມ	-7774
▁Belt	-7775
▁Visa	-7776
▁over	-7777
▁ເຄືອ	-7778
eboard	-7779
ension	-7780
ຄໍາຕອບ	-7781
ຕັ້ງໃຈ	-7782
ສໍາອາງ	-7783
ອີເມລ໌	-7784
ໄປສະນີ	-7785
▁TTXVN	-7786
▁Warin	-7787
▁super	-7788
ຈາກນັ້ນ	-7789
ດູດຝຸ່ນ	-7790
ວິຊາຊີບ	-7791
▁Commun	-7792
▁Island	-7793
▁Rotary	-7794
▁Shijia	-7795
▁design	-7796
▁ໂດຍບໍ່	-7797
ນັກສຶກສາ	-7798
ນໍາເຂົ້າ	-7799
▁Jiangsu	-7800
▁Program	-7801
▁ປະຈຸບັນ	-7802
▁ອາຍແກັສ	-7803
ທີ່ແນ່ນອນ	-7804
▁Pressure	-7805
ການຄາດຄະເນ	-7806
ຄົມມະນາຄົມ	-7807
ທີ່ຢູ່ອາໄສ	-7808
ສະດວກສະບາຍ	-7809
ສິ່ງທ້າທາຍ	-7810
ເຄື່ອນຍ້າຍ	-7811
ໃຫ້ພວກເຂົາ	-7812
▁Bluetooth	-7813
▁Injection	-7814
▁ທີ່ສໍາຄັນ	-7815
▁ເນັ້ນຫນັກ	-7816
ຂອງພຣະເຈົ້າ	-7817
ງານວາງສະແດງ	-7818
ປົກປັກຮັກສາ	-7819
▁Fiberglass	-7820
ສາມາດເຮັດໄດ້	-7821
ໃນການພັດທະນາ	-7822
▁Shijiazhuang	-7823
▁ລະບົບຕ່ອງໂສ້	-7824
▁ລະຫັດບໍລິສັດ	-7825
ທີ່ທ່ານຕ້ອງການ	-7826
ຢ່າງເປັນທາງການ	-7827
ສິ່ງທີ່ພວກເຮົາ	-7828
▁ຕອນເຊົ້າວັນທີ	-7829
bl	-7830
+00	-7831
-40	-7832
Bet	-7833
The	-7834
aft	-7835
bet	-7836
ced	-7837
get	-7838
ham	-7839
rit	-7840
rug	-7841
war	-7842
ຜົວ	-7843
ຫນູ	-7844
ຫລີ	-7845
ຫົກ	-7846
ແຕກ	-7847
ໂພງ	-7848
▁MY	-7849
fter	-7850
gang	-7851
inyl	-7852
ones	-7853
ຖ້ວນ	-7854
ປັ້ນ	-7855
ເຟີນ	-7856
ເລັງ	-7857
ເລີນ	-7858
ໄຫລ່	-7859
▁11:	-7860
▁700	-7861
▁Dom	-7862
▁Sec	-7863
▁Sit	-7864
▁Sun	-7865
▁USA	-7866
▁met	-7867
▁ງວນ	-7868
▁ຊັດ	-7869
▁ຕຽງ	-7870
▁ນົງ	-7871
▁ລຸງ	-7872
▁ແຫວ	-7873
▁ແອນ	-7874
▁ໂສດ	-7875
older	-7876
urner	-7877
wheel	-7878
ກະດານ	-7879
ກະບອກ	-7880
▁ຕ້ອນ	-7881
+00:00	-7882
ດຽວນີ້	-7883
ທີ່ເຄຍ	-7884
ພົບກັບ	-7885
ສອບຖາມ	-7886
ສູງຂອງ	-7887
ເຫັນດີ	-7888
ແຈກຢາຍ	-7889
▁House	-7890
▁Olymp	-7891
▁ພຽງພໍ	-7892
▁ເຊົ່າ	-7893
ຄາດຫມາຍ	-7894
ຊີວະພາບ	-7895
ອອກເປັນ	-7896
ຮ່ວມກັບ	-7897
▁ຊຸມຊົນ	-7898
▁ແມ່ຕູ້	-7899
ະພະຍາຍາມ	-7900
▁Company	-7901
▁Flatbed	-7902
▁ບໍລິເວນ	-7903
▁ໃນບັນດາ	-7904
ພື້ນເມືອງ	-7905
ວິສະວະກໍາ	-7906
ເພີ່ມຂື້ນ	-7907
▁Standard	-7908
▁tattoost	-7909
▁ລະຫັດການ	-7910
▁ເຈົ້າຂອງ	-7911
ເປັນຈໍານວນ	-7912
▁ຫົວຂໍ້ໄວ້	-7913
▁ໃບອະນຸຍາດ	-7914
▁ການຄຸ້ມຄອງ	-7915
▁ການຕໍ່ຕ້ານ	-7916
▁ງວນລິຂະສິດ	-7917
▁ຜູ້ຊ່ຽວຊານ	-7918
ດັ່ງຕໍ່ໄປນີ້	-7919
ສ່ວນໃຫຍ່ແມ່ນ	-7920
▁ການຄົ້ນຄວ້າ	-7921
ອີກເທື່ອຫນຶ່ງ	-7922
ເຫຼົ່ານີ້ແມ່ນ	-7923
ແລະການພັດທະນາ	-7924
▁ຕອນບ່າຍວັນທີ	-7925
ພື້ນຖານໂຄງລ່າງ	-7926
ເພີ່ມເຕີມກ່ຽວກັບ	-7927
CM	-7928
Pl	-7929
ih	-7930
ໄຍ	-7931
IAN	-7932
ana	-7933
elt	-7934
unt	-7935
ກ່າ	-7936
ເມຍ	-7937
▁Jo	-7938
▁di	-7939
▁sl	-7940
▁ss	-7941
▁ໄນ	-7942
-100	-7943
iner	-7944
roid	-7945
roll	-7946
ward	-7947
ຈະລາ	-7948
ຊຸ່ມ	-7949
ລັ່ງ	-7950
ຫມູນ	-7951
ຸດິບ	-7952
ແກັດ	-7953
ໂດເນ	-7954
▁86-	-7955
▁Apr	-7956
▁Atl	-7957
▁Day	-7958
▁Oxy	-7959
▁Pal	-7960
▁ter	-7961
▁ແສນ	-7962
▁ໂກງ	-7963
house	-7964
ipper	-7965
odium	-7966
ຈະໄດ້	-7967
ປະສິດ	-7968
ພາກສາ	-7969
ອາຄານ	-7970
ເລົ່າ	-7971
▁2021	-7972
▁Brow	-7973
▁mini	-7974
▁ທ່ຽງ	-7975
▁ນຶ່ງ	-7976
▁ສັ່ນ	-7977
▁ໂຫຼດ	-7978
estern	-7979
ລົງນາມ	-7980
ສະຫງວນ	-7981
ສົມຜົນ	-7982
ໃນຫ້ອງ	-7983
▁Saint	-7984
▁buddy	-7985
▁ສົງໄສ	-7986
utorial	-7987
ກໍລະກົດ	-7988
ທໍາມະດາ	-7989
ປຸງແຕ່ງ	-7990
ເຄົາລົບ	-7991
ເສັ້ນໃຍ	-7992
ໂດເນເຊຍ	-7993
▁Avenue	-7994
▁Thread	-7995
▁Turkey	-7996
▁ກອງທຶນ	-7997
▁ກັບການ	-7998
▁ບັນດານ	-7999
▁ຮັ່ງມີ	-8000
▁ເຫຍື່ອ	-8001
ຈະມາເຖິງ	-8002
ຍົກລະດັບ	-8003
ສິດທິບັດ	-8004
ສ່ວນຫຼາຍ	-8005
▁Manager	-8006
▁Package	-8007
▁ຂຶ້ນກັບ	-8008
▁ປະລິນຍາ	-8009
▁ມາເລເຊຍ	-8010
ກໍາລັງກາຍ	-8011
ຄ້າຍຄືກັບ	-8012
ເລືອກຕັ້ງ	-8013
▁modified	-8014
ຂອງອຸປະກອນ	-8015
ເຂົ້າລະຫັດ	-8016
ເຮັດວຽກຢູ່	-8017
ບັນຊີລາຍການ	-8018
▁ໄດ້ດໍາເນີນ	-8019
ໄດ້ຮັບລາງວັນ	-8020
▁ຈີນຜູ້ຜະລິດ	-8021
ຈຸດຫມາຍປາຍທາງ	-8022
▁ການເຊື່ອມຕໍ່	-8023
▁ຄວາມຫນາແຫນ້ນ	-8024
▁ວິວັດທະນາການ	-8025
ເພື່ອໃຫ້ໄດ້ຮັບ	-8026
3}	-8027
7.	-8028
IG	-8029
It	-8030
WS	-8031
ili	-8032
iti	-8033
ney	-8034
ສື່	-8035
ີເມ	-8036
ໂຍນ	-8037
▁BL	-8038
▁DS	-8039
▁cy	-8040
▁it	-8041
▁ທໍ	-8042
ipit	-8043
ktop	-8044
ຊື່ອ	-8045
ສະຕິ	-8046
ອ້າຍ	-8047
ເດັນ	-8048
ໃນສະ	-8049
ໄອທີ	-8050
▁101	-8051
▁13,	-8052
▁Koo	-8053
▁PET	-8054
▁off	-8055
▁ງົດ	-8056
▁ງົວ	-8057
▁ຈົງ	-8058
▁ຫົນ	-8059
fiber	-8060
indle	-8061
olone	-8062
ruity	-8063
ຖຸດິບ	-8064
ໄຂມັນ	-8065
▁Camb	-8066
▁Viet	-8067
▁Wars	-8068
▁blog	-8069
▁cont	-8070
▁ກິ່ນ	-8071
▁ພະຍຸ	-8072
▁ມຸ່ງ	-8073
▁ຮົ້ວ	-8074
▁ເມນູ	-8075
▁ແຫນງ	-8076
ograph	-8077
ຂອງຖົງ	-8078
ຊື່ສັດ	-8079
ຍັງໄດ້	-8080
ທີ່ມັນ	-8081
ສໍາຜັດ	-8082
ຫມໍ້ໄຟ	-8083
ແລະມັນ	-8084
ໂມຊັ່ນ	-8085
▁Innov	-8086
▁Organ	-8087
▁State	-8088
▁Touch	-8089
▁ຕາລາງ	-8090
ກະເປົ໋າ	-8091
ພາລະກິດ	-8092
ລູມິນຽມ	-8093
ສິນລະປະ	-8094
ຫັນປ່ຽນ	-8095
ເຂົ້າໄປ	-8096
▁86-574	-8097
▁ຄ້າຍຄື	-8098
▁ວ່າການ	-8099
▁ສິນຄ້າ	-8100
▁ເຫລືອງ	-8101
ປະເທດຊາດ	-8102
▁ກັນນ້ໍາ	-8103
▁ຄວາມວ່າ	-8104
▁ສະບາຍດີ	-8105
ວິທີແກ້ໄຂ	-8106
ຮ້ານອາຫານ	-8107
ໂດຍອີງໃສ່	-8108
ໃນພາກພື້ນ	-8109
▁ການບັນຈຸ	-8110
▁ຄວາມຮ້ອນ	-8111
▁ລ້ານໂດລາ	-8112
▁ສີເຫຼືອງ	-8113
▁ເຢຍລະມັນ	-8114
ທີ່ຈໍາເປັນ	-8115
ເຮັດວຽກກັບ	-8116
▁ຕົ້ນສະບັບ	-8117
▁ບໍ່ພຽງແຕ່	-8118
▁ເມື່ອເຮົາ	-8119
ສໍາພັດພາຍໃນ	-8120
ນັບຕັ້ງແຕ່ປີ	-8121
ຖ້າຫາກວ່າທ່ານ	-8122
▁ລະຫັດການປະກັນໄພ	-8123
":	-8124
93	-8125
HO	-8126
JS	-8127
df	-8128
nd	-8129
ຣມ	-8130
-16	-8131
24.	-8132
ere	-8133
eta	-8134
lam	-8135
pon	-8136
ser	-8137
ugh	-8138
ທີມ	-8139
ນ້ໍ	-8140
ັ໊ມ	-8141
ີ້ງ	-8142
ໂຈມ	-8143
▁!!	-8144
▁SE	-8145
▁do	-8146
▁em	-8147
▁gr	-8148
▁ກີ	-8149
▁ລື	-8150
2005	-8151
cont	-8152
ents	-8153
ishi	-8154
west	-8155
ທ້ວງ	-8156
ແກ່ນ	-8157
▁140	-8158
▁Pen	-8159
▁Pul	-8160
▁Tor	-8161
▁ind	-8162
▁ຍາຍ	-8163
▁ຍຸກ	-8164
▁ຍົງ	-8165
▁ທຽມ	-8166
▁ມວນ	-8167
▁ມຸງ	-8168
▁ລຸດ	-8169
▁ສາບ	-8170
▁ແມງ	-8171
amine	-8172
minal	-8173
ສາຍຕາ	-8174
ສີແດງ	-8175
▁4000	-8176
▁Code	-8177
▁Cool	-8178
▁Nash	-8179
▁Size	-8180
▁ຝັ່ງ	-8181
ຂອງຫົວ	-8182
ຈໍາລອງ	-8183
ປະຫລາດ	-8184
ປຽບທຽບ	-8185
ຢ່າງມີ	-8186
ລາສສິກ	-8187
ຫົນທາງ	-8188
ເຮັດໃນ	-8189
▁Price	-8190
▁ມະຊາດ	-8191
▁ສີຂຽວ	-8192
▁ເສຍໃຈ	-8193
ຂອງຂວັນ	-8194
ລິມະສິດ	-8195
ຫມັ້ນໃຈ	-8196
ອ້າງອີງ	-8197
ຮອບດ້ານ	-8198
ເປັນຄົນ	-8199
▁Market	-8200
▁Tagged	-8201
▁cosmos	-8202
▁ກໍາຈັດ	-8203
▁ຂະແຫນງ	-8204
▁ຂ້ອຍຈະ	-8205
▁ຈາກການ	-8206
▁ຕະຫຼາດ	-8207
▁ຕົວແທນ	-8208
▁ຢູ່ທີ່	-8209
▁ຮຽນຮູ້	-8210
▁ເສື່ອມ	-8211
▁ໂຮງຫມໍ	-8212
ຂອງລະບົບ	-8213
ທີ່ນິຍົມ	-8214
▁Trading	-8215
▁ແຂ່ງຂັນ	-8216
▁ແລະທ່ານ	-8217
Catalogue	-8218
ກັນແລະກັນ	-8219
ຂັບເຄື່ອນ	-8220
ຂໍ້ຕົກລົງ	-8221
ປະເມີນຜົນ	-8222
ເນັ້ນຫນັກ	-8223
▁ສ່ວນໃຫຍ່	-8224
ເບິ່ງຄືວ່າ	-8225
▁ການສະຫນອງ	-8226
▁ຕາເວັນອອກ	-8227
ສາມາດນໍາໃຊ້	-8228
ຄາຂອງພວກເຮົາ	-8229
ທໍາຄວາມສະອາດ	-8230
ມີການປ່ຽນແປງ	-8231
▁ສາດສະຫນາຈັກ	-8232
ສື່ມວນຊົນຍ່ອຍ	-8233
ທຸກສິ່ງທຸກຢ່າງ	-8234
ແລະຫຼັງຈາກນັ້ນ	-8235
ທີ່ຈະໃຫ້ພວກເຮົາ	-8236
ສະແດງໃຫ້ເຫັນວ່າ	-8237
ຕາເວັນອອກສ່ຽງໃຕ້	-8238
ລູກຄ້າຂອງພວກເຮົາ	-8239
,"	-8240
:.	-8241
BR	-8242
km	-8243
rd	-8244
za	-8245
-18	-8246
-25	-8247
-80	-8248
.05	-8249
ael	-8250
inn	-8251
ism	-8252
ler	-8253
ody	-8254
oug	-8255
ກີດ	-8256
ທຽນ	-8257
ປຸກ	-8258
ພວມ	-8259
ລ່າ	-8260
ຫອມ	-8261
໋ອງ	-8262
▁56	-8263
▁Go	-8264
▁Ma	-8265
▁Ru	-8266
▁Ta	-8267
▁ar	-8268
▁mg	-8269
▁ຜາ	-8270
▁ຣາ	-8271
ally	-8272
anda	-8273
berg	-8274
iano	-8275
ival	-8276
mmer	-8277
ພາລະ	-8278
ຫ້າມ	-8279
ຮ່ອງ	-8280
ໍານິ	-8281
▁195	-8282
▁Det	-8283
▁NZD	-8284
▁PHP	-8285
▁pvc	-8286
▁ຄາມ	-8287
▁ຊໍາ	-8288
▁ບ່າ	-8289
▁ລຽບ	-8290
▁ແຮ່	-8291
prise	-8292
ຖາວອນ	-8293
ນໍາພາ	-8294
ປະລາດ	-8295
ວັນນະ	-8296
ຫຍຸ່ນ	-8297
ໂຄວິດ	-8298
▁Doll	-8299
▁Ling	-8300
▁Paul	-8301
▁Phil	-8302
▁ບູຊາ	-8303
▁ມ້ວນ	-8304
▁ອ້ອນ	-8305
▁ແຂ່ງ	-8306
ຂຶ້ນໄປ	-8307
ຍັງຄົງ	-8308
ດອກໄມ້	-8309
ະລັດຖະ	-8310
▁2020,	-8311
▁©2005	-8312
▁ກາຕູນ	-8313
▁ຖັດໄປ	-8314
▁ພັນລະ	-8315
ຈະລາຈອນ	-8316
ຍ້ອນວ່າ	-8317
ປັບແຕ່ງ	-8318
໊ອກນ້ໍາ	-8319
▁Galaxy	-8320
▁ກັງວົນ	-8321
▁ຊື່ວ່າ	-8322
▁ຕົ້ນຕໍ	-8323
▁ໂຄສະນາ	-8324
ທີ່ມາຈາກ	-8325
ພຣະວິຫານ	-8326
▁Casting	-8327
▁ຄໍາເຫັນ	-8328
▁ທີ່ເປັນ	-8329
▁ລັງເຮັດ	-8330
▁ສອດຄ່ອງ	-8331
▁ແຕ່ຂ້ອຍ	-8332
▁ໂມເລກຸນ	-8333
▁ໃນວັນທີ	-8334
ຂໍ້ສະເຫນີ	-8335
ພວກເຂົາມີ	-8336
ມີຄວາມສຸກ	-8337
ຫວັງວ່າຈະ	-8338
▁ຮອງປະທານ	-8339
ພາສາອັງກິດ	-8340
ເຕັມໄປດ້ວຍ	-8341
▁ການທົດລອງ	-8342
▁ຄົນອັບເດດ	-8343
▁ລະຫັດພາສີ	-8344
▁ເທົ່ານັ້ນ	-8345
▁©2005-2018	-8346
ດ້ານຈັນຍາບັນ	-8347
ຄໍາຫມັ້ນສັນຍາ	-8348
ຄວາມສາມາດໃນການ	-8349
▁ຕິດຕໍ່ພວກເຮົາ	-8350
FS	-8351
LP	-8352
ຄ່	-8353
ິມ	-8354
2.1	-8355
car	-8356
ixi	-8357
lan	-8358
lud	-8359
mon	-8360
ral	-8361
ຊັກ	-8362
ບໄຊ	-8363
ຢ່າ	-8364
▁2)	-8365
▁52	-8366
▁eB	-8367
akes	-8368
atur	-8369
flix	-8370
icle	-8371
inch	-8372
rent	-8373
ຄລິກ	-8374
ຕົວກ	-8375
ທ້ອງ	-8376
ນາທີ	-8377
ຝ້າຍ	-8378
ພາລາ	-8379
ລິຍາ	-8380
ອັກຄ	-8381
າກອນ	-8382
▁(19	-8383
▁750	-8384
▁Cup	-8385
▁Mer	-8386
▁Out	-8387
▁Rom	-8388
▁ant	-8389
▁fil	-8390
▁opt	-8391
▁rot	-8392
▁ບູນ	-8393
▁ແລກ	-8394
izhou	-8395
ສິກອນ	-8396
ອະດີດ	-8397
▁Hero	-8398
▁Nick	-8399
▁Oper	-8400
▁Thom	-8401
▁comp	-8402
▁pass	-8403
▁ຈົ່ມ	-8404
▁ຍ່ອຍ	-8405
▁ມຸ້ງ	-8406
▁ຫຍ້າ	-8407
▁ຫລັບ	-8408
▁ເຄັດ	-8409
ຕົວເລກ	-8410
ແຂງແຮງ	-8411
ໂຕ້ຕອບ	-8412
▁Conne	-8413
▁favor	-8414
▁ກໍ່ຄື	-8415
▁ອາດຈະ	-8416
▁ເຝົ້າ	-8417
▁ແຫນ່ງ	-8418
ບາງຄັ້ງ	-8419
ປະຊາຊາດ	-8420
ປະທັບຕາ	-8421
ລຸ່ມນີ້	-8422
ວິໄສທັດ	-8423
▁plugin	-8424
ຄົນຫນຶ່ງ	-8425
ຍືດຫຍຸ່ນ	-8426
ມົນລະພິດ	-8427
ວກະສິກອນ	-8428
ແຕ່ວັນທີ	-8429
ແມ່ນຫຍັງ	-8430
▁Ceramic	-8431
▁Express	-8432
▁charter	-8433
▁ລ້ານຄົນ	-8434
ສາຍພົວພັນ	-8435
ະລັດຖະທູດ	-8436
▁ລັດຖະມົນ	-8437
▁ອົງປະກອບ	-8438
▁ເຖິງແມ່ນ	-8439
▁ເວົ້າຂອງ	-8440
ການຕິດຕັ້ງ	-8441
ຂອງພຣະຄຣິດ	-8442
▁Blackjack	-8443
ກ່ຽວຂ້ອງກັບ	-8444
ເປັນປົກກະຕິ	-8445
▁ດ້ວຍຫົວຂໍ້	-8446
▁ພວກເຂົາໄດ້	-8447
ການຊ່ວຍເຫຼືອ	-8448
ອັກຄະລັດຖະທູດ	-8449
ແລະຜະລິດຕະພັນ	-8450
ແລະຄວາມຕ້ອງການ	-8451
▁ພວກເຮົາກໍາລັງ	-8452
▁ອົງການຈັດຕັ້ງ	-8453
▁ການປ່ອຍສິນເຊື່ອ	-8454
CI	-8455
DS	-8456
lr	-8457
ດດ	-8458
▁່	-8459
ena	-8460
ras	-8461
utt	-8462
zip	-8463
ຈອກ	-8464
ຊ່າ	-8465
ນົມ	-8466
▁5%	-8467
▁64	-8468
▁93	-8469
▁MA	-8470
▁NE	-8471
▁Pu	-8472
▁sw	-8473
▁ໃຍ	-8474
flex	-8475
neum	-8476
oriz	-8477
ຄະຕິ	-8478
ດ່ຽວ	-8479
ວິໄຈ	-8480
ອາໃສ	-8481
າກັບ	-8482
ແອັດ	-8483
ໆທີ່	-8484
▁(25	-8485
▁115	-8486
▁230	-8487
▁Bus	-8488
▁GPS	-8489
▁Pos	-8490
▁TED	-8491
▁Vol	-8492
▁bon	-8493
▁ຄອຍ	-8494
▁ຄານ	-8495
▁ຕອງ	-8496
▁ຖອນ	-8497
▁ຜົມ	-8498
etate	-8499
iness	-8500
leton	-8501
oline	-8502
proof	-8503
rader	-8504
ພິບັດ	-8505
ເຮົານ	-8506
ໍານຶງ	-8507
▁Call	-8508
▁Feng	-8509
▁Open	-8510
▁this	-8511
▁ທະວີ	-8512
google	-8513
ຄ້າຍຄື	-8514
ຖະແຫຼງ	-8515
ມະເລັງ	-8516
ຢູ່ນີ້	-8517
ສໍາພາດ	-8518
ອະນາໄມ	-8519
ອົງກອນ	-8520
▁Clash	-8521
▁Enter	-8522
▁Poker	-8523
▁Range	-8524
▁ຝຣັ່ງ	-8525
▁ພັກດີ	-8526
ຂຸດຄົ້ນ	-8527
ຂໍຂອບໃຈ	-8528
ຄວາມຈໍາ	-8529
ຮູບຖ່າຍ	-8530
ເອກະລາດ	-8531
▁Engine	-8532
▁ຊໍານານ	-8533
▁ລົດຖີບ	-8534
▁ວິທະຍຸ	-8535
▁ສັນຍານ	-8536
ateboard	-8537
ຍາກທີ່ຈະ	-8538
ບັນດາການ	-8539
ປະຈໍາວັນ	-8540
ສ້າງຂຶ້ນ	-8541
ອອກແບບມາ	-8542
▁acrylic	-8543
▁ທ່ານບໍ່	-8544
▁ຮຽບຮ້ອຍ	-8545
ຄ່ໍາວັນທີ	-8546
ປຶກສາຫາລື	-8547
ເຫດສົມຜົນ	-8548
▁Deduster	-8549
▁ກິໂລແມັດ	-8550
▁ສິນລະທໍາ	-8551
▁ເວທີປາໄສ	-8552
ມີຄວາມສ່ຽງ	-8553
ຢູ່ທີ່ນັ້ນ	-8554
ລະມັດລະວັງ	-8555
ເວລາດົນນານ	-8556
ເຫລົ່ານັ້ນ	-8557
▁Converter	-8558
▁ຄະນະກໍາມະ	-8559
▁ຜົນປະໂຫຍດ	-8560
ກ່ຽວກັບຄວາມ	-8561
ຜົນກະທົບຂອງ	-8562
ອຸນຫະພູມສູງ	-8563
▁ເດືອນມິຖຸນາ	-8564
ທີ່ທ່ານໄດ້ຮັບ	-8565
ທີ່ເປັນປະໂຫຍດ	-8566
ເພື່ອຮັບປະກັນ	-8567
▁ສ້າງຕັ້ງຂຶ້ນ	-8568
FL	-8569
TH	-8570
UV	-8571
gu	-8572
hi	-8573
ko	-8574
yi	-8575
ໂຫ	-8576
INE	-8577
dra	-8578
irc	-8579
ouk	-8580
pad	-8581
une	-8582
ura	-8583
ຂວາ	-8584
ງວດ	-8585
ປອງ	-8586
ປອມ	-8587
ອານ	-8588
ເອດ	-8589
ໄຂ່	-8590
▁89	-8591
▁98	-8592
▁RS	-8593
▁Sl	-8594
▁no	-8595
▁sn	-8596
▁{_	-8597
▁ຟີ	-8598
▁ໂຮ	-8599
emap	-8600
ixer	-8601
ject	-8602
ober	-8603
ຊະນີ	-8604
ທ່ອງ	-8605
ປັ່ນ	-8606
ປຶ້ມ	-8607
ພ່ອງ	-8608
ລິຍະ	-8609
ໂຊຕາ	-8610
▁360	-8611
▁Ink	-8612
▁Lot	-8613
▁ODM	-8614
▁cat	-8615
▁spe	-8616
▁ste	-8617
▁ລາງ	-8618
▁ແຕະ	-8619
other	-8620
phone	-8621
umblr	-8622
ກັນຍາ	-8623
ີດີໂອ	-8624
ໄປຈາກ	-8625
້ນ້ໍາ	-8626
▁2030	-8627
▁Snap	-8628
▁ຫມຶກ	-8629
ດູດຊຶມ	-8630
ບໍ່ໃຫ້	-8631
ປົກຄອງ	-8632
ອົດທົນ	-8633
ແລະນັກ	-8634
▁Clear	-8635
▁Grand	-8636
▁Pharm	-8637
▁forex	-8638
▁hydro	-8639
▁ຄ່ອຍໆ	-8640
▁ພາກັນ	-8641
▁ສະດວກ	-8642
ທ່ານເອງ	-8643
ຫັນເປັນ	-8644
ໃນລະບົບ	-8645
▁Option	-8646
▁roller	-8647
▁ຊີ້ຂາດ	-8648
▁ທ່ານມີ	-8649
▁ນັ້ນຄື	-8650
▁ສີນ້ໍາ	-8651
ທີ່ຈະນໍາ	-8652
ປາດຖະຫນາ	-8653
ປ່ອງຢ້ຽມ	-8654
ສະແດງອອກ	-8655
ສັນຍາລັກ	-8656
ແບບພິເສດ	-8657
ໂດຍບໍ່ມີ	-8658
▁Netflix	-8659
▁ຄວາມຖີ່	-8660
▁ຜິວຫນັງ	-8661
▁ສໍາຫລັບ	-8662
▁ໂທລະພາບ	-8663
plication	-8664
ຂະຫນາດກາງ	-8665
ຂະແຫນງການ	-8666
▁Chemical	-8667
▁Koowheel	-8668
▁Passport	-8669
▁favorite	-8670
▁ບັນຍາກາດ	-8671
▁ແລະເມື່ອ	-8672
ການເດີນທາງ	-8673
ບໍລິສັດທີ່	-8674
ແລະປະຕິບັດ	-8675
▁Nashville	-8676
▁ການໂຄສະນາ	-8677
▁ຕົວຊີ້ວັດ	-8678
▁ເລືອກເອົາ	-8679
ມານະພະຍາຍາມ	-8680
ສາມາດໃຊ້ໄດ້	-8681
▁Production	-8682
▁ການປ້ອງກັນ	-8683
ທີ່ຄ້າຍຄືກັນ	-8684
▁ພວກເຮົາຕ້ອງ	-8685
ທາງດ້ານການເງິນ	-8686
▁ຂໍ້ມູນຈໍາເພາະ	-8687
ລັດຖະມົນຕີກະຊວງ	-8688
64	-8689
-60	-8690
.06	-8691
.30	-8692
ada	-8693
ali	-8694
ily	-8695
jet	-8696
rig	-8697
ຝູງ	-8698
ສະນ	-8699
ືອຍ	-8700
ໄຫ້	-8701
ໄຮ້	-8702
່ວິ	-8703
▁..	-8704
▁1%	-8705
▁47	-8706
▁RO	-8707
▁TV	-8708
▁UL	-8709
▁px	-8710
▁ຖຸ	-8711
▁ຣິ	-8712
ific	-8713
isha	-8714
mont	-8715
uter	-8716
ກ໊າຊ	-8717
ບົ່ມ	-8718
ີເມວ	-8719
▁-20	-8720
▁26,	-8721
▁Acc	-8722
▁DIN	-8723
▁Imp	-8724
▁Reg	-8725
▁dev	-8726
▁par	-8727
▁str	-8728
▁ງຫາ	-8729
▁ນາໆ	-8730
▁ແທກ	-8731
▁ໂທຣ	-8732
28113	-8733
aging	-8734
ieces	-8735
ility	-8736
ludge	-8737
ments	-8738
ophil	-8739
ກໍ່ຈະ	-8740
ສາດສະ	-8741
ີມ່ວງ	-8742
ໂມສອນ	-8743
▁6000	-8744
▁Back	-8745
▁CNIL	-8746
▁Song	-8747
▁Work	-8748
▁mach	-8749
▁type	-8750
▁ປ່ຽວ	-8751
ກົນຈັກ	-8752
ຄົງທີ່	-8753
ປະທ້ວງ	-8754
ປະເສີດ	-8755
ແບບຟອມ	-8756
ໃນຄວາມ	-8757
▁Epson	-8758
▁Khaki	-8759
▁Paris	-8760
▁Skype	-8761
▁Water	-8762
▁gener	-8763
▁ກະດູກ	-8764
▁ພິສູດ	-8765
▁ເດີ່ນ	-8766
rugated	-8767
ການເປັນ	-8768
ຂັ້ນສູງ	-8769
ດ້ານການ	-8770
ມະຫາຊົນ	-8771
ແມ່ນບໍ່	-8772
▁Oxygen	-8773
▁ບາງຄົນ	-8774
▁ໄບເບິນ	-8775
alloween	-8776
ດົນມານີ້	-8777
ທາດເຫຼັກ	-8778
ທີ່ບໍ່ດີ	-8779
ຢາເສບຕິດ	-8780
ເຕົ້າໂຮມ	-8781
ແຜ່ກະຈາຍ	-8782
ໃນຮູບແບບ	-8783
ໄວ້ວາງໃຈ	-8784
▁1528113	-8785
▁Bowflex	-8786
▁Quality	-8787
▁ພ້ອມກັບ	-8788
▁ມໍລະດົກ	-8789
ຄຣິດສະມາດ	-8790
ທີ່ຈະເປັນ	-8791
ນະຄອນຫຼວງ	-8792
ສະຫນອງໃຫ້	-8793
ແມ່ນເພື່ອ	-8794
▁ສາທາລະນະ	-8795
▁ສ້າງຕັ້ງ	-8796
▁ເຈົ້າຢາກ	-8797
▁ເວົ້າລົມ	-8798
ກະຕືລືລົ້ນ	-8799
ຄວາມເສຍຫາຍ	-8800
ຄຸນະພາບສູງ	-8801
ຕ່າງໆເຊັ່ນ	-8802
▁unlimited	-8803
▁ສະຖານະການ	-8804
▁ອະລູມິນຽມ	-8805
ຄຸນນະສົມບັດ	-8806
ທີ່ເກີດຂື້ນ	-8807
ມີຄວາມສາມາດ	-8808
▁ການປົກປ້ອງ	-8809
▁ຂະຫນາດນ້ອຍ	-8810
▁ມັນບໍ່ແມ່ນ	-8811
ທີ່ກໍານົດໄວ້	-8812
ສົມເຫດສົມຜົນ	-8813
▁ດໍາລົງຊີວິດ	-8814
▁ຈໍານວນຕົວແບບ	-8815
▁ໄດ້ສົມທົບກັບ	-8816
ກົດຫມາຍວ່າດ້ວຍ	-8817
▁ແລະຂ້າພະເຈົ້າ	-8818
ສ້າງຕັ້ງຂຶ້ນໃນປີ	-8819
81	-8820
BO	-8821
EX	-8822
fa	-8823
ki	-8824
ya	-8825
ຕ໌	-8826
ລູ	-8827
ECT	-8828
ani	-8829
bul	-8830
cam	-8831
elo	-8832
lue	-8833
ove	-8834
ຄະລ	-8835
ງຽບ	-8836
ທອດ	-8837
ຝົນ	-8838
ພັງ	-8839
ລີ່	-8840
ລ້າ	-8841
ແຊກ	-8842
▁63	-8843
▁CA	-8844
▁HU	-8845
▁Ke	-8846
▁``	-8847
▁ຍ່	-8848
▁ນູ	-8849
ailb	-8850
ging	-8851
onda	-8852
ping	-8853
weet	-8854
yuan	-8855
ເຂັມ	-8856
▁Cou	-8857
▁DVD	-8858
▁Ele	-8859
▁Hum	-8860
▁Inf	-8861
▁Jer	-8862
▁Lee	-8863
▁Log	-8864
▁Pot	-8865
▁Sem	-8866
▁inc	-8867
▁int	-8868
▁net	-8869
▁not	-8870
▁ຄວາ	-8871
▁ຈ້າ	-8872
▁ຕັກ	-8873
▁ເຈດ	-8874
ainer	-8875
amber	-8876
embly	-8877
xiang	-8878
ຊີຟິກ	-8879
ບໄຊທ໌	-8880
ປາກົດ	-8881
ພະຍົນ	-8882
ລະລາຍ	-8883
ອກລວງ	-8884
ໂລຫິດ	-8885
▁Bank	-8886
▁ຊີວະ	-8887
▁ທ່ອງ	-8888
▁ລະຍະ	-8889
▁ລາວກ	-8890
▁ຫຼວງ	-8891
▁ເທັກ	-8892
▁ເລີກ	-8893
ending	-8894
ງານບຸນ	-8895
ລໍາດັບ	-8896
ສະຫລົດ	-8897
ອັບອາຍ	-8898
ະໂຍບາຍ	-8899
ໂຮງຫມໍ	-8900
▁2019!	-8901
▁Cheng	-8902
▁Forum	-8903
▁fiber	-8904
▁ຍຸດຕິ	-8905
▁ສຸພາບ	-8906
charger	-8907
ຄວາມຫນາ	-8908
ທີ່ເຮັດ	-8909
ວາລະສານ	-8910
ຫຼັກຖານ	-8911
ອາບນ້ໍາ	-8912
ແມ່ນ້ໍາ	-8913
ໂທລະພາບ	-8914
ໃກ້ຂ້ອຍ	-8915
▁Oxford	-8916
▁ຊອບທໍາ	-8917
▁ມັນບໍ່	-8918
▁ສົງສານ	-8919
▁ເປື້ອນ	-8920
neumatic	-8921
ຕ່າງໆຂອງ	-8922
ຖົງປະເພດ	-8923
ຜົນຜະລິດ	-8924
ສະເຫມີໄປ	-8925
ອັດຕາການ	-8926
ແລະສາມາດ	-8927
▁Western	-8928
▁ດາວໂຫຼດ	-8929
▁ພາຍຫຼັງ	-8930
▁ເດັກຍິງ	-8931
ການຊື້ຂາຍ	-8932
ກາລະໂອກາດ	-8933
ໃນການສ້າງ	-8934
▁facebook	-8935
▁solenoid	-8936
▁ລົງທະບຽນ	-8937
▁ວາດສະຫນາ	-8938
▁ເພິ່ນໄດ້	-8939
▁ເພີດເພີນ	-8940
ສິ້ນສຸດລົງ	-8941
ຫ້ອງທົດລອງ	-8942
ແລະອຸປະກອນ	-8943
▁ການສື່ສານ	-8944
otechnology	-8945
ຕິດຕາມກວດກາ	-8946
ທີ່ຈະໄດ້ຮັບ	-8947
ວ່າເປັນຫຍັງ	-8948
▁ຂະຫນາດໃຫຍ່	-8949
ຍິນດີຕ້ອນຮັບ	-8950
▁ແມ່ນຫນຶ່ງໃນ	-8951
ວຽກເຮັດງານທໍາ	-8952
ປະສົບຜົນສໍາເລັດ	-8953
52	-8954
CT	-8955
TO	-8956
py	-8957
-90	-8958
.23	-8959
999	-8960
ask	-8961
enb	-8962
hem	-8963
olf	-8964
ste	-8965
uch	-8966
ulf	-8967
vis	-8968
ງ່າ	-8969
ປີນ	-8970
ເປີ	-8971
▁AN	-8972
▁FN	-8973
▁HT	-8974
▁bi	-8975
2019	-8976
elin	-8977
face	-8978
feng	-8979
ming	-8980
pper	-8981
urga	-8982
ຖ້ວມ	-8983
ຫຍ້າ	-8984
ເຈາະ	-8985
ເອັນ	-8986
ແຫຼວ	-8987
▁1.6	-8988
▁3.2	-8989
▁Alb	-8990
▁Buy	-8991
▁Feb	-8992
▁Mus	-8993
▁cnc	-8994
▁mag	-8995
▁rel	-8996
▁ນ້າ	-8997
▁ເທີ	-8998
▁ແພ້	-8999
▁ແວດ	-9000
aming	-9001
iller	-9002
ຊີມັງ	-9003
ທະຍົມ	-9004
ຜູ້ໃດ	-9005
ສະສົມ	-9006
ຫາຍໃຈ	-9007
ຮອດປີ	-9008
ໂອເນຍ	-9009
▁Bill	-9010
▁Diff	-9011
▁ກວາງ	-9012
▁ຂື້ນ	-9013
▁ຍ້ອງ	-9014
▁ຫງົບ	-9015
▁ແກ່ນ	-9016
▁ແວ່ນ	-9017
Script	-9018
rystal	-9019
ກະທັ້ງ	-9020
ຊວນຟຸກ	-9021
ຊື່ວ່າ	-9022
ພາກຮຽນ	-9023
ມັງກອນ	-9024
ມາກ່ອນ	-9025
ລົດຊາດ	-9026
▁ASEAN	-9027
▁Opera	-9028
▁Trans	-9029
▁Width	-9030
▁neuro	-9031
▁ສະກັດ	-9032
▁ສີຟ້າ	-9033
ຈະສາມາດ	-9034
ຕັ້ງຢູ່	-9035
ຜິວຫນັງ	-9036
ມໍລະດົກ	-9037
ວັດທະນະ	-9038
ສຸກເສີນ	-9039
ສ້ອມແປງ	-9040
ເກົາຫຼີ	-9041
ແນວນັ້ນ	-9042
▁Blythe	-9043
▁Chrome	-9044
▁Posted	-9045
▁Tumblr	-9046
▁ກັບຄືນ	-9047
▁ການນໍາ	-9048
▁ຂຶ້ນມາ	-9049
▁ສະຫມອງ	-9050
▁ແຂງແຮງ	-9051
▁ແຕ່ຍັງ	-9052
▁ແລະຜູ້	-9053
ເຖິງຄວາມ	-9054
▁Related	-9055
▁ຂອງຂວັນ	-9056
▁ອ້ອນວອນ	-9057
ທີ່ຈະແຈ້ງ	-9058
ແນະນໍາໃຫ້	-9059
▁Electron	-9060
▁ການເຄືອບ	-9061
▁ທ່ານຕ້ອງ	-9062
▁ໄລຍະເວລາ	-9063
ຕົວທ່ານເອງ	-9064
ຜິດປົກກະຕິ	-9065
ສະພາບອາກາດ	-9066
ແມ່ນມີຄວາມ	-9067
▁instagram	-9068
▁ການຊື້ຂາຍ	-9069
ຢ່າງເຕັມທີ່	-9070
ສິ່ງທີ່ຂ້ອຍ	-9071
ໃນທົ່ວປະເທດ	-9072
▁ກະຕືລືລົ້ນ	-9073
▁ການເຮັດວຽກ	-9074
▁ເດືອນພະຈິກ	-9075
ສ່ວນຫນຶ່ງຂອງ	-9076
ເກັບກໍາຂໍ້ມູນ	-9077
▁ຂອງເຂົາເຈົ້າ	-9078
▁ເດືອນພຶດສະພາ	-9079
%.	-9080
Cl	-9081
Ex	-9082
On	-9083
Qu	-9084
\)	-9085
uo	-9086
ຣນ	-9087
ຮູ	-9088
-05	-9089
015	-9090
ERI	-9091
UST	-9092
anc	-9093
gin	-9094
ida	-9095
lon	-9096
och	-9097
ris	-9098
yan	-9099
ຂຸດ	-9100
ຈອງ	-9101
ຍຶດ	-9102
▁0,	-9103
▁EM	-9104
▁IR	-9105
▁TW	-9106
▁Wi	-9107
▁\(	-9108
1000	-9109
acle	-9110
anth	-9111
back	-9112
cess	-9113
irus	-9114
ulic	-9115
ນິ້ວ	-9116
ປ໋ອງ	-9117
ຫລຸດ	-9118
ະລັກ	-9119
ຸນລະ	-9120
ເຊີດ	-9121
ເຊົາ	-9122
▁(0)	-9123
▁1.1	-9124
▁Lad	-9125
▁Mos	-9126
▁Sal	-9127
▁dis	-9128
▁out	-9129
▁ຍັດ	-9130
▁ເພີ	-9131
▁ໂຫຍ	-9132
-2019	-9133
755-2	-9134
ວະກາດ	-9135
▁Coun	-9136
▁Fair	-9137
▁Yang	-9138
▁will	-9139
▁ກາເຟ	-9140
▁ຍ່ອມ	-9141
▁ປັ່ນ	-9142
▁ລ້ໍາ	-9143
▁ເດີມ	-9144
ຄໍາວ່າ	-9145
ມັນໄດ້	-9146
ລູກຊາຍ	-9147
ສັກສິດ	-9148
ສິ່ງໃດ	-9149
ແມງໄມ້	-9150
ໂດຍສານ	-9151
▁Honda	-9152
▁Plate	-9153
▁Techn	-9154
▁spark	-9155
▁ຈະບໍ່	-9156
▁ບັນຊາ	-9157
▁ປະສານ	-9158
▁ສາກົນ	-9159
▁ສາຍຕາ	-9160
▁ເວືອງ	-9161
aterial	-9162
otropin	-9163
ຕາຫນ່າງ	-9164
ອັບໂຫລດ	-9165
ເງິນສົດ	-9166
ເຕົາອົບ	-9167
ແລະຂ້ອຍ	-9168
▁ກະເປົາ	-9169
▁ຂອງຜູ້	-9170
▁ຕົວເລກ	-9171
▁ທົນທານ	-9172
▁ມື້ນີ້	-9173
▁ອອກຈາກ	-9174
▁ໃນຂະນະ	-9175
▁ໄວຮຸ່ນ	-9176
ຕັ້ງຫນ້າ	-9177
ທີ່ຢູ່ໃນ	-9178
ບຽງອາຫານ	-9179
ແມ່ນເປັນ	-9180
▁Deposit	-9181
▁ceramic	-9182
▁twitter	-9183
▁ການສ້າງ	-9184
▁ແມ່ນແຕ່	-9185
▁ໄພໂອເນຍ	-9186
ຄວາມສະດວກ	-9187
ຄົນອັບເດດ	-9188
ສະແດງຄວາມ	-9189
ແບບຈໍາລອງ	-9190
▁Supplier	-9191
▁ຊຶ່ງເປັນ	-9192
▁ທ່ອງທ່ຽວ	-9193
▁ເຈົ້າວ່າ	-9194
▁ແຕ່ງຕັ້ງ	-9195
▁ແມ່ນແລ້ວ	-9196
ຂອງທ່ານເອງ	-9197
ຢ່າງແທ້ຈິງ	-9198
ຫນ້າທໍາອິດ	-9199
ເສີມຂະຫຍາຍ	-9200
▁Certified	-9201
▁Dedusting	-9202
▁ການຮ່ວມມື	-9203
ຂອງຮູບພາບຫາ	-9204
ມີຄວາມສົນໃຈ	-9205
ສະພາແຫ່ງຊາດ	-9206
ສ່ວນຫນ້າຂອງ	-9207
▁Galvanized	-9208
▁Innovative	-9209
▁ມະຫັດສະຈັນ	-9210
▁ເດືອນທັນວາ	-9211
▁ຂະຫນາດບັນຈຸ	-9212
▁ລະຍະຫ່າງຈາກ	-9213
ທີ່ເຊື່ອຖືໄດ້	-9214
▁ການເກັບຮັກສາ	-9215
▁ສູງສຸດທີ່ເຄຍ	-9216
ຂອງສາດສະຫນາຈັກ	-9217
ທາງດ້ານຮ່າງກາຍ	-9218
ເຖິງຜົມສ່ວນບົນ	-9219
▁ຄວາມສູງຂອງຫົວ	-9220
83	-9221
PT	-9222
gg	-9223
▁【	-9224
-50	-9225
.08	-9226
aga	-9227
day	-9228
emo	-9229
ese	-9230
jin	-9231
met	-9232
osp	-9233
urs	-9234
xin	-9235
ຈົກ	-9236
ົານ	-9237
ເຣຍ	-9238
ແງ່	-9239
ແມ້	-9240
▁DK	-9241
▁FI	-9242
▁GD	-9243
▁HK	-9244
▁Sa	-9245
▁Ve	-9246
▁ri	-9247
▁ປໍ	-9248
Outs	-9249
ຊິ້ນ	-9250
ຜູ້ນ	-9251
ສ່ອງ	-9252
ເນົາ	-9253
▁3.5	-9254
▁Cur	-9255
▁Hun	-9256
▁JPY	-9257
▁Sex	-9258
▁Sil	-9259
▁art	-9260
▁cre	-9261
▁csg	-9262
▁end	-9263
▁equ	-9264
▁etc	-9265
▁man	-9266
▁ຂັງ	-9267
▁ຊຸກ	-9268
▁ທັກ	-9269
▁ທິມ	-9270
▁ຝາກ	-9271
▁ລະຫ	-9272
▁ລ່າ	-9273
▁ອາບ	-9274
▁ໂຢບ	-9275
ience	-9276
rogen	-9277
ການສະ	-9278
ກໍ່ຄື	-9279
ຄໍາພີ	-9280
ດົນໃຈ	-9281
ທະພັນ	-9282
ສະວິດ	-9283
ສາມັນ	-9284
ອາລົມ	-9285
ໃຫ້ມີ	-9286
▁Anti	-9287
▁Fort	-9288
▁York	-9289
▁play	-9290
▁test	-9291
▁ກູໂກ	-9292
▁ງຸ່ນ	-9293
▁ອະໄພ	-9294
▁ເຖີດ	-9295
▁ເມີນ	-9296
▁ແຕ່ນ	-9297
change	-9298
urnace	-9299
ກາງຄືນ	-9300
ກ້າຫານ	-9301
ຈຸດສຸມ	-9302
ທີ່ພັກ	-9303
ປະເພນີ	-9304
ລາວໄດ້	-9305
ສາຍແອວ	-9306
ຫ່າງໄກ	-9307
ເປື້ອນ	-9308
ໄຊຊະນະ	-9309
▁Graph	-9310
▁Strip	-9311
▁ໃຫມ່ໆ	-9312
ຈົດຫມາຍ	-9313
ຫຼັກຊັບ	-9314
ອາຟຣິກາ	-9315
ຮ່ວມເພດ	-9316
ັ້ງເດີມ	-9317
ແມ່ນຖືກ	-9318
▁Tablet	-9319
▁ງານບຸນ	-9320
▁ທໍານາຍ	-9321
▁ສະຫລຸບ	-9322
ailbreak	-9323
osilicon	-9324
ກ່າວເຖິງ	-9325
ຊື່ອີເມວ	-9326
ຕິດເຊື້ອ	-9327
ມາຈາກການ	-9328
ໂດດເດັ່ນ	-9329
▁Fitness	-9330
▁Limited	-9331
▁ຂອງຂ້ອຍ	-9332
▁ຄົ້ນພົບ	-9333
▁ບັນເທົາ	-9334
▁ພະຍາກອນ	-9335
▁ພາກພື້ນ	-9336
▁ພ້ອມກັນ	-9337
▁ເປັນຜູ້	-9338
ການຮຽນຮູ້	-9339
ຂອງຂໍ້ມູນ	-9340
▁ການສັກຢາ	-9341
▁ເປີດເຜີຍ	-9342
▁ໃຊ້ລະຫັດ	-9343
ການຄ້າເສລີ	-9344
ມະຫັດສະຈັນ	-9345
ເຮັດໃຫ້ມັນ	-9346
ໄດ້ກາຍເປັນ	-9347
▁Diaphragm	-9348
▁Unlimited	-9349
▁butterfly	-9350
ກຸ່ມບໍລິສັດ	-9351
ຄວາມແຕກຕ່າງ	-9352
▁JavaScript	-9353
▁ການແກ້ໄຂໃນ	-9354
ຜູ້ເປັນເຈົ້າ	-9355
ເຮັດໃຫ້ມີແສງ	-9356
▁ຄຸນນະພາບສູງ	-9357
▁ເຈົ້າຮູ້ສຶກ	-9358
▁ການເຄື່ອນໄຫວ	-9359
▁ຂ້າພະເຈົ້າຢາກ	-9360
▁ຄ່າໃຊ້ຈ່າຍທັງ	-9361
▁ທີ່ຢູ່ເວັບໄຊທ໌	-9362
▁ເຄື່ອງນຸ່ງຫົ່ມ	-9363
56	-9364
MT	-9365
ຟໍ	-9366
BET	-9367
ຊັງ	-9368
ຕຽງ	-9369
ບົກ	-9370
ປອດ	-9371
ລານ	-9372
ລິມ	-9373
ຮອຍ	-9374
ເຈາ	-9375
ເນີ	-9376
ເບຍ	-9377
ເວດ	-9378
ແລງ	-9379
▁EX	-9380
▁Fu	-9381
▁NW	-9382
▁Py	-9383
▁QC	-9384
▁SA	-9385
Chat	-9386
ains	-9387
mium	-9388
pack	-9389
pert	-9390
sych	-9391
unny	-9392
ກ້ອງ	-9393
ຖ່ອມ	-9394
ມີນາ	-9395
ອຸປະ	-9396
ື່ອຍ	-9397
ເຈລະ	-9398
ເຫລວ	-9399
ເຫ້ວ	-9400
ໂທລະ	-9401
▁Add	-9402
▁CAS	-9403
▁Cnc	-9404
▁Gar	-9405
▁ຊຶມ	-9406
▁ດານ	-9407
▁ທຸງ	-9408
▁ພັງ	-9409
▁ຢາຍ	-9410
▁ລ້າ	-9411
▁ເຊີ	-9412
▁ເມວ	-9413
ember	-9414
owder	-9415
ກະວານ	-9416
ນີ້ຈະ	-9417
ປະສາດ	-9418
ໃຈກາງ	-9419
▁1080	-9420
▁1800	-9421
▁Anal	-9422
▁Fram	-9423
▁Gall	-9424
▁Jing	-9425
▁Ring	-9426
▁cake	-9427
▁ກຸ້ມ	-9428
▁ຢ່ອນ	-9429
▁ວຸ້ນ	-9430
▁ຫມວກ	-9431
▁ເທົາ	-9432
lamode	-9433
ຈອດລົດ	-9434
ຕະຫລົກ	-9435
ທີ່ຍັງ	-9436
ລົບກວນ	-9437
ຫາວິທີ	-9438
ໂປຼຕີນ	-9439
ໄດ້ປຽບ	-9440
▁2017.	-9441
▁Admin	-9442
▁Azure	-9443
▁James	-9444
▁Paper	-9445
▁Silic	-9446
▁ອັກຄະ	-9447
▁ເທືອນ	-9448
▁ແຕ່ໃນ	-9449
▁ໂຄມໄຟ	-9450
draulic	-9451
ຈິງແລ້ວ	-9452
ທິສັນຍາ	-9453
ສູງອາຍຸ	-9454
ເນື້ອຫາ	-9455
ເວລານີ້	-9456
▁Carbon	-9457
▁Guitar	-9458
▁Paypal	-9459
▁Spring	-9460
▁corros	-9461
▁ການໃຊ້	-9462
▁ຂອງພວກ	-9463
▁ຄາດວ່າ	-9464
▁ຊັດເຈນ	-9465
▁ທຸກຄົນ	-9466
▁ຜູ້ຂຽນ	-9467
▁ມີຫນ້າ	-9468
▁ເຫຼັ້ມ	-9469
rostatic	-9470
ຈາກປະເທດ	-9471
ລະບຽບການ	-9472
ລົງຄະແນນ	-9473
ຫລາຍຂຶ້ນ	-9474
▁Instrum	-9475
▁flicker	-9476
▁ກະສິກໍາ	-9477
▁ຜູ້ນັ້ນ	-9478
▁ລັບຂ້ອຍ	-9479
▁ຫຼັກສູດ	-9480
▁ອົບອຸ່ນ	-9481
ifunction	-9482
ທີ່ສຸດຂອງ	-9483
ສຸມໃສ່ການ	-9484
ແລະຊຸມຊົນ	-9485
▁ອື່ນໆທີ່	-9486
▁ໃນທີ່ສຸດ	-9487
ດ້ວຍຕົນເອງ	-9488
ປະທານອາຫານ	-9489
ມີປະສົບການ	-9490
▁Cartridge	-9491
ເປັນເອກະລັກ	-9492
ເລົ່າເລື່ອງ	-9493
ເຫມາະສົມກັບ	-9494
▁Misslamode	-9495
▁corrugated	-9496
▁ການສົນທະນາ	-9497
▁ອິນໂດເນເຊຍ	-9498
▁ເພາະສະນັ້ນ	-9499
ຄວາມເຂັ້ມແຂງ	-9500
ດ້ານເສດຖະກິດ	-9501
ໄດ້ເລີ່ມຕົ້ນ	-9502
▁ເຄື່ອງປະດັບ	-9503
▁ເປັນຜູ້ຜະລິດ	-9504
HZ	-9505
We	-9506
pc	-9507
10,	-9508
110	-9509
CSA	-9510
IFI	-9511
Ind	-9512
ean	-9513
kgs	-9514
ะนด	-9515
ງົວ	-9516
ມະໂ	-9517
ຣແກ	-9518
ລາກ	-9519
ໂຫຍ	-9520
ໄຖ່	-9521
▁88	-9522
▁CM	-9523
▁ER	-9524
▁Er	-9525
▁Ey	-9526
▁IS	-9527
▁MC	-9528
▁MX	-9529
▁SU	-9530
▁el	-9531
▁us	-9532
aber	-9533
asma	-9534
cast	-9535
cker	-9536
ergy	-9537
itor	-9538
odia	-9539
ston	-9540
tech	-9541
ucks	-9542
ີເຈີ	-9543
ເມສາ	-9544
▁365	-9545
▁95%	-9546
▁AAS	-9547
▁APK	-9548
▁BTC	-9549
▁Big	-9550
▁CBD	-9551
▁Hub	-9552
▁Lab	-9553
▁Nov	-9554
▁Pol	-9555
▁Pox	-9556
▁XML	-9557
▁dji	-9558
▁pcs	-9559
▁tok	-9560
▁val	-9561
▁ກອດ	-9562
▁ຈານ	-9563
▁ບວນ	-9564
▁ປ້າ	-9565
▁ມອນ	-9566
▁ມາຍ	-9567
▁ສີດ	-9568
▁ໄຂ້	-9569
ifier	-9570
izing	-9571
ublic	-9572
ຂະບວນ	-9573
ຂົ່ມຂ	-9574
ຕໍ່ປີ	-9575
ສົດໃສ	-9576
ອົງຄະ	-9577
ັດທົວ	-9578
າວຸໂສ	-9579
ໄປຕາມ	-9580
▁Flex	-9581
▁Phot	-9582
▁Site	-9583
▁Vill	-9584
▁Will	-9585
▁Xing	-9586
▁prof	-9587
▁ປະຈຸ	-9588
▁ປັ້ນ	-9589
▁ຫິມະ	-9590
▁ຮ່ອງ	-9591
covery	-9592
edding	-9593
ກອງທັບ	-9594
ຊົງຈໍາ	-9595
ຊົມໃຊ້	-9596
ປານກາງ	-9597
ພັດລົມ	-9598
ສະຫລອງ	-9599
ໃຫ້ຜູ້	-9600
ໄວລຸ້ນ	-9601
▁Screw	-9602
▁Share	-9603
▁Views	-9604
▁ຄືກັນ	-9605
▁ຄົບຫາ	-9606
▁ລາມົກ	-9607
▁ຫຼາຍໆ	-9608
▁ເບື່ອ	-9609
▁ເຜິ້ງ	-9610
▁ໃນວັນ	-9611
ກໍ່ຕັ້ງ	-9612
ຂອງເຂົາ	-9613
ຄືນໃຫມ່	-9614
ຊ່ວຍເຫຼ	-9615
ຜ່ານແດນ	-9616
ພິທະພັນ	-9617
ມະໂຫລານ	-9618
ຢາງພາລາ	-9619
ເຫັນວ່າ	-9620
▁carton	-9621
▁ການໃຫ້	-9622
▁ຕົນເອງ	-9623
▁ທ້າທາຍ	-9624
▁ສາຍແອວ	-9625
▁ສຸມໃສ່	-9626
▁ສົມສັກ	-9627
ological	-9628
ກຕ່າງຫາກ	-9629
ຈອນເຕັ້ນ	-9630
ບົ່ມຊ້ອນ	-9631
ອັນດັບທີ	-9632
ໃຫ້ເຈົ້າ	-9633
▁Chamber	-9634
▁printer	-9635
▁ກັບຄວາມ	-9636
▁ຂອງເຮົາ	-9637
▁ບໍລິຫານ	-9638
▁ສະຕະວັດ	-9639
▁ສະຫະພັນ	-9640
▁ຫລັງຈາກ	-9641
ສໍານັກງານ	-9642
▁Diffuser	-9643
▁ຍິ່ງໃຫຍ່	-9644
▁ທາງເລືອກ	-9645
▁ບໍ່ສາມາດ	-9646
▁ລະຫັດທົວ	-9647
▁ເຈົ້າຄິດ	-9648
▁ເວົ້າກັບ	-9649
ຊາວກະສິກອນ	-9650
ດ້ານການຄ້າ	-9651
ປົກຫຸ້ມຂອງ	-9652
▁Pneumatic	-9653
▁ການວິເຄາະ	-9654
▁ຂໍ້ມູນເກມ	-9655
▁ຊື່ຍີ່ຫໍ້	-9656
▁ຫນັງສືພິມ	-9657
▁ອາດຈະເປັນ	-9658
ທີ່ເອີ້ນວ່າ	-9659
ແບ່ງອອກເປັນ	-9660
ແລະການຜະລິດ	-9661
▁ຍົກຕົວຢ່າງ	-9662
▁ບັນດາປະເທດ	-9663
▁ພວກເຮົາຍັງ	-9664
▁ລະມັດລະວັງ	-9665
▁ເດືອນກຸມພາ	-9666
ອອກກໍາລັງກາຍ	-9667
ແລະຕ່າງປະເທດ	-9668
ແລະເຕັກໂນໂລຊີ	-9669
▁ຕອນຄ່ໍາວັນທີ	-9670
ຂອງການຄົ້ນຄວ້າ	-9671
▁Biotechnology	-9672
ກອງປະຊຸມສໍາມະນາ	-9673
ເຄື່ອງຫມາຍການຄ້າ	-9674
0)	-9675
53	-9676
GL	-9677
IU	-9678
SI	-9679
TY	-9680
ua	-9681
wp	-9682
ຟີ	-9683
="0	-9684
IVE	-9685
TER	-9686
aha	-9687
ama	-9688
axi	-9689
inc	-9690
ini	-9691
ຄືບ	-9692
ຍົດ	-9693
ປິກ	-9694
ມືດ	-9695
ຣັກ	-9696
ລວດ	-9697
ີດີ	-9698
▁07	-9699
▁6.	-9700
▁76	-9701
▁DI	-9702
▁EU	-9703
▁Ft	-9704
▁PA	-9705
▁ms	-9706
▁vk	-9707
▁ໄອ	-9708
airs	-9709
arak	-9710
ould	-9711
qing	-9712
ship	-9713
vert	-9714
ຊ້າຍ	-9715
ຕລາຍ	-9716
ຕຸ້ງ	-9717
ຕົ້ມ	-9718
ວນໍາ	-9719
ຫມາດ	-9720
ຮ່ຈິ	-9721
ແລ້ງ	-9722
ໃຊ້ງ	-9723
▁(11	-9724
▁91;	-9725
▁Bat	-9726
▁Emb	-9727
▁Enc	-9728
▁Rab	-9729
▁SMS	-9730
▁cam	-9731
▁est	-9732
▁pad	-9733
▁tri	-9734
▁ຈອກ	-9735
▁ຈິນ	-9736
▁ອວຍ	-9737
▁ໂຫດ	-9738
▁ໄຮ້	-9739
Point	-9740
ading	-9741
arius	-9742
cheng	-9743
ening	-9744
erson	-9745
field	-9746
itute	-9747
ຕາມິນ	-9748
ທີ່ສະ	-9749
ນີ້ມີ	-9750
ພູມໃຈ	-9751
ມັນຈະ	-9752
ມາຮອດ	-9753
ລະຍາຍ	-9754
ລະບົດ	-9755
ສະວັດ	-9756
ິງຕັນ	-9757
ເກັ່ງ	-9758
▁2500	-9759
▁Apps	-9760
▁Matt	-9761
▁Plug	-9762
▁Tele	-9763
▁Text	-9764
▁serv	-9765
▁ຫົ່ມ	-9766
ຂອງຕົວ	-9767
ເລື່ອນ	-9768
ເອື້ອຍ	-9769
ໂປ່ງໃສ	-9770
ໃນທົ່ວ	-9771
ໃນນ້ໍາ	-9772
▁Chain	-9773
▁Metal	-9774
▁Metro	-9775
▁Night	-9776
▁Photo	-9777
▁Print	-9778
▁Spong	-9779
▁Start	-9780
▁ໂມດູນ	-9781
ຄິດສ້າງ	-9782
ຕົກແຕ່ງ	-9783
ຕ້ານການ	-9784
ສະເທືອນ	-9785
ອັນຕລາຍ	-9786
ອົບອຸ່ນ	-9787
ເປີດຕົວ	-9788
ເອກະພາບ	-9789
▁Crypto	-9790
▁Odisha	-9791
▁Router	-9792
▁Royale	-9793
▁ຂອງນາງ	-9794
▁ຕໍ່ໆໄປ	-9795
▁ທັງສອງ	-9796
▁ທີ່ພັກ	-9797
▁ປີກ່ອນ	-9798
▁ສະຖານະ	-9799
▁ສີສົ້ມ	-9800
▁ຮັບຮອງ	-9801
ຂອງແຕ່ລະ	-9802
ຫ້ອງນ້ໍາ	-9803
ເສຍສະຫຼະ	-9804
ໄດ້ແນວໃດ	-9805
▁Acetate	-9806
▁Crusher	-9807
▁Sitemap	-9808
▁ກ່າວວ່າ	-9809
▁ຂາຍສົ່ງ	-9810
▁ຂຶ້ນຢູ່	-9811
▁ພິພາກສາ	-9812
▁ມື້ຄ່ໍາ	-9813
▁ຮູບຮ່າງ	-9814
ophilized	-9815
ການໂຄສະນາ	-9816
ທີ່ຈະສ້າງ	-9817
ທີ່ຈະເຮັດ	-9818
ພົວພັນກັບ	-9819
ຫຼີກເວັ້ນ	-9820
▁Assembly	-9821
▁Hangzhou	-9822
▁roulette	-9823
▁ການພະນັນ	-9824
▁ຕ່າງໆຂອງ	-9825
▁ພະບັນຍັດ	-9826
▁ເສື້ອຜ້າ	-9827
ຂອງຮ່າງກາຍ	-9828
ທີ່ເຮັດວຽກ	-9829
ສະຖຽນລະພາບ	-9830
ຮູ້ກ່ຽວກັບ	-9831
▁Connector	-9832
▁ລະດັບຄວາມ	-9833
▁ສະຫນາມບິນ	-9834
ກ້ອງຖ່າຍຮູບ	-9835
ຮູບພາບໄປສູ່	-9836
▁ການບໍລິໂພກ	-9837
▁ເກີດຂຶ້ນຄື	-9838
ຕໍ່ໄປຂອງທ່ານ	-9839
ໄດ້ຮັບຂໍ້ມູນ	-9840
▁ເສົ້າສະຫລົດ	-9841
▁ແລະດັ່ງນັ້ນ	-9842
ການເຊື່ອມໂລຫະ	-9843
ທີ່ເປັນເອກະລັກ	-9844
▁ໂດຍສະເພາະແມ່ນ	-9845
▁ນອກເຫນືອຈາກການ	-9846
Co	-9847
DC	-9848
Sp	-9849
pi	-9850
】:	-9851
-02	-9852
-11	-9853
-13	-9854
.15	-9855
1.0	-9856
20)	-9857
ALE	-9858
EMA	-9859
ORD	-9860
apy	-9861
bus	-9862
ony	-9863
set	-9864
vas	-9865
vid	-9866
ທິມ	-9867
ປືນ	-9868
ລອນ	-9869
ວີບ	-9870
ອັງ	-9871
ເກງ	-9872
ເປນ	-9873
▁59	-9874
▁CC	-9875
▁CL	-9876
▁EP	-9877
▁Fr	-9878
▁II	-9879
▁fe	-9880
edia	-9881
ists	-9882
rone	-9883
test	-9884
xBet	-9885
ກິ່ນ	-9886
ຄ້າງ	-9887
ພລາສ	-9888
ສຸ່ມ	-9889
ຮຸ່ງ	-9890
ເດົາ	-9891
▁315	-9892
▁Aqu	-9893
▁Bao	-9894
▁Bit	-9895
▁CAN	-9896
▁GED	-9897
▁RSS	-9898
▁SGS	-9899
▁SQL	-9900
▁Sea	-9901
▁bug	-9902
▁ຂວາ	-9903
▁ຖັງ	-9904
▁ຫມູ	-9905
▁ຮີດ	-9906
▁ແຄບ	-9907
▁ແຄມ	-9908
▁ແສດ	-9909
/2017	-9910
anges	-9911
otton	-9912
ratch	-9913
razil	-9914
retch	-9915
ທິຍານ	-9916
ສະຕິງ	-9917
ສາວົກ	-9918
ໂຈມຕີ	-9919
▁1.0%	-9920
▁5000	-9921
▁Game	-9922
▁Hard	-9923
▁ດ່ວນ	-9924
▁ພະຍາ	-9925
▁ສະຕີ	-9926
▁ເດັດ	-9927
▁ແອັບ	-9928
amping	-9929
ration	-9930
urgaon	-9931
ຕາຂ່າຍ	-9932
ທ່ານມີ	-9933
ຫວັດດີ	-9934
ຮັ່ງມີ	-9935
ແລະໄດ້	-9936
▁Adder	-9937
▁Angel	-9938
▁Beige	-9939
▁Brush	-9940
▁Sihan	-9941
▁Times	-9942
▁ຈຸລັງ	-9943
▁ຍັງມີ	-9944
▁ປະດິດ	-9945
▁ມໍເຕີ	-9946
▁ລະບາຍ	-9947
▁ຫມ້າຍ	-9948
▁ເຮືອງ	-9949
ography	-9950
ຍົກເລີກ	-9951
ຕັດຫຍິບ	-9952
ພື້ນຜິວ	-9953
ວົງເງິນ	-9954
ສາມັກຄີ	-9955
ແຫ່ງການ	-9956
▁Castle	-9957
▁Energy	-9958
▁Fruity	-9959
▁ຄໍານຶງ	-9960
▁ທອງແດງ	-9961
▁ມັນຍັງ	-9962
▁ອະໄຫລ່	-9963
▁ອ່ອນແອ	-9964
ທາງປັນຍາ	-9965
ປັບອາກາດ	-9966
ລະດັບຊາດ	-9967
ເສຍອົງຄະ	-9968
▁Bonuses	-9969
▁October	-9970
▁jackpot	-9971
▁youjian	-9972
▁ການເກັບ	-9973
▁ການເຮັດ	-9974
▁ຕັ້ງຢູ່	-9975
▁ສະຊອບແວ	-9976
▁ສິງກະໂປ	-9977
▁ຫຼັກຖານ	-9978
ທີ່ສົມບູນ	-9979
ບໍ່ມີຫຍັງ	-9980
ວິສະວະກອນ	-9981
ຫຼາຍປານໃດ	-9982
ອະລູມິນຽມ	-9983
ແລະຂະຫນາດ	-9984
▁tutorial	-9985
▁ບັນລະຍາຍ	-9986
ພື້ນຖານຂອງ	-9987
ລັກສະນະຂອງ	-9988
ໄລຍະດຽວກັນ	-9989
▁ລະຫັດຜ່ານ	-9990
ບັນດາອົງການ	-9991
▁ຄວາມຮູ້ສຶກ	-9992
▁ສິ່ງທ້າທາຍ	-9993
ເຂົ້າຮ່ວມຂອງ	-9994
▁Application	-9995
▁ຫງວຽນຊວນຟຸກ	-9996
▁ເຊັ່ນດຽວກັນ	-9997
ທີ່ມີຄຸນນະພາບ	-9998
▁ຢ່າງໃດກໍ່ຕາມ	-9999
ທີ່ຈະໄດ້ຮັບການ	-10000
ເຫມາະສົມສໍາລັບ	-10001
")	-10002
Fi	-10003
Fl	-10004
MH	-10005
iw	-10006
js	-10007
la	-10008
oe	-10009
so	-10010
ön	-10011
ຝາ	-10012
ໂຮ	-10013
/19	-10014
GSM	-10015
emy	-10016
urb	-10017
uth	-10018
ພານ	-10019
ເອນ	-10020
▁3)	-10021
▁92	-10022
▁DH	-10023
▁GW	-10024
▁RE	-10025
▁ຣີ	-10026
ason	-10027
case	-10028
hong	-10029
rine	-10030
xbet	-10031
ຫລີກ	-10032
ິເຈີ	-10033
ແຫວນ	-10034
▁0.9	-10035
▁25%	-10036
▁30,	-10037
▁CIS	-10038
▁Cre	-10039
▁Die	-10040
▁GMP	-10041
▁HDL	-10042
▁Han	-10043
▁Nan	-10044
▁TPU	-10045
▁Yue	-10046
▁acc	-10047
▁col	-10048
▁ຊີບ	-10049
▁ຟລີ	-10050
▁ເຊຍ	-10051
▁ໂອນ	-10052
▁້ໍາ	-10053
annel	-10054
enger	-10055
hydro	-10056
inger	-10057
oshan	-10058
ragon	-10059
ນັບຖື	-10060
ຫນື່ງ	-10061
ອັດສະ	-10062
▁Cixi	-10063
▁Edge	-10064
▁Fire	-10065
▁cage	-10066
▁ເຜົາ	-10067
▁ເລີນ	-10068
▁ແຊ່ງ	-10069
▁ໃກ້ໆ	-10070
irates	-10071
ກະລຸນາ	-10072
ການໃຊ້	-10073
ການໃຫ້	-10074
ຄົນດຽວ	-10075
ບໍ່ຄວນ	-10076
ຜົວເມຍ	-10077
ພຣະກິດ	-10078
ລົດຖີບ	-10079
ວ່ານັກ	-10080
ຫລັງຄາ	-10081
ອ່ອນແອ	-10082
ຮາງວັນ	-10083
ີ່ປຸ່ນ	-10084
ເຫລືອງ	-10085
ໂຕ້ຖຽງ	-10086
ໄປເຖິງ	-10087
້ານັ້ນ	-10088
▁EVFTA	-10089
▁Media	-10090
▁Promo	-10091
▁games	-10092
▁ອາຈານ	-10093
▁ເມດຕາ	-10094
content	-10095
ຄິດເຖິງ	-10096
ຕໍາຫຼວດ	-10097
ທຸກໆຄົນ	-10098
ປະຕິຮູບ	-10099
ປະຕິເຫດ	-10100
ພຣະເຢຊູ	-10101
ຮ່ຈິມິນ	-10102
ເທົ່າໃດ	-10103
▁(2016)	-10104
▁Armati	-10105
▁String	-10106
▁invent	-10107
▁ລົດຈັກ	-10108
▁ອີງຕາມ	-10109
▁ເຊື່ອງ	-10110
▁ເຕີບໂຕ	-10111
▁ແມ່ນມີ	-10112
ກວາງຕຸ້ງ	-10113
ຄວາມເຢັນ	-10114
ຊົງກະບອກ	-10115
ທີ່ປອດໄພ	-10116
ສັນຕິພາບ	-10117
ືກ່ຽວກັບ	-10118
ເຂັ້ມງວດ	-10119
ເຄາະຮ້າຍ	-10120
ເນື້ອທີ່	-10121
ແລະລະບົບ	-10122
ໄລຍະເວລາ	-10123
▁Gurgaon	-10124
▁crusher	-10125
▁ຄວາມຮັກ	-10126
▁ຊົ່ວຄາວ	-10127
▁ຊ່ຽວຊານ	-10128
▁ຕັ້ງແຕ່	-10129
▁ຖ່ານຫີນ	-10130
▁ປ່ຽນກັບ	-10131
▁ອຸທິຍານ	-10132
▁ເປັນການ	-10133
ຍັງບໍ່ທັນ	-10134
▁Cambodia	-10135
▁Sihanouk	-10136
▁ຍຸດທະສາດ	-10137
▁ຫນູນຊ່ວຍ	-10138
▁ເຫມາະສົມ	-10139
ກັບພວກເຮົາ	-10140
ຈໍານວນເງິນ	-10141
ວ່ານີ້ແມ່ນ	-10142
ສະບັບເລກທີ	-10143
ເປັນຕົວແທນ	-10144
ແຍກຕ່າງຫາກ	-10145
▁Extrusion	-10146
▁ວິສະວະກອນ	-10147
▁ເຂົ້າໄປໃນ	-10148
▁ເຊິ່ງແມ່ນ	-10149
▁ເຊື່ອມຕໍ່	-10150
ດ້ານການເງິນ	-10151
ເວັບໄຊທ໌ນີ້	-10152
ໃນການອອກແບບ	-10153
▁Lyophilized	-10154
▁ກ້ອງຖ່າຍຮູບ	-10155
ຂອງພວກເຮົາແລະ	-10156
ເກັບຂີ້ເຫຍື້ອ	-10157
▁ຂ້າພະເຈົ້າຈະ	-10158
▁ເດືອນກໍລະກົດ	-10159
▁Organosilicon	-10160
▁ຂອງຂ້າພະເຈົ້າ	-10161
ຂໍ້ມູນຂອງພວກເຮົາ	-10162
Al	-10163
DM	-10164
PG	-10165
ba	-10166
mA	-10167
ຫູ	-10168
▁¥	-10169
-03	-10170
-04	-10171
-21	-10172
1.5	-10173
="3	-10174
COM	-10175
ear	-10176
iki	-10177
ker	-10178
yle	-10179
ຄຸມ	-10180
ຕຽນ	-10181
ຖັນ	-10182
ບົບ	-10183
ລອກ	-10184
າທິ	-10185
າວະ	-10186
ໃບຄ	-10187
▁1)	-10188
▁57	-10189
▁62	-10190
▁68	-10191
▁78	-10192
▁CZ	-10193
▁EC	-10194
▁GT	-10195
▁SN	-10196
▁TM	-10197
▁kn	-10198
▁ox	-10199
▁ຄຸ	-10200
▁ຕໍ	-10201
▁ສປ	-10202
9999	-10203
arat	-10204
ides	-10205
star	-10206
ກ້າມ	-10207
ດິ່ງ	-10208
ບໍດີ	-10209
ມະຕະ	-10210
ຫລວດ	-10211
ຫລໍ່	-10212
ິເຕີ	-10213
ເດີນ	-10214
ເອີນ	-10215
ແຍ່ງ	-10216
ໂຫຍກ	-10217
້ນີ້	-10218
▁650	-10219
▁End	-10220
▁Mad	-10221
▁Non	-10222
▁Suz	-10223
▁THB	-10224
▁Upd	-10225
▁Yin	-10226
▁bar	-10227
▁ຂຸດ	-10228
▁ຂຸມ	-10229
▁ງ່າ	-10230
▁ຍືນ	-10231
▁ບອດ	-10232
▁ຜັກ	-10233
▁ວົນ	-10234
▁ແວງ	-10235
Shirt	-10236
witch	-10237
ຖະກໍາ	-10238
ຖືວ່າ	-10239
ສະຈາກ	-10240
ອາວຸດ	-10241
ເຖົ້າ	-10242
ໃຊ້ໃນ	-10243
▁Bang	-10244
▁Fast	-10245
▁HBOT	-10246
▁Kids	-10247
▁Tech	-10248
▁have	-10249
▁ຄ້ານ	-10250
▁ເຊີດ	-10251
Casino	-10252
ations	-10253
enturi	-10254
intage	-10255
ຕົວຕົນ	-10256
ທັນຫັນ	-10257
ຢືນຢູ່	-10258
ລະນິທິ	-10259
ວ່ານາງ	-10260
ະນະນັກ	-10261
ໃບຄ້າຍ	-10262
ໃບຫນ້າ	-10263
່ານັ້ງ	-10264
ໍລິສັດ	-10265
▁2020.	-10266
▁Horiz	-10267
▁Huang	-10268
▁Proxy	-10269
▁Relay	-10270
▁latte	-10271
▁under	-10272
▁ວາງໃຈ	-10273
▁ສະມັດ	-10274
ດິນເຜົາ	-10275
ນໍາເອົາ	-10276
ວ່າຈະມີ	-10277
ເງິນຂອງ	-10278
ແລະເຮັດ	-10279
▁AASraw	-10280
▁Brazil	-10281
▁Burner	-10282
▁Corpor	-10283
▁hacker	-10284
▁ຊຶ່ງມີ	-10285
▁ລະເບີດ	-10286
▁ແຕ່ບໍ່	-10287
▁ແຜນທີ່	-10288
▁ແລະໄດ້	-10289
ດ້ານໄອທີ	-10290
ຕ່ໍາກວ່າ	-10291
ທີ່ຜະລິດ	-10292
ປະຫລາດໃຈ	-10293
ມາດຕະການ	-10294
ລະບົດບາດ	-10295
ວັດຖຸດິບ	-10296
ເຂົ້າກັນ	-10297
▁Network	-10298
▁Ninjago	-10299
▁Village	-10300
▁machine	-10301
▁ຊຶ່ງພວກ	-10302
▁ຕາຫນ່າງ	-10303
▁ພາລະກິດ	-10304
▁ລຸກຂຶ້ນ	-10305
▁ອາຟຣິກາ	-10306
▁ຮ້ອງໄຫ້	-10307
▁ເຂົາໄດ້	-10308
▁ເປີເຊັນ	-10309
▁ແມ່ນ້ໍາ	-10310
ການຕະຫຼາດ	-10311
ຍານພາຫະນະ	-10312
ພົ້ນເດັ່ນ	-10313
ສູງສຸດຂອງ	-10314
ເມື່ອຂ້ອຍ	-10315
▁ອິດທິພົນ	-10316
▁ເຊື້ອສາຍ	-10317
▁ເປັນຕົ້ນ	-10318
▁ເວັ້ນຈາກ	-10319
ໄດ້ຮັບຄວາມ	-10320
▁ພຣະອົງໄດ້	-10321
▁ເຈົ້າຕ້ອງ	-10322
▁ໃນປະຈຸບັນ	-10323
ທັງຫມົດແມ່ນ	-10324
ແຫຼ່ງຂໍ້ມູນ	-10325
▁Enterprise	-10326
▁insulation	-10327
▁ຂ້ອຍຄິດວ່າ	-10328
▁ຖ້າພວກເຮົາ	-10329
▁ເດືອນກັນຍາ	-10330
ຄວາມໄວ້ວາງໃຈ	-10331
▁ສິ່ງແວດລ້ອມ	-10332
▁ແຮງດັນໄຟຟ້າ	-10333
ຄວາມເປັນໄປໄດ້	-10334
ທີ່ມີປະສົບການ	-10335
ຢ່າງວ່ອງໄວແລະ	-10336
ຫຼີ້ນການພະນັນ	-10337
ໂລກລະບາດໂຄວິດ	-10338
ເຊັ່ນດຽວກັນກັບ	-10339
▁Sihanoukville	-10340
BM	-10341
DN	-10342
PH	-10343
RI	-10344
yu	-10345
.38	-10346
125	-10347
OMO	-10348
ala	-10349
fil	-10350
ibo	-10351
ivo	-10352
omi	-10353
rav	-10354
ref	-10355
ror	-10356
vol	-10357
ກາວ	-10358
ຕັບ	-10359
ທອນ	-10360
ບີບ	-10361
ບົວ	-10362
ສອກ	-10363
ອຸດ	-10364
ັອກ	-10365
ເອີ	-10366
ແຊງ	-10367
ໂຕນ	-10368
▁-.	-10369
▁94	-10370
▁99	-10371
▁Bh	-10372
▁EA	-10373
▁IC	-10374
▁Iq	-10375
▁Ir	-10376
▁Ji	-10377
▁ab	-10378
▁gu	-10379
▁me	-10380
▁ດ້	-10381
▁ບະ	-10382
.201	-10383
9001	-10384
ined	-10385
jing	-10386
omes	-10387
qiao	-10388
rich	-10389
ries	-10390
çais	-10391
ຄ້ານ	-10392
ປ່ວຍ	-10393
ະລາຍ	-10394
▁(2,	-10395
▁105	-10396
▁24)	-10397
▁27,	-10398
▁316	-10399
▁Del	-10400
▁Den	-10401
▁HKD	-10402
▁Ret	-10403
▁Yan	-10404
▁mar	-10405
▁pay	-10406
▁ult	-10407
▁ກາວ	-10408
▁ຄາງ	-10409
▁ມີດ	-10410
▁ອານ	-10411
▁ອຽງ	-10412
▁ເສບ	-10413
▁ແລງ	-10414
▁ໄກ່	-10415
aking	-10416
ກໍລະນ	-10417
ຂອງສະ	-10418
ຕິຄຸນ	-10419
ພາສິດ	-10420
ຢາສູບ	-10421
ວິວັດ	-10422
ເຫມາະ	-10423
ໂດເມນ	-10424
▁1600	-10425
▁Pipe	-10426
▁Rand	-10427
▁Spot	-10428
▁disc	-10429
▁from	-10430
▁hard	-10431
▁ຝ້າຍ	-10432
▁ຫວຽດ	-10433
▁ຮ່ອມ	-10434
▁ເຄມີ	-10435
angers	-10436
ກູ້ຢືມ	-10437
ຄວາມດີ	-10438
ຄອນເທນ	-10439
ຝັງດິນ	-10440
ພູເຂົາ	-10441
ມື້ນັບ	-10442
ລະເສີນ	-10443
ຫຼືການ	-10444
▁2012.	-10445
▁Chips	-10446
▁Piece	-10447
▁Tread	-10448
▁shopp	-10449
▁ທັກສະ	-10450
▁ທີ່ດີ	-10451
▁ລວມມີ	-10452
▁ໃນທາງ	-10453
ກໍ່ແມ່ນ	-10454
ຊົມເຊີຍ	-10455
ຊົ່ວຄາວ	-10456
ຕື່ມອີກ	-10457
ບອກທ່ານ	-10458
ມອບຫມາຍ	-10459
ລາມິເຕີ	-10460
ສັ່ງຊື້	-10461
ສາດສະດາ	-10462
ສ່ວນທີ່	-10463
ຫລາຍພັນ	-10464
ອາໄສຢູ່	-10465
ແລະສ້າງ	-10466
▁(2012)	-10467
▁(2013)	-10468
▁Linked	-10469
▁Master	-10470
▁Nickel	-10471
▁Pocket	-10472
▁Thomas	-10473
▁ການຂາຍ	-10474
▁ປະເມີນ	-10475
▁ມັນຖືກ	-10476
▁ລົງທຶນ	-10477
▁ສະຫຼາດ	-10478
▁ອະນາໄມ	-10479
essenger	-10480
ipitator	-10481
perature	-10482
ງົບປະມານ	-10483
ທີ່ສະອາດ	-10484
ເຟີນີເຈີ	-10485
▁Atlanta	-10486
▁Eyelash	-10487
▁Midwest	-10488
▁Molding	-10489
▁Premium	-10490
▁Unthank	-10491
▁ກັນນັ້ນ	-10492
▁ທີ່ທ່ານ	-10493
▁ສັງກະສີ	-10494
▁ເຕົາອົບ	-10495
▁ໃຊ້ເວລາ	-10496
ຄອນເທນເນີ	-10497
ງ່າຍທີ່ຈະ	-10498
ຫນັງສືພິມ	-10499
▁ບັນດານັກ	-10500
ການປຸງແຕ່ງ	-10501
ຊີ້ໃຫ້ເຫັນ	-10502
ຢູ່ຫວຽດນາມ	-10503
ຢູ່ໃນລະດັບ	-10504
ວ່າພວກເຮົາ	-10505
ສາມາດບັນລຸ	-10506
▁Hydraulic	-10507
▁Institute	-10508
▁Precision	-10509
▁ອີງຕາມການ	-10510
▁ແຕ່ວ່າມັນ	-10511
ພື້ນຖານແລ້ວ	-10512
▁Downloader	-10513
▁ການບໍລິຫານ	-10514
▁ຂໍ້ກໍາຫນົດ	-10515
ການເຂົ້າເຖິງ	-10516
ສໍາລັບເຄື່ອງ	-10517
ແລະຄວາມສາມາດ	-10518
▁ຫໍສັງເກດການ	-10519
▁ອຸປະກອນເສີມ	-10520
ເສຍສະຫຼະຊີວິດ	-10521
▁ຄວາມເຂັ້ມແຂງ	-10522
▁ໂທຣຫາພວກເຮົາ	-10523
ມີຄວາມຫຍຸ້ງຍາກ	-10524
▁tattoostattoos	-10525
ກັບຈຸດຫມາຍປາຍທາງ	-10526
CA	-10527
PN	-10528
ga	-10529
ຣູ	-10530
ອສ	-10531
.14	-10532
/10	-10533
Des	-10534
apt	-10535
arp	-10536
asy	-10537
ele	-10538
ely	-10539
ety	-10540
pet	-10541
sss	-10542
udy	-10543
ຊຽມ	-10544
ປອກ	-10545
ມ້າ	-10546
ວຍະ	-10547
ອິງ	-10548
ແຊນ	-10549
ແຖບ	-10550
▁(+	-10551
▁CT	-10552
▁Cu	-10553
▁GP	-10554
▁Na	-10555
▁pr	-10556
1390	-10557
aked	-10558
chor	-10559
ense	-10560
grad	-10561
hane	-10562
heng	-10563
ills	-10564
oven	-10565
prop	-10566
reat	-10567
word	-10568
ຄຸ້ນ	-10569
ຊະຍາ	-10570
ຊາກິ	-10571
ຫມັນ	-10572
າດແວ	-10573
ແຂ່ງ	-10574
▁(12	-10575
▁(3)	-10576
▁199	-10577
▁320	-10578
▁80%	-10579
▁CRM	-10580
▁Jul	-10581
▁Mil	-10582
▁Nic	-10583
▁SAP	-10584
▁SEC	-10585
▁Tro	-10586
▁UAE	-10587
▁sim	-10588
▁ຈິກ	-10589
▁ດວກ	-10590
▁ມິນ	-10591
▁ມົວ	-10592
▁ສົກ	-10593
▁ໄຫຼ	-10594
9001:	-10595
arket	-10596
atory	-10597
etter	-10598
netic	-10599
ບັດເຄ	-10600
ປະພຶດ	-10601
ຜະສົມ	-10602
ມະຫາກ	-10603
ອົກຊີ	-10604
າຊາກິ	-10605
ເກົ້າ	-10606
▁....	-10607
▁Bulk	-10608
▁Corn	-10609
▁Food	-10610
▁From	-10611
▁Lead	-10612
▁More	-10613
▁Sale	-10614
▁ມະດາ	-10615
▁ລະບຸ	-10616
▁ເງົາ	-10617
▁ເສິກ	-10618
ຂອງຈີນ	-10619
ຍາວນານ	-10620
ຍ້ອງຍໍ	-10621
ນິວຢອກ	-10622
ປີກ່ອນ	-10623
ພໍ່ຄ້າ	-10624
ລິບປິນ	-10625
ອັງຄານ	-10626
ົ້ານົມ	-10627
ເຟສບຸກ	-10628
ໃຊ້ງານ	-10629
້ວນແຕ່	-10630
▁Hydro	-10631
▁Neuro	-10632
▁Tower	-10633
▁black	-10634
▁elect	-10635
▁ກະດານ	-10636
▁ຕົກໃຈ	-10637
▁ວິບັດ	-10638
▁ສາບານ	-10639
▁ສຸຂຸມ	-10640
▁ເຜົ່າ	-10641
itioner	-10642
ການສົ່ງ	-10643
ທີ່ຈະມີ	-10644
ພີ່ນ້ອງ	-10645
ມັນແມ່ນ	-10646
ຫ້ອງຮຽນ	-10647
ອະນຸລັກ	-10648
າທິບໍດີ	-10649
▁Darius	-10650
▁Oracle	-10651
▁Roller	-10652
▁Suzuki	-10653
▁ການຕັດ	-10654
▁ກໍາແພງ	-10655
▁ທີ່ການ	-10656
▁ຜິດພາດ	-10657
▁ຟື້ນຟູ	-10658
▁ລິດເດດ	-10659
▁ວິທະຍາ	-10660
▁ສິລະປະ	-10661
▁ເປັນຕາ	-10662
ການສະແດງ	-10663
ປະຈໍາການ	-10664
ອຸທິດຕົນ	-10665
ເຈົ້າຂອງ	-10666
▁Crystal	-10667
▁ຄລາສສິກ	-10668
▁ທ່ານຮູ້	-10669
▁ບາງຄັ້ງ	-10670
▁ປັບແຕ່ງ	-10671
▁ລາຄາຂອງ	-10672
▁ເງິນສົດ	-10673
▁ເພິ່ນຈະ	-10674
ຂອງຊຸມຊົນ	-10675
ຄະນະກໍາມະ	-10676
ຄ່າທໍານຽມ	-10677
ທີ່ບໍ່ໄດ້	-10678
ລັກອັກສອນ	-10679
▁ກ໊ອກນ້ໍາ	-10680
▁ຄາວາຊາກິ	-10681
▁ຍົກເວັ້ນ	-10682
▁ຫຼາຍກ່ວາ	-10683
▁ເຂົ້າສູ່	-10684
▁ເຖິງຄວາມ	-10685
ຈໍານວນຫລາຍ	-10686
ສໍາເລັດຮູບ	-10687
ເພື່ອແນໃສ່	-10688
ແລະບໍລິການ	-10689
ໃນທ້ອງຖິ່ນ	-10690
▁Generator	-10691
▁ກະລຸນາໃຫ້	-10692
▁ການຈັດການ	-10693
▁ຖານຂໍ້ມູນ	-10694
▁ສົມທົບກັບ	-10695
ຂ້າງລຸ່ມນີ້	-10696
ຄໍາສັບຕ່າງໆ	-10697
ຕົ້ນກໍາເນີດ	-10698
ແຂກທ່ອງທ່ຽວ	-10699
▁fiberglass	-10700
ສາມາດເຮັດໃຫ້	-10701
▁ຄວາມຕ້ານທານ	-10702
▁ຫງວນລິຂະສິດ	-10703
▁ໂດຍບໍ່ມີການ	-10704
ກໍາຈັດຂີ້ຝຸ່ນ	-10705
ເຂົ້າສູ່ລະບົບ	-10706
▁ການນໍາສະເຫນີ	-10707
▁ເນື່ອງໃນໂອກາດ	-10708
ພັດທະນາເສດຖະກິດ	-10709
ເອກອັກຄະລັດຖະທູດ	-10710
59	-10711
EE	-10712
EI	-10713
SA	-10714
ci	-10715
▁₪	-10716
▁₱	-10717
-08	-10718
-14	-10719
.19	-10720
220	-10721
Man	-10722
bow	-10723
gas	-10724
jie	-10725
tot	-10726
uel	-10727
ປົດ	-10728
ພຸດ	-10729
ລຽນ	-10730
ຫັກ	-10731
ຮັນ	-10732
▁4)	-10733
▁Je	-10734
▁MD	-10735
▁fo	-10736
▁ip	-10737
▁ov	-10738
▁ານ	-10739
base	-10740
orld	-10741
stan	-10742
ural	-10743
ປະໄຕ	-10744
ສະຖາ	-10745
ຫນ່ຽ	-10746
ະລົກ	-10747
ໂປໂລ	-10748
▁(40	-10749
▁-10	-10750
▁198	-10751
▁Cut	-10752
▁Dry	-10753
▁EVA	-10754
▁Gir	-10755
▁ILS	-10756
▁MYR	-10757
▁PLN	-10758
▁RUB	-10759
▁Wen	-10760
▁ງົບ	-10761
▁ດ່າ	-10762
▁ຕົງ	-10763
▁ນອງ	-10764
▁ວາຍ	-10765
▁ສາງ	-10766
▁ຫຍາ	-10767
▁ໂກນ	-10768
ished	-10769
itian	-10770
lines	-10771
sssss	-10772
ຕອບສະ	-10773
ບາງທີ	-10774
ພັນລະ	-10775
ມູນິດ	-10776
ສະຫມີ	-10777
ສິງຫາ	-10778
ສີສັນ	-10779
▁2007	-10780
▁Cond	-10781
▁Core	-10782
▁Data	-10783
▁Note	-10784
▁PayP	-10785
▁Rich	-10786
▁Show	-10787
▁Spin	-10788
▁ກວາດ	-10789
▁ປຸ້ນ	-10790
▁ພາສີ	-10791
▁ສະເຕ	-10792
▁ຫລໍ່	-10793
▁ຫຼ້າ	-10794
▁ເລັງ	-10795
▁ໄປຫາ	-10796
actory	-10797
ewater	-10798
osting	-10799
ກັບຜູ້	-10800
ຂັບຂີ່	-10801
ຍູ້ແຮງ	-10802
ທີ່ນາງ	-10803
ນີ້ແລະ	-10804
ພິມໄດ້	-10805
ມະເຮັງ	-10806
ສອງຄົນ	-10807
ສົມມຸດ	-10808
ອາວຸໂສ	-10809
້ໍາມັນ	-10810
▁Autom	-10811
▁Color	-10812
▁Ether	-10813
▁Frank	-10814
▁Ocean	-10815
▁Parad	-10816
▁Sales	-10817
▁Shell	-10818
▁Shirt	-10819
▁ຕະກໍາ	-10820
▁ອິດສາ	-10821
ກຽມພ້ອມ	-10822
ຂາຍສົ່ງ	-10823
ຄວາມຖີ່	-10824
ຄົບຖ້ວນ	-10825
ບາດກ້າວ	-10826
ປາຖະຫນາ	-10827
ມະຫາກໍາ	-10828
ສາສະຫນາ	-10829
ັ່ງກ່າວ	-10830
າວັກຊີນ	-10831
▁Friend	-10832
▁Sponge	-10833
▁ສີມ່ວງ	-10834
▁ຫາດຊາຍ	-10835
ຂອງປະທານ	-10836
ຄວາມຫມາຍ	-10837
ຄາດວ່າຈະ	-10838
ຕ້ອງເຮັດ	-10839
ປະສານງານ	-10840
ມ່ວນຊື່ນ	-10841
ຫນ່ຽວນໍາ	-10842
ຫຼາຍຂຶ້ນ	-10843
ເຫຼັກກ້າ	-10844
ແທນທີ່ຈະ	-10845
ໃຊ້ໄຟຟ້າ	-10846
ໃບຄ້າຍຄື	-10847
▁Textile	-10848
▁William	-10849
▁ຂີ້ຝຸ່ນ	-10850
▁ຕ່າງໆໃນ	-10851
▁ຖ້ອຍຄໍາ	-10852
▁ບາດເຈັບ	-10853
▁ລາຄາຖືກ	-10854
▁ຫຼັກການ	-10855
▁ອຸປະສັກ	-10856
ingdirect	-10857
ການສື່ສານ	-10858
ຕະຫຼາດນັດ	-10859
ຢ່າງລະອຽດ	-10860
ລະຫັດຜ່ານ	-10861
ຫນ້າສົນໃຈ	-10862
▁ຢາເສບຕິດ	-10863
▁ຫຼຸດຜ່ອນ	-10864
ສິດທິໃນການ	-10865
ສໍາເລັດຂອງ	-10866
ເຂດພື້ນທີ່	-10867
ເຂົ້າໃນການ	-10868
▁ການຂະຫຍາຍ	-10869
▁ເຂົ້າຫນົມ	-10870
ບໍາລຸງຮັກສາ	-10871
ປັ້ນດິນເຜົາ	-10872
ສັງເກດເບິ່ງ	-10873
ສັ່ນສະເທືອນ	-10874
ສາມາດໄດ້ຮັບ	-10875
ຫນ້າເຊື່ອຖື	-10876
ການຕ່າງປະເທດ	-10877
ທີ່ມີຢູ່ແລ້ວ	-10878
ມີຄວາມຮູ້ສຶກ	-10879
ແລະຜູ້ສະຫນອງ	-10880
▁Dariussssss	-10881
ຂອງການເຮັດວຽກ	-10882
ຂຸດຄົ້ນບໍ່ແຮ່	-10883
ຊ່ວຍໃຫ້ພວກເຮົາ	-10884
ຖືກນໍາໃຊ້ເພື່ອ	-10885
ສໍາລັບຈຸດປະສົງ	-10886
ທາງດ້ານການເມືອງ	-10887
ທີ່ມີຄຸນະພາບສູງ	-10888
ສ່ວນບຸກຄົນທີ່ມີ	-10889
?"	-10890
AU	-10891
FP	-10892
HE	-10893
OK	-10894
bi	-10895
iC	-10896
xi	-10897
zi	-10898
ທໍ	-10899
▁←	-10900
.09	-10901
.35	-10902
/12	-10903
120	-10904
40)	-10905
700	-10906
Box	-10907
MPa	-10908
PDF	-10909
fit	-10910
quo	-10911
rem	-10912
str	-10913
uxi	-10914
ຄອຍ	-10915
ຈົມ	-10916
ດິບ	-10917
ຢຸງ	-10918
ແທດ	-10919
ໂຍກ	-10920
▁++	-10921
▁JB	-10922
▁KT	-10923
▁Sy	-10924
▁UP	-10925
▁ວະ	-10926
Sets	-10927
ache	-10928
flon	-10929
ices	-10930
icon	-10931
list	-10932
xing	-10933
ຖົ່າ	-10934
ຫມຸນ	-10935
ອະໄພ	-10936
▁0.6	-10937
▁1-8	-10938
▁135	-10939
▁2.8	-10940
▁Ash	-10941
▁BRL	-10942
▁CPT	-10943
▁CZK	-10944
▁DKK	-10945
▁HUF	-10946
▁MXN	-10947
▁Que	-10948
▁Rog	-10949
▁SGD	-10950
▁TWD	-10951
▁Tit	-10952
▁aut	-10953
▁bro	-10954
▁she	-10955
▁ຂັນ	-10956
▁ຄອນ	-10957
▁ຊອງ	-10958
▁ຊູນ	-10959
▁ນົມ	-10960
▁ປຽກ	-10961
▁ພິດ	-10962
▁ຢຽບ	-10963
▁ຣັດ	-10964
▁ຫມີ	-10965
▁ຮີບ	-10966
▁ແອບ	-10967
2.168	-10968
ander	-10969
atuit	-10970
ellow	-10971
ising	-10972
ylene	-10973
ທີ່ມາ	-10974
ປະຖໍາ	-10975
ປະມູນ	-10976
ສຸດທິ	-10977
ສົງໃສ	-10978
ເຍື່ອ	-10979
ໄດ້ດີ	-10980
ໄຕມາດ	-10981
▁Fest	-10982
▁Form	-10983
▁Full	-10984
▁Hall	-10985
▁Lace	-10986
▁Mart	-10987
▁Mesh	-10988
▁Para	-10989
▁Reed	-10990
▁Saga	-10991
▁Tail	-10992
▁cent	-10993
▁matt	-10994
▁wifi	-10995
▁ຄລິກ	-10996
▁ຫມອກ	-10997
▁ຫຼັບ	-10998
▁ເນີດ	-10999
ickets	-11000
iscuit	-11001
ຍິນຍອມ	-11002
ຍົນມິດ	-11003
ປີເກີດ	-11004
ຜູ້ຍິງ	-11005
ຢູ່ໃກ້	-11006
ສັນຖານ	-11007
ສົມຄວນ	-11008
ຫາດຊາຍ	-11009
ເຊື່ອງ	-11010
ໃນຊ່ວງ	-11011
▁2015)	-11012
▁Cable	-11013
▁Royal	-11014
▁bonus	-11015
▁ກໍໄດ້	-11016
▁ຂໍໃຫ້	-11017
▁ຄະແນນ	-11018
▁ທັນໃດ	-11019
▁ປັດໄຈ	-11020
▁ປີນີ້	-11021
▁ອິດສະ	-11022
▁ໃນໂລກ	-11023
▁ໄດ້ມີ	-11024
tattoos	-11025
ດີເດັ່ນ	-11026
ທຸກໆມື້	-11027
ພລາສຕິກ	-11028
ມູນນິທິ	-11029
ລາຄາແພງ	-11030
ວ່າຂ້ອຍ	-11031
ຫມູນວຽນ	-11032
ຫວັງວ່າ	-11033
ແຈ້ງການ	-11034
ແບບນັ້ນ	-11035
ໄດ້ງ່າຍ	-11036
▁PayPal	-11037
▁School	-11038
▁Tester	-11039
▁ການຈັດ	-11040
▁ຊື່ສຽງ	-11041
▁ຍົກສູງ	-11042
▁ທໍານຽມ	-11043
▁ປະເດັນ	-11044
▁ມານັ້ນ	-11045
▁ມີຫຼາຍ	-11046
▁ລາວບໍ່	-11047
▁ເມື່ອນ	-11048
▁ແບບຟອມ	-11049
.05.2018	-11050
ກິດຈະການ	-11051
ຂີ້ເຖົ່າ	-11052
ຄືກັນກັບ	-11053
ທີ່ສຸດໃນ	-11054
ທ່ອງເວັບ	-11055
ຜູ້ເຂົ້າ	-11056
ສາມາດຖືກ	-11057
ສິ່ງນັ້ນ	-11058
ເທົ່າທຽມ	-11059
ເອົາຊະນະ	-11060
▁Control	-11061
▁Display	-11062
▁ຂົນສົ່ງ	-11063
▁ທ່ານຫມໍ	-11064
▁ສັ່ງສອນ	-11065
▁ຫຼຸດລົງ	-11066
▁ອະນຸມັດ	-11067
ຂອງທ່ານໃນ	-11068
ທຸລະກິດໃນ	-11069
ພາບເອີຣົບ	-11070
ຢ່າງຫນ້ອຍ	-11071
ສະເຫນີໃຫ້	-11072
ສ່ວນຫນຶ່ງ	-11073
ອັດສະລິຍະ	-11074
▁Exchange	-11075
▁Paradise	-11076
▁Printing	-11077
▁ຈະສືບຕໍ່	-11078
▁ຊອບແວທີ່	-11079
▁ເມື່ອບໍ່	-11080
ການສົນທະນາ	-11081
ຄະນະຜູ້ແທນ	-11082
ຊ່ວຍເຫຼືອບ	-11083
ໄດ້ເຮັດໃຫ້	-11084
▁ຕາລາງແມັດ	-11085
▁ສ່ວນປະກອບ	-11086
▁ໂລຫະປະສົມ	-11087
ເດືອນປີເກີດ	-11088
ແລະສະຖານທີ່	-11089
ໃນການທົດລອງ	-11090
▁Electronic	-11091
▁ຊື່ຂອງທ່ານ	-11092
ຂອງເຄື່ອງຈັກ	-11093
ຫວັງວ່າຈະໄດ້	-11094
▁ການສະກົດຈິດ	-11095
▁ຈະເປັນແນວໃດ	-11096
▁ນັ້ນແມ່ນການ	-11097
▁ນ້ໍາຫນັກຂອງ	-11098
▁ປົກປັກຮັກສາ	-11099
▁ອຸດົມສົມບູນ	-11100
▁ແມ່ນຖືກຕ້ອງ	-11101
ຂອງອຸດສາຫະກໍາ	-11102
ຄວາມຮັບຜິດຊອບ	-11103
ສັດລ້ຽງຍົນມິດ	-11104
ແລະອຸດສາຫະກໍາ	-11105
ໄດ້ຮັບອະນຸຍາດ	-11106
ກ່ຽວກັບວິທີການ	-11107
ຕາມຄວາມຕ້ອງການ	-11108
ທາງສ່ວນຫນ້າຂອງ	-11109
▁Electrostatic	-11110
ກໍ່ຕັ້ງຂຶ້ນໃນປີ	-11111
ຢ່າງກວ້າງຂວາງໃນ	-11112
▁shoppingdirect	-11113
4-	-11114
??	-11115
SP	-11116
dr	-11117
nh	-11118
ຍີ	-11119
ດຽ	-11120
ຖີ	-11121
ອິ	-11122
ໄຫ	-11123
▁!	-11124
.20	-11125
010	-11126
180	-11127
30,	-11128
ACH	-11129
EST	-11130
Pir	-11131
afu	-11132
aps	-11133
can	-11134
era	-11135
iro	-11136
los	-11137
low	-11138
odi	-11139
pha	-11140
put	-11141
rim	-11142
ñol	-11143
ຂີດ	-11144
ພີກ	-11145
ຟລີ	-11146
ຢິບ	-11147
ຣັສ	-11148
ຫມູ	-11149
ຮວມ	-11150
ຮີບ	-11151
ຼາມ	-11152
ເຊນ	-11153
ແດ່	-11154
ໃຫຍ	-11155
ໍ່ໆ	-11156
▁3/	-11157
▁69	-11158
▁87	-11159
▁::	-11160
▁GU	-11161
▁Vo	-11162
▁ZM	-11163
▁ve	-11164
▁ງູ	-11165
▁ດຸ	-11166
▁ເຣ	-11167
▁ໄຍ	-11168
acqu	-11169
aret	-11170
cted	-11171
dele	-11172
emon	-11173
enna	-11174
etty	-11175
oday	-11176
osph	-11177
rink	-11178
well	-11179
ຊ້າງ	-11180
ຍື່ນ	-11181
ປະດາ	-11182
ລາວກ	-11183
ເຈັດ	-11184
ເລຂາ	-11185
ໄວຍະ	-11186
▁(13	-11187
▁0.7	-11188
▁16:	-11189
▁2.2	-11190
▁2.4	-11191
▁31,	-11192
▁7.5	-11193
▁AST	-11194
▁ATV	-11195
▁Ann	-11196
▁Bad	-11197
▁Bal	-11198
▁Bld	-11199
▁Gab	-11200
▁Hel	-11201
▁Mah	-11202
▁SEA	-11203
▁Ske	-11204
▁Vir	-11205
▁Yam	-11206
▁all	-11207
▁bit	-11208
▁new	-11209
▁sec	-11210
▁ski	-11211
▁top	-11212
▁ຄັກ	-11213
▁ຈອມ	-11214
▁ຈູງ	-11215
▁ຈົມ	-11216
▁ດີດ	-11217
▁ລິມ	-11218
▁ຮາວ	-11219
▁ເມກ	-11220
▁ແທງ	-11221
▁ໂອບ	-11222
ATION	-11223
eller	-11224
entai	-11225
ibbon	-11226
owers	-11227
ກະເສດ	-11228
ສະແກນ	-11229
ອິດສະ	-11230
ເຊືອກ	-11231
ໂຊກດີ	-11232
▁Alex	-11233
▁Auto	-11234
▁CSGO	-11235
▁Coca	-11236
▁Cook	-11237
▁Teen	-11238
▁Weld	-11239
▁Zhen	-11240
▁dust	-11241
▁live	-11242
▁park	-11243
▁whit	-11244
▁ຖ້ວມ	-11245
▁ຫມຸດ	-11246
▁ຫລວດ	-11247
▁ຫຸ້ມ	-11248
▁ຫຼົງ	-11249
▁ເຕັກ	-11250
hereum	-11251
ubarak	-11252
ກໍ່ໄດ້	-11253
ທີ່ຮັກ	-11254
ເຈລະຈາ	-11255
ເສື້ອຍ	-11256
ເອັນຊີ	-11257
ໃກ້ຄຽງ	-11258
ໄວຍະວະ	-11259
ໍ່ສ້າງ	-11260
▁Brown	-11261
▁Intel	-11262
▁Peter	-11263
▁Villa	-11264
▁Wuhan	-11265
▁ກະຈັດ	-11266
▁ຂະບວນ	-11267
▁ບລັອກ	-11268
▁ບຸລຸດ	-11269
▁ອະດີດ	-11270
ຄວາມບໍ່	-11271
ດັ່ງກ່າ	-11272
ຖ່ອມຕົວ	-11273
ບາດເຈັບ	-11274
ຢ່າງແຮງ	-11275
ສູງກວ່າ	-11276
ອາດຈະມີ	-11277
ອຸປະສັກ	-11278
ເຊື້ອໄຟ	-11279
ເປັນນັກ	-11280
ແຫ່ງລັດ	-11281
▁(2014)	-11282
▁Review	-11283
▁Soccer	-11284
▁Studio	-11285
▁Zipper	-11286
▁equine	-11287
▁ການບິນ	-11288
▁ຄ່າໄຖ່	-11289
▁ຍາກຈົນ	-11290
▁ບັນຍັດ	-11291
▁ຢ່າລືມ	-11292
▁ລູກຊາຍ	-11293
▁ວັນຈັນ	-11294
▁ສະຫງວນ	-11295
▁ໂດຍກົງ	-11296
ຄຸ້ນເຄີຍ	-11297
ຈັກກະວານ	-11298
ຕົວເລືອກ	-11299
ທຽບເທົ່າ	-11300
ບັນດາມາດ	-11301
ມັດທະຍົມ	-11302
ຢາວັກຊີນ	-11303
ເຕົ້ານົມ	-11304
ເຮັດຫຍັງ	-11305
ໃນຄອບຄົວ	-11306
▁Belmont	-11307
▁Dresses	-11308
▁Michael	-11309
▁Olympic	-11310
▁spindle	-11311
▁ຂ້ອຍຢາກ	-11312
▁ຄວາມຈິງ	-11313
▁ທ່ານຄວນ	-11314
▁ຢັ້ງຢືນ	-11315
ewatering	-11316
ກວ່າເກົ່າ	-11317
ຊອກຫາວິທີ	-11318
ຊ່ວຍປະຢັດ	-11319
ທີ່ທ່ານຈະ	-11320
ລະອຽດອ່ອນ	-11321
ອົດສະຕາລີ	-11322
ເດີນທາງໄປ	-11323
ເພື່ອນມິດ	-11324
▁Silicone	-11325
▁Skeleton	-11326
▁Ultimate	-11327
▁ໃນຂອບເຂດ	-11328
ຄວາມສໍາພັນ	-11329
ຖະແຫຼງຂ່າວ	-11330
ສະມາຊິກຂອງ	-11331
ສິ່ງສໍາຄັນ	-11332
ສູນບໍລິການ	-11333
ເງິນລົງທຶນ	-11334
ແລະວິທີການ	-11335
ໄປກວ່ານັ້ນ	-11336
▁cardboard	-11337
▁ການສະເຫນີ	-11338
▁ກາລະໂອກາດ	-11339
▁ຕື່ນເຕັ້ນ	-11340
ຂອງການສຶກສາ	-11341
ຈໍານວນຫນຶ່ງ	-11342
ດັ່ງກ່າວໄດ້	-11343
ທີ່ບໍ່ສາມາດ	-11344
ລົງຄະແນນສຽງ	-11345
▁blockchain	-11346
▁ການຕັ້ງຄ່າ	-11347
▁ຜູ້ຕາງຫນ້າ	-11348
ຖົງຂີ້ເຫຍື້ອ	-11349
ຢ່າງເຕັມສ່ວນ	-11350
ລະບົບຕ່ອງໂສ້	-11351
ສະພາບອາກາດໃນ	-11352
ສໍາລັບລູກຄ້າ	-11353
ການປ່ຽນແປງຂອງ	-11354
▁ເຄື່ອງສໍາອາງ	-11355
ບໍ່ຈໍາເປັນຕ້ອງ	-11356
▁ຄາສິໂນອອນໄລນ໌	-11357
▁ສໍາລັບເດັກຍິງ	-11358
▁ດໍາເນີນທຸລະກິດ	-11359
▁ຖ້າທ່ານຕ້ອງການ	-11360
3%	-11361
MN	-11362
cb	-11363
hr	-11364
ກຸ	-11365
▁%	-11366
▁●	-11367
350	-11368
380	-11369
="4	-11370
="5	-11371
ART	-11372
ERS	-11373
IDE	-11374
che	-11375
fin	-11376
ges	-11377
ima	-11378
ona	-11379
oul	-11380
rel	-11381
win	-11382
ຄີມ	-11383
ຖອດ	-11384
ລຽບ	-11385
ເຊລ	-11386
ເລຍ	-11387
ໂກນ	-11388
ໂຕຣ	-11389
ໂສກ	-11390
ໄລກ	-11391
▁(8	-11392
▁7.	-11393
▁BO	-11394
▁DB	-11395
▁Da	-11396
▁ES	-11397
▁FL	-11398
▁HY	-11399
▁MO	-11400
▁TN	-11401
▁su	-11402
▁ອງ	-11403
▁ໂຟ	-11404
-300	-11405
Cola	-11406
alth	-11407
bank	-11408
chun	-11409
html	-11410
ines	-11411
rane	-11412
tain	-11413
ກູໂກ	-11414
ຂວາຍ	-11415
ຖ້ຽວ	-11416
ທົ່ງ	-11417
ຣດິດ	-11418
ຫນອມ	-11419
ຫລຽວ	-11420
ຫຼືອ	-11421
ຽນມາ	-11422
▁108	-11423
▁BCH	-11424
▁Bai	-11425
▁CEO	-11426
▁ECN	-11427
▁Ger	-11428
▁Ham	-11429
▁Lap	-11430
▁NEW	-11431
▁OFF	-11432
▁Pvc	-11433
▁Rec	-11434
▁Run	-11435
▁Sin	-11436
▁Tan	-11437
▁VIP	-11438
▁alt	-11439
▁our	-11440
▁ຄາຍ	-11441
▁ດີໆ	-11442
▁ນວຍ	-11443
▁ນັດ	-11444
▁ຮັງ	-11445
▁ໄຂ່	-11446
ptide	-11447
ກະດາດ	-11448
ກະສັດ	-11449
ຄາບອນ	-11450
ນິເວດ	-11451
ເມດຕາ	-11452
ແຫລ່ງ	-11453
ໃບໄມ້	-11454
ໍາມະນ	-11455
▁ASTM	-11456
▁Bldg	-11457
▁CANN	-11458
▁Cord	-11459
▁Film	-11460
▁Jiao	-11461
▁Join	-11462
▁Mail	-11463
▁Mass	-11464
▁Rome	-11465
▁Tong	-11466
▁[...	-11467
▁soft	-11468
▁view	-11469
▁ປັ໊ມ	-11470
▁ພາຍຸ	-11471
▁ຫມົກ	-11472
▁ເຝິກ	-11473
▁ເອີຍ	-11474
abolic	-11475
loride	-11476
ources	-11477
ກິດການ	-11478
ກໍາແພງ	-11479
ທີ່ຈະລ	-11480
ມາເປັນ	-11481
ລວມຂອງ	-11482
ລາຍຮັບ	-11483
ສິດສອນ	-11484
ຫຼາຍປີ	-11485
ອາຍພິດ	-11486
ຮາກຖານ	-11487
ເຂັ້ມຂ	-11488
ເຊີແລນ	-11489
ໂຕຣເຈນ	-11490
ໃນກຸ່ມ	-11491
ໃຫ້ຄໍາ	-11492
ໄຮ້ສາຍ	-11493
▁2014,	-11494
▁Huafu	-11495
▁Jinan	-11496
▁Point	-11497
▁Separ	-11498
▁drone	-11499
▁hover	-11500
▁silic	-11501
▁smart	-11502
▁stero	-11503
▁ກະຕ່າ	-11504
▁ກະບົດ	-11505
▁ຊຽງໄຮ	-11506
▁ມານີ້	-11507
▁ເພີ້ມ	-11508
▁ເລັ່ງ	-11509
Pirater	-11510
odegrad	-11511
ຂ້າງຄຽງ	-11512
ຄວາມລັບ	-11513
ຄູອາຈານ	-11514
ທີ່ຜ່ານ	-11515
ນາທິການ	-11516
ພາຍຫຼັງ	-11517
ສຸພາສິດ	-11518
ເອົາມັນ	-11519
ໂຍກຍ້າຍ	-11520
ໃຫ້ເປັນ	-11521
ໄພພິບັດ	-11522
▁10,000	-11523
▁Coffee	-11524
▁Domain	-11525
▁Motors	-11526
▁Player	-11527
▁Rabies	-11528
▁unlock	-11529
▁wallet	-11530
▁ຊູແອັດ	-11531
▁ລໍາໂພງ	-11532
▁ວັນສຸກ	-11533
▁ວົງຈອນ	-11534
▁ຫມໍ້ໄຟ	-11535
endering	-11536
ກໍາປູເຈຍ	-11537
ຍຸດຕິທໍາ	-11538
ທີ່ອາດຈະ	-11539
ນິລັນດອນ	-11540
ຫັດຖະກໍາ	-11541
ໃນກໍລະນີ	-11542
ໃນຂອບເຂດ	-11543
▁Collect	-11544
▁Gratuit	-11545
▁Tianjin	-11546
▁ຂ້ອຍບໍ່	-11547
▁ຄວາມບໍ່	-11548
▁ສົ່ງອອກ	-11549
▁ແທ້ໆທີ່	-11550
ການສະຫນອງ	-11551
ຄວາມໄວສູງ	-11552
ນັກລົງທຶນ	-11553
ພິພິທະພັນ	-11554
ມາຢ້ຽມຢາມ	-11555
ສິ່ງທີ່ດີ	-11556
ອາລູມິນຽມ	-11557
ເບິ່ງເຫັນ	-11558
ເລັກໂຕນິກ	-11559
▁Coinbase	-11560
▁Compress	-11561
▁Festival	-11562
▁Machines	-11563
▁download	-11564
▁ethereum	-11565
▁ຄົ້ນຄວ້າ	-11566
▁ປະເພດຂອງ	-11567
▁ໃນຮູບແບບ	-11568
ທີ່ຮ້າຍແຮງ	-11569
ຜູ້ບໍລິໂພກ	-11570
ລະຫວ່າງສອງ	-11571
ສະບຽງອາຫານ	-11572
ໂອກາດທີ່ຈະ	-11573
ໃນສະຖານທີ່	-11574
▁ຄວາມໄວສູງ	-11575
▁ທົນທານຕໍ່	-11576
▁ມັນໄດ້ຖືກ	-11577
ifunctional	-11578
odegradable	-11579
ທີ່ມີຄຸນຄ່າ	-11580
ບົບໄຮໂດຼລິກ	-11581
ໃນປະຫວັດສາດ	-11582
▁Genotropin	-11583
▁ບໍລິສັດແລະ	-11584
▁ຫຼັງຈາກທີ່	-11585
ການຂະຫຍາຍຕົວ	-11586
ການເກັບຮັກສາ	-11587
ວິວັດທະນາການ	-11588
ໃນການເຮັດວຽກ	-11589
▁ບັນດາຜູ້ແທນ	-11590
▁ປີທີ່ຜ່ານມາ	-11591
▁ແລະການຜະລິດ	-11592
▁ແລະນັ້ນແມ່ນ	-11593
ຂອງການພັດທະນາ	-11594
ຢູ່ໃນສະຖານທີ່	-11595
ເງິນຂອງບັນທຶກ	-11596
ແລະຄ່າໃຊ້ຈ່າຍ	-11597
ໍລິສັດເຮືອບິນ	-11598
▁testosterone	-11599
▁ທີ່ຢູ່ຕິດຕໍ່	-11600
▁ບໍ່ວ່າຈະເປັນ	-11601
ສິ່ງທີ່ພວກເຂົາ	-11602
▁ການປົກຫຸ້ມຂອງ	-11603
▁ຖົງການກັ່ນຕອງ	-11604
▁ເຫຼົ່ານີ້ແມ່ນ	-11605
▁ຄໍາທີ່ກ່ຽວຂ້ອງ	-11606
ທີ່ຫນ້າຕື່ນເຕັ້ນ	-11607
?’	-11608
CB	-11609
De	-11610
LA	-11611
RH	-11612
RO	-11613
vy	-11614
▁u	-11615
.12	-11616
10)	-11617
122	-11618
15)	-11619
AME	-11620
INA	-11621
ech	-11622
gro	-11623
rib	-11624
ule	-11625
ກຽວ	-11626
ດົງ	-11627
ທູບ	-11628
ສອດ	-11629
ຫນິ	-11630
ຫາດ	-11631
ແບນ	-11632
ໂອ້	-11633
▁53	-11634
▁67	-11635
▁ep	-11636
▁nh	-11637
▁py	-11638
▁ບີ	-11639
Free	-11640
angu	-11641
comm	-11642
ious	-11643
rain	-11644
ugby	-11645
umen	-11646
wind	-11647
ດ້າຍ	-11648
ບົ່ງ	-11649
ອຟແວ	-11650
ຮົ່ວ	-11651
ັກຊິ	-11652
ເລັບ	-11653
ເຫຼວ	-11654
▁121	-11655
▁21:	-11656
▁But	-11657
▁Fin	-11658
▁Gem	-11659
▁Get	-11660
▁Her	-11661
▁LCD	-11662
▁Lan	-11663
▁Pad	-11664
▁Ros	-11665
▁Sok	-11666
▁TOP	-11667
▁Tel	-11668
▁cur	-11669
▁emb	-11670
▁pix	-11671
▁ກັງ	-11672
▁ຊາກ	-11673
▁ຫາບ	-11674
▁ຫີບ	-11675
▁ເຈີ	-11676
▁ແຟນ	-11677
▁ແມນ	-11678
▁ໂຄມ	-11679
▁ໂຊມ	-11680
ators	-11681
aylor	-11682
chool	-11683
craft	-11684
icken	-11685
riday	-11686
ສັ້ນໆ	-11687
ອຸດົມ	-11688
ເບື່ອ	-11689
ເລັ່ງ	-11690
ແກະສະ	-11691
ແຄ້ວນ	-11692
ແປກໃຈ	-11693
ໂຄມໄຟ	-11694
ໃນລັດ	-11695
▁0.15	-11696
▁BCHT	-11697
▁Circ	-11698
▁Disk	-11699
▁Ever	-11700
▁Head	-11701
▁NEMA	-11702
▁Ping	-11703
▁Sign	-11704
▁WIFI	-11705
▁post	-11706
▁tent	-11707
▁tube	-11708
▁ກ້ຽງ	-11709
▁ຊ້າຍ	-11710
▁ຫຍາຍ	-11711
▁ຫຍໍ້	-11712
▁ຫມຸນ	-11713
▁ເບີດ	-11714
▁ເພນີ	-11715
▁ເຟີນ	-11716
▁ເມລິ	-11717
▁ໂນ້ມ	-11718
androl	-11719
ionate	-11720
roller	-11721
ຄົນນີ້	-11722
ຈະຕ້ອງ	-11723
ທິປະໄຕ	-11724
ທີ່ລາວ	-11725
ັ່ງຄັດ	-11726
ແຮ່ທາດ	-11727
ໃນທ້າຍ	-11728
ໄບເບິນ	-11729
▁Covid	-11730
▁Grade	-11731
▁Patch	-11732
▁Tours	-11733
▁ມາຮອດ	-11734
▁ເບີໂທ	-11735
itecoin	-11736
ຕະວັດທີ	-11737
ສັງກະສີ	-11738
ສານເຄມີ	-11739
ສາມາດມີ	-11740
ເສັ້ນໄຍ	-11741
ເຮັດມັນ	-11742
ໃຫ້ເກີດ	-11743
ໄດ້ສ້າງ	-11744
▁Boiler	-11745
▁Sensor	-11746
▁ປະເພນີ	-11747
▁ປາຍທາງ	-11748
▁ມັນກໍ່	-11749
▁ວິເຄາະ	-11750
▁ສະຫນິດ	-11751
▁ຮ່ວມມື	-11752
▁ເກມອອນ	-11753
▁ໃຫ້ແກ່	-11754
ກັບຄືນມາ	-11755
ຊະນະເລີດ	-11756
ຊີວິດຂອງ	-11757
ດັ້ງເດີມ	-11758
ຜູ້ຫນຶ່ງ	-11759
ຢູ່ນະຄອນ	-11760
ຢູ່ເຮືອນ	-11761
ອາດຈະບໍ່	-11762
ອ້ອມຂ້າງ	-11763
ເປັນຢ່າງ	-11764
ເຜົາໄຫມ້	-11765
ແຕ່ງຕັ້ງ	-11766
ໄວທີ່ສຸດ	-11767
▁192.168	-11768
▁Channel	-11769
▁Optical	-11770
▁Remover	-11771
▁Scooter	-11772
▁desktop	-11773
▁stretch	-11774
▁ກໍາເນີດ	-11775
▁ຄວາມຮູ້	-11776
▁ຄາດຄະເນ	-11777
▁ຕົ້ນໄມ້	-11778
▁ຕ່ໍາສຸດ	-11779
▁ທ້ອງຟ້າ	-11780
▁ນອກນັ້ນ	-11781
▁ເກົາຫຼີ	-11782
▁ເຄັດລັບ	-11783
▁ເປັນນິດ	-11784
▁ເຮືອບິນ	-11785
▁ແລກປ່ຽນ	-11786
ຂອງອິນເດຍ	-11787
ຕົວຊີ້ວັດ	-11788
ທະນາຍຄວາມ	-11789
ເຊື້ອເຊີນ	-11790
ເປີດກວ້າງ	-11791
ເມື່ອທ່ານ	-11792
ເວົ້າເຖິງ	-11793
ແລະຂໍ້ມູນ	-11794
ໃຫ້ບຸກຄົນ	-11795
▁Longgang	-11796
▁ການກະທໍາ	-11797
▁ພຶດຕິກໍາ	-11798
▁ມິດຕະພາບ	-11799
▁ວັນອາທິດ	-11800
▁ສະຖານທູດ	-11801
▁ຫຼາຍກວ່າ	-11802
▁ເຈົ້າຢູ່	-11803
ການສົ່ງອອກ	-11804
ຕົ້ນຕໍແມ່ນ	-11805
ລະບາຍອາກາດ	-11806
ເຂົ້າເມືອງ	-11807
ແລະພວກເຮົາ	-11808
▁Christian	-11809
▁corrosion	-11810
▁jailbreak	-11811
▁ການຮັບຮອງ	-11812
▁ເມື່ອຂ້ອຍ	-11813
ທີ່ຈະນໍາໃຊ້	-11814
ທີ່ເກີດຂຶ້ນ	-11815
ປົກກະຕິແລ້ວ	-11816
ແຜ່ນດິນໃຫຍ່	-11817
▁ການແຂ່ງຂັນ	-11818
▁ຈິນຕະນາການ	-11819
▁ໃນເວລານັ້ນ	-11820
ຄວາມຫມັ້ນຄົງ	-11821
ປະດິດຄິດສ້າງ	-11822
ລະເບີດຝັງດິນ	-11823
▁Corporation	-11824
▁Refinecolor	-11825
▁ບັນຊີລາຍຊື່	-11826
ການປົກຫຸ້ມຂອງ	-11827
ເງື່ອນໄຂສະດວກ	-11828
▁Instrumental	-11829
▁Precipitator	-11830
▁ກັບຄືນໄປບ່ອນ	-11831
▁ຫຼາຍກວ່ານັ້ນ	-11832
ການປິ່ນປົວດ້ວຍ	-11833
▁ດ້ວຍຫົວຂໍ້ວ່າ	-11834
▁ຫນັງສືຜ່ານແດນ	-11835
ທີ່ມີປະສິດທິຜົນ	-11836
ແລະສະຫນັບສະຫນູນ	-11837
▁ລັດຖະມົນຕີກະຊວງ	-11838
3-	-11839
57	-11840
AF	-11841
DB	-11842
GT	-11843
SE	-11844
är	-11845
ки	-11846
ອໍ	-11847
ົົ	-11848
໊ກ	-11849
▁«	-11850
-17	-11851
.34	-11852
OWN	-11853
PCS	-11854
ema	-11855
hen	-11856
hol	-11857
spa	-11858
ຈັງ	-11859
ດວງ	-11860
ບ່າ	-11861
ລີດ	-11862
ຫາງ	-11863
ຫາລ	-11864
ໂກ້	-11865
▁#6	-11866
▁Av	-11867
▁HR	-11868
▁SW	-11869
▁ປູ	-11870
▁ໄດ	-11871
.6.4	-11872
acen	-11873
aner	-11874
apor	-11875
atts	-11876
ette	-11877
ilin	-11878
ique	-11879
izza	-11880
kers	-11881
nice	-11882
ogen	-11883
orge	-11884
oros	-11885
ozer	-11886
rier	-11887
wall	-11888
ດຸ່ນ	-11889
ຝັ່ງ	-11890
ຢັ້ງ	-11891
ຫວັນ	-11892
ຫຼັບ	-11893
ະລາດ	-11894
▁(30	-11895
▁10.	-11896
▁128	-11897
▁14:	-11898
▁40,	-11899
▁8.2	-11900
▁93;	-11901
▁CCN	-11902
▁DMF	-11903
▁FOB	-11904
▁Kar	-11905
▁Mob	-11906
▁Pac	-11907
▁Wet	-11908
▁Wol	-11909
▁imp	-11910
▁mil	-11911
▁non	-11912
▁van	-11913
▁ກາກ	-11914
▁ບຶດ	-11915
▁ບຸດ	-11916
▁ບຽດ	-11917
▁ຫໍ່	-11918
▁ເລດ	-11919
▁ແລນ	-11920
hacks	-11921
istan	-11922
merce	-11923
otion	-11924
stock	-11925
ຄູຝຶກ	-11926
ພັນທຸ	-11927
ສະເຕີ	-11928
ອາຊິດ	-11929
ຸກເກີ	-11930
ເພິ່ງ	-11931
▁1100	-11932
▁1950	-11933
▁95%.	-11934
▁Cand	-11935
▁Cine	-11936
▁Cost	-11937
▁Drop	-11938
▁Golf	-11939
▁Lake	-11940
▁Land	-11941
▁Qing	-11942
▁Tang	-11943
▁This	-11944
▁Wuxi	-11945
▁cool	-11946
▁tank	-11947
▁ກະແສ	-11948
▁ກ່ວາ	-11949
▁ຄວັນ	-11950
▁ຈິ້ງ	-11951
▁ຊ້ອນ	-11952
▁ຕົວກ	-11953
▁ຢັ້ງ	-11954
▁ວ່ອງ	-11955
▁ວ່າງ	-11956
▁ອີ່ມ	-11957
▁ເພັດ	-11958
▁ເມືອ	-11959
▁ເມົາ	-11960
▁ເສີຍ	-11961
affeta	-11962
tattoo	-11963
ກັນວ່າ	-11964
ດັດແປງ	-11965
ນອກຈາກ	-11966
ຜູກມັດ	-11967
ພີກເຊລ	-11968
ມົນທົນ	-11969
ລິມປິກ	-11970
ວ່ານີ້	-11971
ສະຫລຸບ	-11972
ັກຊິໂກ	-11973
ເຄີຍມີ	-11974
ໂອ້ລົມ	-11975
▁Grill	-11976
▁Trade	-11977
▁nylon	-11978
▁sight	-11979
▁ຈຸນລະ	-11980
▁ປະຫານ	-11981
▁ສາຫັດ	-11982
▁ຫມິ່ນ	-11983
▁ຫວັ່ນ	-11984
▁ໂດຍມີ	-11985
agnetic	-11986
ຂາເປົ່າ	-11987
ຄາດເດົາ	-11988
ດາວໂຫຼດ	-11989
ຕ່ໍາສຸດ	-11990
ຖ້ຽວບິນ	-11991
ສູງເຖິງ	-11992
ອມມູນິດ	-11993
ອ້າງອິງ	-11994
ຮັບເອົາ	-11995
ເກົາຫລີ	-11996
ເດັກຊາຍ	-11997
ແມ່ນໄດ້	-11998
ແລະທ່ານ	-11999
ໄວຫນຸ່ມ	-12000
▁(2010)	-12001
▁Cooler	-12002
▁Heroes	-12003
▁Jacket	-12004
▁Report	-12005
▁Sludge	-12006
▁Yamaha	-12007
▁ດີກວ່າ	-12008
▁ທຽນຈິນ	-12009
▁ນັ້ນຈະ	-12010
▁ນໍາທິດ	-12011
▁ນໍ້າໃຈ	-12012
▁ພວກມັນ	-12013
▁ຢ່າງໃດ	-12014
▁ອົບຮົມ	-12015
▁ເຮົາກໍ	-12016
ຄົນພິການ	-12017
ທາງອີເມວ	-12018
ບັນຍາກາດ	-12019
ພວກເຈົ້າ	-12020
ລົ້ມເຫຼວ	-12021
ລ່ວງຫນ້າ	-12022
ເຮັດດ້ວຍ	-12023
ໂປໂມຊັ່ນ	-12024
▁Patrick	-12025
▁Saracen	-12026
▁Spotify	-12027
▁ຄຸ້ມຄອງ	-12028
▁ດັດຊະນີ	-12029
▁ຕົກແຕ່ງ	-12030
▁ທໍາຮ້າຍ	-12031
▁ຫຼ້າສຸດ	-12032
▁ເອກະພົບ	-12033
ຈັດການກັບ	-12034
ຕົ້ນຕໍຂອງ	-12035
ທີ່ຊັດເຈນ	-12036
ມຸ່ງຫມັ້ນ	-12037
ວິທະຍາໄລກ	-12038
ສູນກາງພັກ	-12039
ອັດຕາສ່ວນ	-12040
ເຂົ້າຫນົມ	-12041
ແມ້ກະທັ້ງ	-12042
ແລະໄດ້ຮັບ	-12043
ໃກ້ຊິດກັບ	-12044
▁LinkedIn	-12045
▁Shipping	-12046
▁interior	-12047
▁terminal	-12048
▁ກວດເບິ່ງ	-12049
▁ກ່ຽວຂ້ອງ	-12050
▁ລະບົບການ	-12051
▁ສະແຫວງຫາ	-12052
ການແລກປ່ຽນ	-12053
ການໄກ່ເກ່ຍ	-12054
ຄວາມຜິດພາດ	-12055
ຄວາມສະຫງົບ	-12056
ວ່າມັນແມ່ນ	-12057
ສົນທິສັນຍາ	-12058
ເລືອກທີ່ຈະ	-12059
ແລະພັດທະນາ	-12060
ແລະວິຊາຊີບ	-12061
▁Community	-12062
▁Packaging	-12063
▁ຄ່າທໍານຽມ	-12064
▁ທີ່ແທ້ຈິງ	-12065
▁ຜູ້ຈັດການ	-12066
▁ແລະທ່ານຈະ	-12067
ຈັດຈໍາຫນ່າຍ	-12068
ພຽງເລັກນ້ອຍ	-12069
ຢ່າງຖືກຕ້ອງ	-12070
ສະແດງສິລະປະ	-12071
ເພື່ອປັບປຸງ	-12072
▁Compressor	-12073
▁Microfiber	-12074
▁ບ່ອນຈອດລົດ	-12075
▁ປະທານປະເທດ	-12076
▁ແລະວິທີການ	-12077
ຂອງພວກເຮົາໃນ	-12078
ຄວາມຫຍຸ້ງຍາກ	-12079
ພະຍາຍາມທີ່ຈະ	-12080
ເຈົ້າຫນ້າທີ່	-12081
ເຮັດໃຫ້ປະລາດ	-12082
▁ລະຫັດສິນຄ້າ	-12083
▁ວິທະຍາໄລຂອງ	-12084
▁ຫົວຫນ້າຄະນະ	-12085
▁ຮູບຊົງກະບອກ	-12086
ປະສິດທິພາບສູງ	-12087
ຢ່າງເລິກເຊິ່ງ	-12088
ສະທ້ອນໃຫ້ເຫັນ	-12089
ສໍາລັບທຸລະກິດ	-12090
ແລະການປະຕິບັດ	-12091
ໂດຍສະເພາະແມ່ນ	-12092
▁ກະລຸນາຕິດຕໍ່	-12093
▁ການເຂົ້າເຖິງ	-12094
▁ຖະຫນົນຫົນທາງ	-12095
▁ນັກວິທະຍາສາດ	-12096
▁ສໍາລັບການຂາຍ	-12097
▁ເນັ້ນຫນັກວ່າ	-12098
ເຮັດວຽກຮ່ວມກັບ	-12099
▁ປະເພດຖົງປະເພດ	-12100
▁ສ້າງແບບຈໍາລອງ	-12101
ສະຫນອງການບໍລິການ	-12102
▁ທີ່ຢູ່ຕິດຕໍ່ທັງ	-12103
DI	-12104
Fe	-12105
OH	-12106
VA	-12107
da	-12108
fr	-12109
my	-12110
zo	-12111
ຟາ	-12112
▁”	-12113
▁✔	-12114
-22	-12115
.07	-12116
.91	-12117
.95	-12118
112	-12119
25,	-12120
3]:	-12121
ENT	-12122
MLE	-12123
OND	-12124
aya	-12125
cor	-12126
don	-12127
eda	-12128
hui	-12129
ito	-12130
itz	-12131
leg	-12132
lux	-12133
ງ່ນ	-12134
ຕັກ	-12135
ຖັກ	-12136
ບ້າ	-12137
ຟາກ	-12138
ວາດ	-12139
ົວະ	-12140
ເຈດ	-12141
ໂຟມ	-12142
▁-1	-12143
▁GS	-12144
▁HS	-12145
▁NC	-12146
▁ON	-12147
▁VI	-12148
▁my	-12149
▁ຍູ	-12150
▁ຕື	-12151
.0.1	-12152
JIAN	-12153
atab	-12154
enny	-12155
exas	-12156
ough	-12157
pher	-12158
wood	-12159
ຊີວາ	-12160
ດີໃຈ	-12161
ດເຕີ	-12162
ມິຕິ	-12163
ຫນານ	-12164
ຫນຽວ	-12165
ຫິມະ	-12166
ຮຸ້ນ	-12167
ົາມາ	-12168
ແຕ່ນ	-12169
ໆກັນ	-12170
▁123	-12171
▁15:	-12172
▁225	-12173
▁280	-12174
▁Cab	-12175
▁DMC	-12176
▁Deb	-12177
▁Dev	-12178
▁Ess	-12179
▁Hen	-12180
▁Kit	-12181
▁Lat	-12182
▁Lor	-12183
▁Mem	-12184
▁Sky	-12185
▁Yes	-12186
▁hel	-12187
▁mel	-12188
▁ຂົວ	-12189
▁ຊົດ	-12190
▁ຕະລ	-12191
▁ມອດ	-12192
▁ລວດ	-12193
▁ສອກ	-12194
▁ອີ່	-12195
▁ເຕະ	-12196
▁ແຖບ	-12197
istic	-12198
tdown	-12199
urich	-12200
velop	-12201
vious	-12202
ກະປົກ	-12203
ຂົນຕາ	-12204
ບລັອກ	-12205
ປະກວດ	-12206
ພຸດທະ	-12207
ວິຈານ	-12208
ສະດຸກ	-12209
ັດທາຍ	-12210
ເຮືອງ	-12211
ໃສ່ໃນ	-12212
ໄວຣັສ	-12213
▁Band	-12214
▁Bish	-12215
▁Cash	-12216
▁Cour	-12217
▁Demo	-12218
▁Down	-12219
▁Duct	-12220
▁Guan	-12221
▁Town	-12222
▁Trip	-12223
▁Xbox	-12224
▁arch	-12225
▁gold	-12226
▁huge	-12227
▁mill	-12228
▁more	-12229
▁tape	-12230
▁tatt	-12231
▁work	-12232
▁ນ້ອມ	-12233
▁ບ້ວງ	-12234
▁ມ້ຽນ	-12235
▁ຫມູນ	-12236
▁ຫລອມ	-12237
▁ເນັດ	-12238
ential	-12239
eroean	-12240
ກັບຄົນ	-12241
ການນໍາ	-12242
ຂອງພັກ	-12243
ຕ້ອງມີ	-12244
ບັນທຸກ	-12245
ປີໃຫມ່	-12246
ມອບໃຫ້	-12247
ຢູ່ທາງ	-12248
ວີດີໂອ	-12249
ອາເມລິ	-12250
ັບປິ້ງ	-12251
ເສຍດາຍ	-12252
ເຫຼົ້າ	-12253
ໃຫ້ໄດ້	-12254
ໍານ້ໍາ	-12255
▁2008,	-12256
▁April	-12257
▁Break	-12258
▁CPTPP	-12259
▁Cisco	-12260
▁Cross	-12261
▁Khark	-12262
▁Santa	-12263
▁Stone	-12264
▁hacks	-12265
▁ຖືວ່າ	-12266
▁ທາງຕາ	-12267
▁ຫມັ່ນ	-12268
▁ໃນພາກ	-12269
Unthank	-12270
acquard	-12271
ensions	-12272
ຄລິກໃສ່	-12273
ຄວາມງາມ	-12274
ຄັ້ງນີ້	-12275
ຄືບຫນ້າ	-12276
ຈົນກ່ວາ	-12277
ທາງເທີງ	-12278
ທົ່ວທຸກ	-12279
ຫລອກລວງ	-12280
ຫຼາຍແລະ	-12281
ອະວະກາດ	-12282
ອຸປະຖໍາ	-12283
ເງິນທຶນ	-12284
ແຜນຮ່າງ	-12285
ໃຫ້ຄວາມ	-12286
▁Cotton	-12287
▁Cutter	-12288
▁Foshan	-12289
▁Letter	-12290
▁Sodium	-12291
▁Valley	-12292
▁ກະດ້າງ	-12293
▁ຂອງຕົນ	-12294
▁ດຽວກັນ	-12295
▁ຕໍາຫນິ	-12296
▁ທໍ້ຖອຍ	-12297
▁ນັກຮົບ	-12298
▁ນ້ໍາຕາ	-12299
▁ບັນຍາຍ	-12300
▁ມະເຮັງ	-12301
▁ວັນທີ່	-12302
▁ສັດປ່າ	-12303
▁ອິຕາລີ	-12304
▁ອຸປະມາ	-12305
▁ເຂົາຈະ	-12306
▁ແມ່ນບໍ	-12307
▁ແລະຖ້າ	-12308
▁ແຫວງຫາ	-12309
ກອມມູນິດ	-12310
ກິນອາຫານ	-12311
ຕ່າງໆແລະ	-12312
ທາງລົດໄຟ	-12313
ປະເພດຖົງ	-12314
ຫລາຍຢ່າງ	-12315
ອື່ນໆຂອງ	-12316
▁Chicken	-12317
▁Climate	-12318
▁Mubarak	-12319
▁ຊັບຊ້ອນ	-12320
▁ຊຶ່ງຢູ່	-12321
▁ຕ້ານທານ	-12322
▁ບົກພ່ອງ	-12323
▁ຫມາຍເຫດ	-12324
▁ແຕ່ຫນ້າ	-12325
▁ໃນຊີວິດ	-12326
ກໍລະນີນີ້	-12327
ຂ້ອຍສາມາດ	-12328
ດາວນ໌ໂຫລດ	-12329
ບຸລິມະສິດ	-12330
ບໍ່ເສຍຄ່າ	-12331
ຜົນສະທ້ອນ	-12332
ວັນນະຄະດີ	-12333
ສໍາພັນກັນ	-12334
ໃນວິທີການ	-12335
▁Business	-12336
▁ກະທັນຫັນ	-12337
▁ຊາວຫນຸ່ມ	-12338
▁ທີ່ສາມາດ	-12339
▁ປາດຖະຫນາ	-12340
▁ພາດສະຕິກ	-12341
▁ສັນຕິພາບ	-12342
▁ເຂດແຄ້ວນ	-12343
▁ເຈົ້າກັບ	-12344
ທີ່ງ່າຍດາຍ	-12345
ຢ່າງຮຸນແຮງ	-12346
ຫຼີ້ນຫຼີ້ນ	-12347
ເຮົານໍາໃຊ້	-12348
▁Mountains	-12349
▁Separator	-12350
▁halloween	-12351
▁polyester	-12352
▁ການພົວພັນ	-12353
▁ການເຕີບໂຕ	-12354
▁ຂໍ້ກໍານົດ	-12355
▁ຖືກນໍາໃຊ້	-12356
▁ເຊັ່ນນັ້ນ	-12357
ສະຫະປະຊາຊາດ	-12358
ສະຫະສະມາຄົມ	-12359
ັບປິ້ງມໍເຕີ	-12360
ເທົ່າທຽມກັນ	-12361
ເປັນຫນຶ່ງໃນ	-12362
ເຮັດສິ່ງນີ້	-12363
▁ພວກເຮົາບໍ່	-12364
▁ເຄື່ອງນຸ່ງ	-12365
ລາຍລັກອັກສອນ	-12366
ສະນະແມ່ເຫຼັກ	-12367
▁ການທ່ອງທ່ຽວ	-12368
▁ຄວາມເຂົ້າໃຈ	-12369
▁ເລືອກຂະຫນາດ	-12370
ທັກສະດ້ານໄອທີ	-12371
ທີ່ພວກເຮົາໄດ້	-12372
▁DavidUnthank	-12373
▁ຕິດຕໍ່ພົວພັນ	-12374
ເພື່ອຕອບສະຫນອງ	-12375
ເສັ້ນຜ່າສູນກາງ	-12376
▁ສະເຫຼີມສະຫຼອງ	-12377
▁ແຕ່ຫນ້າເສຍດາຍ	-12378
ການເຄື່ອນໄຫວຂອງ	-12379
▁ວັນເດືອນປີເກີດ	-12380
ທີ່ດີທີ່ສຸດທີ່ຈະ	-12381
ສ້າງຄວາມເຂັ້ມແຂງ	-12382
ເພື່ອຄວາມຕ້ອງການ	-12383
▁ຄວາມເປັນສ່ວນຕົວ	-12384
%;	-12385
',	-12386
02	-12387
DH	-12388
GI	-12389
GR	-12390
HA	-12391
KT	-12392
MO	-12393
Nm	-12394
bu	-12395
fg	-12396
ิซ	-12397
-07	-12398
-26	-12399
.17	-12400
.25	-12401
.70	-12402
.88	-12403
202	-12404
485	-12405
ENS	-12406
ICK	-12407
ONG	-12408
avy	-12409
bot	-12410
fix	-12411
iol	-12412
ita	-12413
mal	-12414
men	-12415
obe	-12416
oli	-12417
roz	-12418
ກົກ	-12419
ຄອບ	-12420
ຊີກ	-12421
ຕາກ	-12422
ຕຽມ	-12423
ນຸມ	-12424
ຜົງ	-12425
ມອງ	-12426
ມົງ	-12427
ສາບ	-12428
ຫມາ	-12429
າມາ	-12430
ຶດງ	-12431
▁("	-12432
▁4-	-12433
▁74	-12434
▁CY	-12435
▁GA	-12436
▁LO	-12437
▁Of	-12438
▁ma	-12439
▁vn	-12440
▁ຄີ	-12441
2000	-12442
acth	-12443
amps	-12444
erry	-12445
etic	-12446
ison	-12447
lots	-12448
ocon	-12449
oist	-12450
oung	-12451
pers	-12452
tube	-12453
uary	-12454
umma	-12455
ທຸລະ	-12456
ົາວະ	-12457
▁(20	-12458
▁0.3	-12459
▁1.8	-12460
▁22:	-12461
▁Bur	-12462
▁Ear	-12463
▁Exp	-12464
▁Hou	-12465
▁How	-12466
▁JPG	-12467
▁Jia	-12468
▁Lou	-12469
▁Nac	-12470
▁Raw	-12471
▁Toy	-12472
▁red	-12473
▁soc	-12474
▁ຄັງ	-12475
▁ດັກ	-12476
▁ທູນ	-12477
▁ບົວ	-12478
▁ຜັນ	-12479
▁ພົມ	-12480
▁ພໍ້	-12481
▁ມັງ	-12482
▁ລິບ	-12483
▁ລຶບ	-12484
▁ເພຍ	-12485
▁ເລີ	-12486
▁≥10	-12487
aceut	-12488
apter	-12489
arian	-12490
ennis	-12491
ering	-12492
ource	-12493
paper	-12494
ustry	-12495
ຄ່ອຍໆ	-12496
ດີງາມ	-12497
ຝລັ່ງ	-12498
ມິນນິ	-12499
ຫມ້າຍ	-12500
ັກຊ້າ	-12501
ຶດງໍ້	-12502
ເຫລັກ	-12503
▁1914	-12504
▁Cell	-12505
▁Dark	-12506
▁Gate	-12507
▁Mand	-12508
▁Stop	-12509
▁lady	-12510
▁prev	-12511
▁tric	-12512
▁ກົ້ມ	-12513
▁ຂ້ຽນ	-12514
▁ຄຸ້ນ	-12515
▁ຊ້າງ	-12516
▁ຖ້ວຍ	-12517
▁ພ່ອງ	-12518
▁ຫຍາບ	-12519
▁ຫຍິບ	-12520
▁ເບັດ	-12521
▁ແປ້ງ	-12522
Sphere	-12523
ission	-12524
olding	-12525
online	-12526
rolley	-12527
ຈຸດນີ້	-12528
ຊໍານານ	-12529
ຕິດພັນ	-12530
ທຽບກັບ	-12531
ບັນຍາຍ	-12532
ປະຕິກິ	-12533
ວ່າລາວ	-12534
ເຕັມໃຈ	-12535
ເມື່ອຍ	-12536
ເລັກໂທ	-12537
ເຫຼັ້ມ	-12538
ໂດຍລວມ	-12539
ໃນທຸກໆ	-12540
▁Class	-12541
▁Initi	-12542
▁Istan	-12543
▁Music	-12544
▁PROMO	-12545
▁Spool	-12546
▁TRUST	-12547
▁Vinyl	-12548
▁Watts	-12549
▁prote	-12550
▁ຊໍາລະ	-12551
▁ປະການ	-12552
▁ລານີ້	-12553
▁ອິນຊີ	-12554
▁ເລກທີ	-12555
shopify	-12556
ການເກັບ	-12557
ການເສັງ	-12558
ຄະລາກອນ	-12559
ຍຸຕິທໍາ	-12560
ທີ່ສ້າງ	-12561
ທີ່ເຮົາ	-12562
ບໍ່ມີໃຜ	-12563
ພະເຈົ້າ	-12564
ສະໂມສອນ	-12565
ສໍາເນົາ	-12566
ຫລາຍຄົນ	-12567
ຮີບດ່ວນ	-12568
ຮ້ອຍຄົນ	-12569
ົາວະຊົນ	-12570
ແຖວຫນ້າ	-12571
▁Friday	-12572
▁Orange	-12573
▁Resort	-12574
▁Zurich	-12575
▁exacth	-12576
▁guitar	-12577
▁powder	-12578
▁ຂອງລາວ	-12579
▁ຄໍາສັບ	-12580
▁ງຶດງໍ້	-12581
▁ຕອນນີ້	-12582
▁ຕີລາຄາ	-12583
▁ມີຫ້ອງ	-12584
▁ວ່າບໍ່	-12585
▁ສໍາພາດ	-12586
▁ໄຊຊະນະ	-12587
ຊ່ວຍທ່ານ	-12588
ບ່ອນນັ່ງ	-12589
ມູນເຊື້ອ	-12590
ເຄື່ອນໄຫ	-12591
ເຊື້ອຊາດ	-12592
ເທົ່າກັບ	-12593
ໂຄງປະກອບ	-12594
ໃຊ້ເພື່ອ	-12595
▁Battery	-12596
▁Beroean	-12597
▁Pickets	-12598
▁Venturi	-12599
▁android	-12600
▁scratch	-12601
▁ຄະນະນັກ	-12602
▁ຄຸນະພາບ	-12603
▁ຄົນອື່ນ	-12604
▁ຕາມນັ້ນ	-12605
▁ທົ່ວໂລກ	-12606
▁ບໍ່ມີໃຜ	-12607
▁ປະຕິທິນ	-12608
▁ພັນລະນາ	-12609
▁ຫລັກສູດ	-12610
▁ແລະເປັນ	-12611
aceutical	-12612
androlone	-12613
propylene	-12614
ການຕິດຕໍ່	-12615
ການປຽບທຽບ	-12616
ຂອງຕະຫຼາດ	-12617
ຂອງນັກຮຽນ	-12618
ທາດໂປຼຕີນ	-12619
ທີ່ແນະນໍາ	-12620
ບໍ່ຈໍາກັດ	-12621
ພຣະອົງໄດ້	-12622
ມິນນິໂຊຕາ	-12623
ສາມາດເປັນ	-12624
ອອກແຮງງານ	-12625
ເງິນເດືອນ	-12626
ເປັນພິເສດ	-12627
ແຈ້ງເຕືອນ	-12628
ແລະປັບປຸງ	-12629
ໂລຫະປະສົມ	-12630
▁Airlines	-12631
▁Electric	-12632
▁Istanbul	-12633
▁Knitting	-12634
▁Previous	-12635
▁ນໍາເຂົ້າ	-12636
▁ບໍ່ມີການ	-12637
▁ປອກເປືອກ	-12638
▁ພວກເຈົ້າ	-12639
▁ສະເຕນເລດ	-12640
▁ອັດຕາການ	-12641
▁ເປັນເວລາ	-12642
ຜູ້ຕາງຫນ້າ	-12643
ພາລະບົດບາດ	-12644
ອາຍຸສູງສຸດ	-12645
▁Changchun	-12646
▁Container	-12647
▁Marketing	-12648
▁Rendering	-12649
▁ຄຣິດສະມັດ	-12650
▁ລະຫັດເງິນ	-12651
▁ສະກຸນເງິນ	-12652
▁ອຸປະຕິເຫດ	-12653
▁ເພື່ອສ້າງ	-12654
▁ແລະເຄື່ອງ	-12655
refinecolor	-12656
ຕ້ອນຮັບທ່ານ	-12657
ທຸກປະເພດຂອງ	-12658
ສາຍການຜະລິດ	-12659
ອັນໃຫຍ່ຫຼວງ	-12660
ເສດຖະກິດໂລກ	-12661
▁exacthacks	-12662
▁ຂອງພວກເຂົາ	-12663
▁ຄວາມສໍາຄັນ	-12664
▁ທ່ານກໍາລັງ	-12665
▁ບໍລິສັດໄດ້	-12666
▁ສະພາບອາກາດ	-12667
▁ອະນຸຍາດໃຫ້	-12668
▁ແຕ່ພວກເຮົາ	-12669
▁ແລະຂ້ອຍກໍ່	-12670
▁ໃຫ້ບໍລິການ	-12671
ກອງປະຊຸມໃຫຍ່	-12672
ຄວາມອາດສາມາດ	-12673
ເຮັດວຽກຢູ່ໃນ	-12674
ແນ່ໃຈວ່າທ່ານ	-12675
▁ການປະມວນຜົນ	-12676
▁ຕົວຫນ່ຽວນໍາ	-12677
▁ເດືອນຕົ້ນປີ	-12678
ທີ່ມີຄວາມຫມາຍ	-12679
▁ການຊ່ວຍເຫຼືອ	-12680
▁ຂ້າພະເຈົ້າຂໍ	-12681
▁ໄດ້ເຂົ້າຮ່ວມ	-12682
ເຊິ່ງກັນແລະກັນ	-12683
▁ທະຫານເສຍອົງຄະ	-12684
▁ພວກເຮົາທຸກຄົນ	-12685
ພວກເຮົາຈະທົດແທນ	-12686
ວິທະຍາໄລກ່ຽວກັບ	-12687
ໃຫ້ການຝຶກອົບຮົມ	-12688
▁ເປັນບໍລິສັດທີ່	-12689
ທີ່ຂ້າພະເຈົ້າໄດ້	-12690
ສະແຕນເລດສະແຕນເລດ	-12691
▁ການສະຫນັບສະຫນູນ	-12692
!,	-12693
,2	-12694
/-	-12695
/3	-12696
09	-12697
En	-12698
He	-12699
JD	-12700
PL	-12701
PM	-12702
Up	-12703
WG	-12704
fs	-12705
iu	-12706
nm	-12707
yp	-12708
ຜາ	-12709
ໄບ	-12710
-09	-12711
.01	-12712
ALL	-12713
AND	-12714
awa	-12715
bro	-12716
ews	-12717
hib	-12718
htt	-12719
inh	-12720
ius	-12721
luj	-12722
mil	-12723
oir	-12724
riv	-12725
tek	-12726
uls	-12727
viv	-12728
yun	-12729
ກ່ວ	-12730
ນົກ	-12731
ຫິວ	-12732
ອຽນ	-12733
ເລນ	-12734
ເຫມ	-12735
ແດດ	-12736
້ອາ	-12737
▁",	-12738
▁61	-12739
▁AI	-12740
▁LF	-12741
▁SC	-12742
▁er	-12743
▁ຝີ	-12744
▁ໂຖ	-12745
▁ໄຕ	-12746
aces	-12747
cing	-12748
icol	-12749
iles	-12750
iral	-12751
ning	-12752
ocol	-12753
okyt	-12754
oose	-12755
opro	-12756
ures	-12757
ละนด	-12758
ຈົ່ມ	-12759
ດ່າງ	-12760
ຕົວະ	-12761
ສາມີ	-12762
ຫມໍ້	-12763
ື້ອກ	-12764
ເຊັບ	-12765
ແກ່ງ	-12766
ແຄ້ນ	-12767
▁188	-12768
▁210	-12769
▁4.3	-12770
▁5.5	-12771
▁7.4	-12772
▁90%	-12773
▁ALL	-12774
▁Dar	-12775
▁Dut	-12776
▁Flu	-12777
▁Hex	-12778
▁IEC	-12779
▁Laz	-12780
▁NAS	-12781
▁Syn	-12782
▁Tom	-12783
▁Ton	-12784
▁WPC	-12785
▁don	-12786
▁eng	-12787
▁imm	-12788
▁log	-12789
▁rad	-12790
▁ref	-12791
▁sex	-12792
▁ຂົມ	-12793
▁ຟຸດ	-12794
▁ວຽນ	-12795
▁ແຊກ	-12796
▁ໄຕ້	-12797
Haber	-12798
ORDER	-12799
antic	-12800
icket	-12801
iforn	-12802
isure	-12803
itter	-12804
loads	-12805
onald	-12806
onder	-12807
ongee	-12808
ooder	-12809
ptine	-12810
rifug	-12811
river	-12812
stone	-12813
under	-12814
water	-12815
ກໍໄດ້	-12816
ຊຽງໄຮ	-12817
ດຸ່ນດ	-12818
ພິສູດ	-12819
ລິເມດ	-12820
ສັດຕະ	-12821
ສັດຕູ	-12822
ສາເຫດ	-12823
ອບຄອບ	-12824
ເຜີ້ງ	-12825
ໄອແລນ	-12826
ໍລະນີ	-12827
▁1050	-12828
▁Dete	-12829
▁Meta	-12830
▁Patt	-12831
▁Porn	-12832
▁Quan	-12833
▁Shot	-12834
▁Stan	-12835
▁Time	-12836
▁Yong	-12837
▁bead	-12838
▁qual	-12839
▁ripp	-12840
▁tips	-12841
▁ຊີ້ນ	-12842
▁ຕັ່ງ	-12843
▁ບ່າຍ	-12844
▁ມືຖື	-12845
▁ລັອກ	-12846
▁ສ້ອຍ	-12847
▁ເອັດ	-12848
▁ແຫນ່	-12849
▁ໂທຫາ	-12850
▁ໄຫລ່	-12851
▁ໄຮໂດ	-12852
acetam	-12853
ishing	-12854
ophone	-12855
ormone	-12856
spañol	-12857
ກວດພົບ	-12858
ຄວນຮູ້	-12859
ດັດແກ້	-12860
ຕົວຂອງ	-12861
ບົດຂຽນ	-12862
ປະຫວັດ	-12863
ລຶກລັບ	-12864
ສະຫລາດ	-12865
ສົມດຸນ	-12866
ັບເລັດ	-12867
ແມ່ພິມ	-12868
ແລະຖືກ	-12869
▁2012,	-12870
▁2016)	-12871
▁Check	-12872
▁Ferry	-12873
▁Flute	-12874
▁Ninja	-12875
▁Rokyt	-12876
▁Scott	-12877
▁Smith	-12878
▁Texas	-12879
▁Ultra	-12880
▁Watch	-12881
▁Zhang	-12882
▁trans	-12883
▁valve	-12884
▁ກິດຈະ	-12885
▁ນະລົກ	-12886
▁ປີສາດ	-12887
▁ສາທິດ	-12888
▁ຫມ່ໍາ	-12889
▁ເຄືອງ	-12890
▁ແນໃສ່	-12891
Changes	-12892
atabase	-12893
ifornia	-12894
opamine	-12895
ກາງແຈ້ງ	-12896
ຂອງປ່ຽງ	-12897
ຈ່າຍຄ່າ	-12898
ຍົກຍ້າຍ	-12899
ຖ່າຍທອດ	-12900
ພ້ອມກັນ	-12901
ຢ່າງບໍ່	-12902
ລະປະທານ	-12903
ສັບຊ້ອນ	-12904
▁BORDER	-12905
▁Canber	-12906
▁Client	-12907
▁Equina	-12908
▁Forums	-12909
▁Rooder	-12910
▁Switch	-12911
▁Travel	-12912
▁pixels	-12913
▁rotary	-12914
▁ກະປ໋ອງ	-12915
▁ນັບແຕ່	-12916
▁ສູນກາງ	-12917
▁ອັບເດດ	-12918
▁ເອີລົບ	-12919
▁ແຮງງານ	-12920
cription	-12921
volution	-12922
ຈັດພີມມາ	-12923
ບັນຈຸພັນ	-12924
ພວກເຮົາມ	-12925
ພາບປະກອບ	-12926
ລົ້ມເຫລວ	-12927
ສະພາແຫ່ງ	-12928
ຫຼາຍຂື້ນ	-12929
▁Acrylic	-12930
▁Drifter	-12931
▁Dusting	-12932
▁Medical	-12933
▁TRUSTED	-12934
▁Therapy	-12935
▁Vietnam	-12936
▁Wenzhou	-12937
▁Yinzhou	-12938
▁discuss	-12939
▁ກາງແຈ້ງ	-12940
▁ທ່ານໄດ້	-12941
▁ປະໂລຫິດ	-12942
▁ມືອາຊີບ	-12943
▁ວ່າຄວາມ	-12944
▁ອາບນ້ໍາ	-12945
Changeset	-12946
ການກວດສອບ	-12947
ການວິເຄາະ	-12948
ຈິດວິນຍານ	-12949
ຕີລາຄາສູງ	-12950
ປະລິນຍາຕີ	-12951
ຫນຶ່ງແມ່ນ	-12952
ອອກແບບໂດຍ	-12953
ຮູບແບບການ	-12954
ໃນພື້ນທີ່	-12955
່ຽວກັບການ	-12956
▁Material	-12957
▁RayHaber	-12958
▁ກົດລະບຽບ	-12959
▁ທີ່ມີການ	-12960
▁ພ້ອມດ້ວຍ	-12961
▁ມິນລິເມດ	-12962
▁ໃນນັ້ນມີ	-12963
ການຢັ້ງຢືນ	-12964
ການສອບເສັງ	-12965
ຄວາມຮັບຮູ້	-12966
ຕົວຈິງແລ້ວ	-12967
ລ່ວງລະເມີດ	-12968
ອາຫານເຊົ້າ	-12969
ແຕກຕ່າງຈາກ	-12970
ແມ່ນພຽງແຕ່	-12971
ໃນການສຶກສາ	-12972
ໃຫ້ປະຊາຊົນ	-12973
▁Rokytnice	-12974
▁ການຕະຫຼາດ	-12975
▁ຂໍ້ສະເຫນີ	-12976
▁ຕອບສະຫນອງ	-12977
▁ຕາເວັນຕົກ	-12978
▁ຕ່າງປະເທດ	-12979
▁ທະນາຍຄວາມ	-12980
▁ທີ່ມີຄວາມ	-12981
▁ສີນ້ໍາຕານ	-12982
▁ເດືອນຕຸລາ	-12983
ຂອງເດັກນ້ອຍ	-12984
ຈະເປັນແນວໃດ	-12985
ທີ່ຈົດທະບຽນ	-12986
ທີ່ມີປະໂຫຍດ	-12987
ມະຫາກໍາກິລາ	-12988
ເພື່ອສະຫນອງ	-12989
ເຮັດໃຫ້ຂ້ອຍ	-12990
ແລະເງື່ອນໄຂ	-12991
ໃກ້ຂ້ອຍໂທຫາ	-12992
▁California	-12993
▁Skateboard	-12994
▁ອັກຄະສາວົກ	-12995
▁ເສີມຂະຫຍາຍ	-12996
ການເຊື່ອມໂຍງ	-12997
ທີ່ເຂົາເຈົ້າ	-12998
ເມື່ອພວກເຮົາ	-12999
▁Temperature	-13000
▁ເກັບຂີ້ຝຸ່ນ	-13001
ຂະຫຍາຍຕົວຢ່າງ	-13002
ທາງອິນເຕີເນັດ	-13003
ທີ່ມີຢູ່ໃນທຸກ	-13004
ເຮັດຄວາມສະອາດ	-13005
▁ຕໍ່ໄປນີ້ແມ່ນ	-13006
▁ສະພາບແວດລ້ອມ	-13007
▁ນະຄອນໂຮ່ຈີມິນ	-13008
▁ຢ່າລືມກ່ຽວກັບ	-13009
▁ເຄື່ອງດູດຝຸ່ນ	-13010
▁ໃນເວລາທີ່ທ່ານ	-13011
ພຣະຜູ້ເປັນເຈົ້າ	-13012
▁ແລະໂຮງງານຜະລິດ	-13013
ຢ່າງມີປະສິດທິຜົນ	-13014
))	-13015
AK	-13016
IB	-13017
Le	-13018
PO	-13019
do	-13020
ບີ	-13021
-70	-13022
.64	-13023
105	-13024
302	-13025
360	-13026
Win	-13027
amm	-13028
ded	-13029
kok	-13030
ozz	-13031
rie	-13032
ຂວດ	-13033
ຟັນ	-13034
ຫອງ	-13035
ຫາວ	-13036
ຫຸງ	-13037
ອໍາ	-13038
ເກຍ	-13039
ໂງ່	-13040
້ວກ	-13041
▁#5	-13042
▁(9	-13043
▁2-	-13044
▁77	-13045
▁Do	-13046
▁Ep	-13047
▁Ev	-13048
▁GO	-13049
▁HI	-13050
▁Ol	-13051
▁PT	-13052
▁Pr	-13053
▁TO	-13054
▁Us	-13055
▁av	-13056
▁ໄຖ	-13057
0000	-13058
84.2	-13059
Blog	-13060
apez	-13061
ards	-13062
ared	-13063
best	-13064
book	-13065
esis	-13066
igan	-13067
mesh	-13068
ours	-13069
room	-13070
roph	-13071
uble	-13072
ກິພີ	-13073
ຄວັນ	-13074
ຄອບຄ	-13075
ຊະນາ	-13076
ຊື້ນ	-13077
ດູດນ	-13078
ຖົ່ວ	-13079
ຖ່ານ	-13080
ປາຖະ	-13081
ຟ້ອງ	-13082
ມະຕິ	-13083
ວິດີ	-13084
ວ່າມ	-13085
ສາຂາ	-13086
ຫ່ວງ	-13087
ະນຶກ	-13088
ເດີ້	-13089
▁1/2	-13090
▁304	-13091
▁888	-13092
▁Bin	-13093
▁CPA	-13094
▁Ins	-13095
▁Job	-13096
▁Ken	-13097
▁LAS	-13098
▁Leg	-13099
▁May	-13100
▁Mun	-13101
▁SAR	-13102
▁SSL	-13103
▁Van	-13104
▁WEF	-13105
▁Yuy	-13106
▁bul	-13107
▁det	-13108
▁ios	-13109
▁ຍົມ	-13110
▁ຕາບ	-13111
▁ປູ່	-13112
▁ຢືມ	-13113
▁ຫວນ	-13114
▁ເບຍ	-13115
▁ເອດ	-13116
▁ແນນ	-13117
▁ແນມ	-13118
Jilin	-13119
alian	-13120
anton	-13121
ersey	-13122
itive	-13123
odeon	-13124
phalt	-13125
ກະທູ້	-13126
ປັດຕະ	-13127
ມາກັບ	-13128
ລັກຊີ	-13129
ສະເຫນ	-13130
ອິນຊີ	-13131
ານັ້ນ	-13132
າວິທີ	-13133
ຽງຈັນ	-13134
ໃນມື້	-13135
ໄວຣັດ	-13136
▁1300	-13137
▁ANSI	-13138
▁Buck	-13139
▁Camp	-13140
▁Chen	-13141
▁Feed	-13142
▁HDPE	-13143
▁Kate	-13144
▁film	-13145
▁porn	-13146
▁prom	-13147
▁ກຼາມ	-13148
▁ຄ້ອຍ	-13149
▁ຊ້ອມ	-13150
▁ຕ້ອຍ	-13151
▁ທຸລະ	-13152
▁ລີ້ນ	-13153
▁ຫນຽວ	-13154
▁ຫມໍ້	-13155
▁ເຊັດ	-13156
▁ເລຂາ	-13157
▁ເສືອ	-13158
▁ແຫວນ	-13159
▁ໂປໂລ	-13160
atform	-13161
eptine	-13162
ithium	-13163
totype	-13164
ການຈັດ	-13165
ການປູກ	-13166
ຂຶ້ນມາ	-13167
ຊິງຕັນ	-13168
ດຽວກັບ	-13169
ຕອບແທນ	-13170
ຕົວກອງ	-13171
ທອງແດງ	-13172
ທາງລົບ	-13173
ທີ່ອາດ	-13174
ທໍາງານ	-13175
ຫລາຍປີ	-13176
າກຫລາຍ	-13177
ແຊກແຊງ	-13178
ແຜນທີ່	-13179
ໃຊ້ວຽກ	-13180
ໆນ້ອຍໆ	-13181
▁2016.	-13182
▁3.2.1	-13183
▁CHINA	-13184
▁Franc	-13185
▁Staff	-13186
▁psych	-13187
▁quote	-13188
▁vinyl	-13189
▁ດັດນີ	-13190
▁ນໍາໄປ	-13191
▁ວິຈານ	-13192
▁ສະບຽງ	-13193
▁ສະຫນາ	-13194
▁ສັກຢາ	-13195
▁ສັບພະ	-13196
▁ສາວົກ	-13197
▁ໂບນັດ	-13198
eration	-13199
ຄວາມຜິດ	-13200
ຕ້ອງໃຊ້	-13201
ນາຍຫນ້າ	-13202
ປັກກິ່ງ	-13203
ພັນລະຍາ	-13204
ອີກຄັ້ງ	-13205
ໃນເມືອງ	-13206
▁0086-1	-13207
▁Compos	-13208
▁Marble	-13209
▁Robert	-13210
▁Teflon	-13211
▁ການແພດ	-13212
▁ຕັ້ງໃຈ	-13213
▁ບັນລັງ	-13214
▁ພໍ່ແມ່	-13215
▁ສະຫຼອງ	-13216
▁ສະຫຼຸບ	-13217
▁ໃນຄວາມ	-13218
ກວດເບິ່ງ	-13219
ຄໍາເວົ້າ	-13220
ລະດູຫນາວ	-13221
ສະຖານທູດ	-13222
ຮອງປະທານ	-13223
▁100,000	-13224
▁Bearing	-13225
▁Cutting	-13226
▁Ductile	-13227
▁Factory	-13228
▁Kharkiv	-13229
▁Pacific	-13230
▁Wedding	-13231
▁ຄວາມງາມ	-13232
▁ຈຸດຫມາຍ	-13233
▁ຕື້ໂດລາ	-13234
▁ທີ່ຂ້ອຍ	-13235
▁ທີ່ຫນ້າ	-13236
▁ທີ່ເຮົາ	-13237
▁ວົງເງິນ	-13238
▁ເບີກບານ	-13239
▁ໄດ້ສ້າງ	-13240
▁ໄດ້ເປັນ	-13241
ຂອງບຸກຄົນ	-13242
ຂອງອົງການ	-13243
ຂອງແມ່ຍິງ	-13244
ຂໍ້ສັງເກດ	-13245
ທຸລະກິດຂະ	-13246
ພ້ອມທີ່ຈະ	-13247
ສົມທົບກັນ	-13248
ຮຽນຮູ້ຈາກ	-13249
ເຄື່ອງຕັດ	-13250
ໃນບໍລິເວນ	-13251
ໄດ້ຮັບຮອງ	-13252
ໄດ້ຮັບຮູ້	-13253
▁American	-13254
▁Canberra	-13255
▁Function	-13256
▁Training	-13257
▁ການຮັກສາ	-13258
▁ຍຶດຫມັ້ນ	-13259
▁ທີ່ປຶກສາ	-13260
▁ບ່ອນນັ່ງ	-13261
▁ພາບພະຍົນ	-13262
▁ເຮົາຕ້ອງ	-13263
ນັກສິລະປິນ	-13264
ປະຈໍາເດືອນ	-13265
ສໍາລັບຄວາມ	-13266
ໃຊ້ອຸປະກອນ	-13267
▁resources	-13268
▁ການຜ່າຕັດ	-13269
▁ການສູນເສຍ	-13270
▁ກ່ອນທີ່ຈະ	-13271
▁ນະຄອນຫຼວງ	-13272
▁ວັນອັງຄານ	-13273
▁ໄດ້ຕະຫຼອດ	-13274
ການຄ້າຫນ້ອຍ	-13275
ການຕັດສິນໃຈ	-13276
ຄວາມຖືກຕ້ອງ	-13277
ທີ່ໂດດເດັ່ນ	-13278
ນັກທ່ອງທ່ຽວ	-13279
ພຣະກິດຕິຄຸນ	-13280
ເຮັດໃຫ້ເກີດ	-13281
▁ມັນເປັນການ	-13282
▁ເຄື່ອງດື່ມ	-13283
▁ເຈົ້າສາມາດ	-13284
ຕາເວັນອອກກາງ	-13285
ປະທານາທິບໍດີ	-13286
ຜູ້ອໍານວຍການ	-13287
ຜົນບັງຄັບໃຊ້	-13288
ສ່ວນທີ່ເຫຼືອ	-13289
ຫຼີກເວັ້ນການ	-13290
ເພີ່ມຂຶ້ນຂອງ	-13291
ແລະການປັບປຸງ	-13292
ໃນການກໍ່ສ້າງ	-13293
▁Conditioner	-13294
▁Nickelodeon	-13295
▁ຄວາມແຕກຕ່າງ	-13296
▁ຄະນະຈັດຕັ້ງ	-13297
▁ຕິດຕັ້ງຜ່ານ	-13298
▁ທີ່ກອງປະຊຸມ	-13299
▁ທ່ານຕ້ອງການ	-13300
▁ສາຍການຜະລິດ	-13301
ກອບເປັນຈໍານວນ	-13302
ຂອງບັນດາປະເທດ	-13303
▁ທໍາຄວາມສະອາດ	-13304
▁ປະຫວັດສາດຂອງ	-13305
▁ຜູ້ເຂົ້າຮ່ວມ	-13306
▁ໃບຢັ້ງຢືນການ	-13307
ຊັບສິນທາງປັນຍາ	-13308
ທີ່ມີຄວາມສາມາດ	-13309
ເຄື່ອງນຸ່ງຫົ່ມ	-13310
▁ການດໍາເນີນງານ	-13311
▁ນອກເຫນືອໄປຈາກ	-13312
▁ໃນຄໍາສັບຕ່າງໆ	-13313
ສັນຍາການຄ້າເສລີ	-13314
▁ຄວາມສາມາດໃນການ	-13315
Ad	-13316
FA	-13317
KE	-13318
MK	-13319
Ne	-13320
TD	-13321
UL	-13322
kW	-13323
lp	-13324
wu	-13325
zy	-13326
ຕມ	-13327
ຜີ	-13328
ອູ	-13329
-85	-13330
.50	-13331
165	-13332
769	-13333
:05	-13334
ERY	-13335
abl	-13336
aic	-13337
ato	-13338
col	-13339
ful	-13340
kin	-13341
mmx	-13342
oom	-13343
oxy	-13344
tai	-13345
uns	-13346
zer	-13347
ຊີນ	-13348
ທົວ	-13349
ປົນ	-13350
ພັຍ	-13351
ມີນ	-13352
ລຽງ	-13353
ຮັດ	-13354
ເຫງ	-13355
ໂຟນ	-13356
▁#,	-13357
▁EL	-13358
▁KY	-13359
▁RC	-13360
▁SI	-13361
▁ml	-13362
----	-13363
afil	-13364
bags	-13365
oles	-13366
oria	-13367
plic	-13368
stru	-13369
ulph	-13370
ylum	-13371
ຈຸລະ	-13372
ພົ່ນ	-13373
ລະຕະ	-13374
ຫນາມ	-13375
ຫຼົກ	-13376
ອ່ຽງ	-13377
ະນີ້	-13378
ເຣັກ	-13379
ແປ້ງ	-13380
▁2.7	-13381
▁4.5	-13382
▁518	-13383
▁6.0	-13384
▁777	-13385
▁Bab	-13386
▁DOC	-13387
▁Jog	-13388
▁Lit	-13389
▁Los	-13390
▁Mor	-13391
▁Nex	-13392
▁Not	-13393
▁Shi	-13394
▁Tap	-13395
▁Ten	-13396
▁URL	-13397
▁Zoo	-13398
▁cou	-13399
▁reg	-13400
▁sur	-13401
▁ກັກ	-13402
▁ຊັນ	-13403
▁ຕົບ	-13404
▁ບຣາ	-13405
▁ບົນ	-13406
▁ລາດ	-13407
▁ເກຍ	-13408
▁ເບກ	-13409
▁ແຫລ	-13410
▁ໂຄບ	-13411
▁ໂປດ	-13412
▁ໂສ້	-13413
/2018	-13414
ERIES	-13415
INGBO	-13416
annab	-13417
ateur	-13418
attle	-13419
inson	-13420
ruary	-13421
ungal	-13422
ຄູປອງ	-13423
ງ່າຍໆ	-13424
ຍາກໍາ	-13425
ຕາບອດ	-13426
ຕິຜົນ	-13427
ຕົກໃຈ	-13428
ນໍາມາ	-13429
ບົດທີ	-13430
ປະຖົມ	-13431
ສາມປີ	-13432
ຫຼືໄປ	-13433
ຮາດແວ	-13434
ັກຮຽນ	-13435
ເຂົ່າ	-13436
ແລະຢາ	-13437
ໂປຣແກ	-13438
▁(3.5	-13439
▁0.00	-13440
▁100,	-13441
▁COIN	-13442
▁Coal	-13443
▁Gray	-13444
▁Hipp	-13445
▁Kies	-13446
▁Maxi	-13447
▁Past	-13448
▁Real	-13449
▁Tran	-13450
▁Unit	-13451
▁Xiam	-13452
▁coin	-13453
▁foil	-13454
▁past	-13455
▁snow	-13456
▁ກ້າມ	-13457
▁ຂີ້ເ	-13458
▁ຄລິບ	-13459
▁ຈັ່ງ	-13460
▁ບົ່ງ	-13461
▁ປ່ຽມ	-13462
▁ມາລະ	-13463
▁ສະຖາ	-13464
▁ຫ່ຽວ	-13465
▁ແທ່ນ	-13466
▁ໂອ້ຍ	-13467
▁“...	-13468
6084.2	-13469
ONDALE	-13470
ailand	-13471
ethane	-13472
ground	-13473
istory	-13474
loader	-13475
osphor	-13476
ການກິນ	-13477
ການຕັດ	-13478
ຈະເລີນ	-13479
ຈາກຈີນ	-13480
ດ້ວຍມື	-13481
ຕິດກັບ	-13482
ຖາມວ່າ	-13483
ຖົງຖົງ	-13484
ທີ່ຄົນ	-13485
ປະກະຕິ	-13486
ຜູ້ຂາຍ	-13487
ຜູ້ຮັບ	-13488
ຜ່າກາງ	-13489
ມີອາຍຸ	-13490
ວາງອອກ	-13491
ສຸດຍອດ	-13492
ອອກສຽງ	-13493
ເຫລົ່າ	-13494
ແທດຈິງ	-13495
▁1,000	-13496
▁2.6.4	-13497
▁2015,	-13498
▁Frame	-13499
▁Hubei	-13500
▁Medic	-13501
▁Peach	-13502
▁Solid	-13503
▁Space	-13504
▁Study	-13505
▁USMLE	-13506
▁Under	-13507
▁shaft	-13508
▁ກົນໄກ	-13509
▁ກໍາໄລ	-13510
▁ຈະຖືກ	-13511
▁ນີ້ຈະ	-13512
▁ປະກັນ	-13513
▁ລັງຈະ	-13514
▁ເດືອດ	-13515
▁ແຕ່ມີ	-13516
▁ໂຢຮັນ	-13517
▁ໄປສູ່	-13518
acetime	-13519
apezoid	-13520
unching	-13521
ກະຕັນຍູ	-13522
ກິພີເດຍ	-13523
ຂອງກຸ່ມ	-13524
ຂ້ານ້ອຍ	-13525
ຂ້າມຟາກ	-13526
ຊັ້ນສູງ	-13527
ດເຕີລີ່	-13528
ບັນເທີງ	-13529
ພຣະຄຣິດ	-13530
ັ້ນແມ່ນ	-13531
ເຂົ້າຫາ	-13532
ແຕ້ມຮູບ	-13533
ແມ່ນຢູ່	-13534
▁(2011)	-13535
▁Hotels	-13536
▁Indian	-13537
▁Pallet	-13538
▁Pongee	-13539
▁Pulver	-13540
▁Sealed	-13541
▁Valves	-13542
▁iphone	-13543
▁mobile	-13544
▁ripple	-13545
▁ຂອງມັນ	-13546
▁ຂອບເຂດ	-13547
▁ຈອງຫອງ	-13548
▁ຊຶ່ງຈະ	-13549
▁ຍ້ອງຍໍ	-13550
▁ດິນແດນ	-13551
▁ຖົງກອງ	-13552
▁ບັນດາກ	-13553
▁ປະເສີດ	-13554
▁ລູກສາວ	-13555
▁ວ່າມັນ	-13556
▁ສະຖິຕິ	-13557
▁ສະຫງ່າ	-13558
▁ສຶກວ່າ	-13559
▁ເຈຕະນາ	-13560
▁ເຫລັ້ມ	-13561
▁ແລະນາງ	-13562
▁ແລະບໍ່	-13563
▁ໃນຊ່ວງ	-13564
essional	-13565
ຕ່າງໆທີ່	-13566
ອົກຊີເຈນ	-13567
ຮັບມືກັບ	-13568
ເຊັ່ນນີ້	-13569
ເຖິງແມ່ນ	-13570
ເພື່ອຊາດ	-13571
ເສື້ອຍາວ	-13572
ໂສກເສົ້າ	-13573
ໃນທີ່ສຸດ	-13574
▁Friends	-13575
▁Furnace	-13576
▁Taffeta	-13577
▁article	-13578
▁ຄາດຫມາຍ	-13579
▁ຍົກຍ້ອງ	-13580
▁ພົ້ນຈາກ	-13581
▁ວັນເສົາ	-13582
▁ຫລັກຖານ	-13583
▁ເນື້ອໃນ	-13584
▁ເວບໄຊທ໌	-13585
▁ເສລີພາບ	-13586
ຄູ່ຜົວເມຍ	-13587
ຈໍານວນຂອງ	-13588
ທາງວິນຍານ	-13589
ບັດເຄຣດິດ	-13590
ຜູ້ທີ່ໄດ້	-13591
ມອບລາງວັນ	-13592
ສະຖານະພາບ	-13593
ໃນຕອນທ້າຍ	-13594
▁86-574-8	-13595
▁Internet	-13596
▁Recovery	-13597
▁conveyor	-13598
▁ທີ່ນະຄອນ	-13599
▁ນັກສະແດງ	-13600
▁ປີຜ່ານມາ	-13601
▁ລະດູຫນາວ	-13602
▁ສັນຍາລັກ	-13603
▁ເຈົ້າທີ່	-13604
▁ເຊິ່ງໄດ້	-13605
▁ເວັບໄຊຕ໌	-13606
ທີ່ພັກອາໄສ	-13607
ບາງສ່ວນຂອງ	-13608
ປະສິດຕິຜົນ	-13609
ສາມາດຜະລິດ	-13610
ແຜ່ນດິນໂລກ	-13611
▁Machining	-13612
▁Morehacks	-13613
▁Zhongshan	-13614
▁diaphragm	-13615
▁ຈິດວິນຍານ	-13616
▁ນັກລົງທຶນ	-13617
▁ຜູ້ຄົນຂອງ	-13618
▁ຮ້ານອາຫານ	-13619
▁ເຈົ້າດ້ວຍ	-13620
▁ເດືອນເມສາ	-13621
▁ເປັນເຈົ້າ	-13622
▁ເຫລົ່ານີ້	-13623
▁ເຮັດແນວໃດ	-13624
▁ແນ່ນອນວ່າ	-13625
ຈົບການສຶກສາ	-13626
ປະເພດຂອງການ	-13627
ສັກຢາວັກຊີນ	-13628
ສິ່ງທີ່ເປັນ	-13629
ແລະປະສົບການ	-13630
▁CANNONDALE	-13631
▁Initiative	-13632
▁ຊັບພະຍາກອນ	-13633
▁ຍື່ນພາຍໃຕ້	-13634
▁ດໍາເນີນການ	-13635
▁ມັນແມ່ນການ	-13636
▁ສະຖຽນລະພາບ	-13637
▁ສົ່ງອີເມລ໌	-13638
ຄວນໄດ້ຮັບການ	-13639
ຄວາມຫນາແຫນ້ນ	-13640
ປະຊາຊົນນະຄອນ	-13641
ປະສົບກັບຄວາມ	-13642
ເປັນອັນຕະລາຍ	-13643
ແລະການນໍາໃຊ້	-13644
ໃນເວລາດຽວກັນ	-13645
▁3.2.16084.2	-13646
▁ຂ້ອຍຕ້ອງການ	-13647
▁ຈັດພີມມາໂດຍ	-13648
▁ຕາມນັ້ນແລ້ວ	-13649
▁ປົກກະຕິແລ້ວ	-13650
ຂອງພົນລະເມືອງ	-13651
ພຽງແຕ່ຕ້ອງການ	-13652
▁Testosterone	-13653
▁ຄະນະຊາວຫນຸ່ມ	-13654
▁ໃນເວລາດຽວກັນ	-13655
ປະຫຍັດພະລັງງານ	-13656
ສົນທະນາກ່ຽວກັບ	-13657
ສ້າງຕັ້ງຂຶ້ນໃນ	-13658
ທີ່ເປັນອັນຕະລາຍ	-13659
ບັນດາຜະລິດຕະພັນ	-13660
▁ການສົ່ງເສີມການ	-13661
▁ກົດຫມາຍວ່າດ້ວຍ	-13662
▁ຍິ່ງໄປກວ່ານັ້ນ	-13663
▁ພວກເຮົາຕ້ອງການ	-13664
▁ມົນທົນກວາງຕຸ້ງ	-13665
▁ສາມາດໄດ້ຮັບການ	-13666
▁ໂດຍພື້ນຖານແລ້ວ	-13667
/7	-13668
04	-13669
AA	-13670
ME	-13671
UK	-13672
ка	-13673
ດຣ	-13674
ິສ	-13675
′′	-13676
-06	-13677
4">	-13678
:86	-13679
Che	-13680
GHT	-13681
Hub	-13682
aut	-13683
bug	-13684
buy	-13685
cat	-13686
edi	-13687
eek	-13688
hot	-13689
ief	-13690
lad	-13691
oga	-13692
oke	-13693
usp	-13694
vad	-13695
ກອດ	-13696
ຊາມ	-13697
ປວງ	-13698
ປູນ	-13699
ຢວນ	-13700
ລຸນ	-13701
ຫິນ	-13702
ອຶດ	-13703
ແທງ	-13704
ແມວ	-13705
ແອນ	-13706
ໂຄນ	-13707
ໂຕະ	-13708
ໂບດ	-13709
▁+1	-13710
▁5)	-13711
▁97	-13712
▁Ax	-13713
▁Oh	-13714
▁SO	-13715
▁Ub	-13716
▁Vi	-13717
▁Yu	-13718
▁Ze	-13719
▁if	-13720
▁ອໍ	-13721
▁ຮູ	-13722
▁ໄຈ	-13723
000,	-13724
1200	-13725
Cont	-13726
ONUS	-13727
ajon	-13728
appy	-13729
aron	-13730
bert	-13731
comp	-13732
days	-13733
etra	-13734
fect	-13735
igid	-13736
lear	-13737
mark	-13738
part	-13739
rive	-13740
roit	-13741
spir	-13742
vada	-13743
ຊັ່ງ	-13744
ຖິ້ມ	-13745
ບິດາ	-13746
ບ້ວງ	-13747
ພະຍາ	-13748
ພາຍຸ	-13749
ມໍ່ໆ	-13750
ຫມວກ	-13751
ຫລົງ	-13752
ແຟ້ນ	-13753
▁(18	-13754
▁(3,	-13755
▁(50	-13756
▁1.3	-13757
▁CPU	-13758
▁DIY	-13759
▁Dan	-13760
▁GDP	-13761
▁Had	-13762
▁Jum	-13763
▁Low	-13764
▁MOQ	-13765
▁PPS	-13766
▁Reb	-13767
▁Sep	-13768
▁UPS	-13769
▁Wal	-13770
▁Wil	-13771
▁amp	-13772
▁enc	-13773
▁org	-13774
▁sem	-13775
▁squ	-13776
▁tor	-13777
▁ຄາບ	-13778
▁ຊຕມ	-13779
▁ຊາມ	-13780
▁ດຸນ	-13781
▁ດົມ	-13782
▁ບຽບ	-13783
▁ລິນ	-13784
▁ຫາງ	-13785
▁ເກີ	-13786
▁ແຊວ	-13787
▁ໄຄ່	-13788
▁ໄຟລ	-13789
-2017	-13790
acker	-13791
falls	-13792
iston	-13793
leece	-13794
ກຸສົນ	-13795
ຍະລັກ	-13796
ທັນໃດ	-13797
ນະວັດ	-13798
ປະຈັກ	-13799
ປັດໄຈ	-13800
ພາກັນ	-13801
ລະນຶກ	-13802
ສະທໍາ	-13803
ຫາຍາກ	-13804
ຽນບຽນ	-13805
ເດືອດ	-13806
▁(199	-13807
▁1400	-13808
▁1990	-13809
▁2004	-13810
▁Arab	-13811
▁Cams	-13812
▁EMBA	-13813
▁Fund	-13814
▁Mary	-13815
▁Rest	-13816
▁Wang	-13817
▁cluj	-13818
▁glut	-13819
▁here	-13820
▁hero	-13821
▁part	-13822
▁prec	-13823
▁vibr	-13824
▁visa	-13825
▁ຂ່າຍ	-13826
▁ຄ້ໍາ	-13827
▁ຍົວະ	-13828
▁ທິດາ	-13829
▁ຮຸ້ນ	-13830
▁ເກືອ	-13831
Pieces	-13832
ashing	-13833
ersion	-13834
quency	-13835
ດີເລີດ	-13836
ຖົງຢາງ	-13837
ຢູ່ນອກ	-13838
ລອນດອນ	-13839
ລ່າສັດ	-13840
ສະແຫວງ	-13841
ສັງລວມ	-13842
ສືບສວນ	-13843
ຫາເງິນ	-13844
ຫຼືບໍ່	-13845
ເຊີດຊູ	-13846
ແລະຂາຍ	-13847
ແລະໃຫ້	-13848
ໂຣກໂຣກ	-13849
▁2010)	-13850
▁Adele	-13851
▁BONUS	-13852
▁Bohem	-13853
▁Cloth	-13854
▁Hacks	-13855
▁Insul	-13856
▁Linen	-13857
▁Money	-13858
▁Store	-13859
▁Trust	-13860
▁Yuyao	-13861
▁ester	-13862
▁heels	-13863
▁pizza	-13864
▁pulse	-13865
▁scene	-13866
▁shelf	-13867
▁ກະຈົກ	-13868
▁ນາຍົກ	-13869
▁ສາມັນ	-13870
▁ໃນບາງ	-13871
agement	-13872
anthate	-13873
ຄວາມດັນ	-13874
ຄວາມຝັນ	-13875
ຊະນາການ	-13876
ທຸກບ່ອນ	-13877
ປາຊີຟິກ	-13878
ພາບຖ່າຍ	-13879
ລະຕະຟອມ	-13880
ຫມາກຜົນ	-13881
ອີກແລ້ວ	-13882
ເຕືອນໄພ	-13883
ເສລີພາບ	-13884
ແມ່ຂ່າຍ	-13885
▁Advert	-13886
▁Canton	-13887
▁Cinema	-13888
▁Claret	-13889
▁ComPro	-13890
▁Geocon	-13891
▁Hunter	-13892
▁Plasma	-13893
▁Sports	-13894
▁Window	-13895
▁indoor	-13896
▁ladies	-13897
▁ການວາງ	-13898
▁ຂ້ອຍມີ	-13899
▁ດຶງດູດ	-13900
▁ຫລັງຄາ	-13901
▁ແລະລາວ	-13902
▁ແລະວ່າ	-13903
▁ໂດຍລວມ	-13904
▁ໄດ້ຈັດ	-13905
▁ໄວລຸ້ນ	-13906
.08.2018	-13907
ຂອງນະຄອນ	-13908
ຊຸ່ມຊື່ນ	-13909
ປະຈໍາຕົວ	-13910
ພັນທະມິດ	-13911
ພໍສົມຄວນ	-13912
ຫນ້ານັ້ນ	-13913
ຫລາກຫລາຍ	-13914
ຫົວຫນ່ວຍ	-13915
ີມສະຫລອງ	-13916
ເສື້ອຜ້າ	-13917
ເຮືອນຄົວ	-13918
ໂປແກຼມສະ	-13919
ໃນໂຄງການ	-13920
ໄປບໍ່ໄດ້	-13921
▁Profile	-13922
▁Rangers	-13923
▁Silicon	-13924
▁Starter	-13925
▁Testing	-13926
▁dresses	-13927
▁eyelash	-13928
▁handbag	-13929
▁pirates	-13930
▁ການເງິນ	-13931
▁ປະຊາກອນ	-13932
▁ວິໄສທັດ	-13933
▁ສາລະພາບ	-13934
▁ສິ້ນສຸດ	-13935
▁ອຸດສາຫະ	-13936
▁ເຈົ້ານີ	-13937
▁ໃນຊຸມປີ	-13938
ການຮັບຮອງ	-13939
ຂອງຫນັງສື	-13940
ຄິດວ່າມັນ	-13941
ບັນທຶກການ	-13942
ພູມສັນຖານ	-13943
ຢູ່ໃນຫ້ອງ	-13944
ສະກັດກັ້ນ	-13945
ສະເຫມີພາບ	-13946
ສິ່ງຕ່າງໆ	-13947
ສົ່ງອອກໄປ	-13948
ໃນແຕ່ລະປີ	-13949
▁February	-13950
▁Jiaozhou	-13951
▁Purifier	-13952
▁Whatsapp	-13953
▁ຄາດວ່າຈະ	-13954
▁ງົບປະມານ	-13955
▁ຜົນຜະລິດ	-13956
▁ລັດສະຫມີ	-13957
▁ສະພາແຫ່ງ	-13958
▁ສະຫວັດດີ	-13959
▁ຫມາຍຄວາມ	-13960
▁ເຂົ້າກັບ	-13961
▁ເຈົ້າໄດ້	-13962
▁ເອີ້ນວ່າ	-13963
▁ໄດ້ປະກາດ	-13964
▁ໄດ້ມີການ	-13965
ຂອງສະຫະລັດ	-13966
ຄິດສ້າງສັນ	-13967
ຄຸນລັກສະນະ	-13968
ຈາກພວກເຮົາ	-13969
ທັງຫມົດທີ່	-13970
ທີ່ຂ້ອຍໄດ້	-13971
ບັນດາກະຊວງ	-13972
ລັບສັບຊ້ອນ	-13973
ເຄິ່ງຫນຶ່ງ	-13974
▁Copyright	-13975
▁ການກວດສອບ	-13976
▁ຂະຫນາດຂອງ	-13977
▁ຊ່ວຍເຫລືອ	-13978
▁ຕົວຂຶ້ນໄປ	-13979
▁ຜູ້ທີ່ໄດ້	-13980
▁ຢືນຢັນວ່າ	-13981
▁ເຄື່ອງກອງ	-13982
▁ແສງຕາເວັນ	-13983
▁ໃນຄໍາສັ່ງ	-13984
ຂອງເວັບໄຊທ໌	-13985
ຄຸນນະພາບຂອງ	-13986
ທີ່ສຸດໃນໂລກ	-13987
ບໍ່ດັ່ງນັ້ນ	-13988
ສາມາດຄວບຄຸມ	-13989
ຫຼຸດຜ່ອນການ	-13990
ເຕົ້າໂຮມກັນ	-13991
ເອເລັກໂຕນິກ	-13992
ແລະພະລັງງານ	-13993
▁SharePoint	-13994
▁ກອງທັບເຮືອ	-13995
▁ຄວາມຜິດພາດ	-13996
▁ທຸກທໍລະມານ	-13997
▁ນໍາທິດສະນີ	-13998
▁ເພື່ອບັນລຸ	-13999
▁ແລະນີ້ແມ່ນ	-14000
▁ໂດຍຜ່ານການ	-14001
ວັນຄຣິດສະມາດ	-14002
ສາມາດແຂ່ງຂັນ	-14003
ສໍາຄັນທີ່ສຸດ	-14004
ໃນເບື້ອງຕົ້ນ	-14005
▁Advertising	-14006
▁ຂໍຂອບໃຈທ່ານ	-14007
▁ຄວາມແມ່ນຍໍາ	-14008
ການປ່ອຍອາຍພິດ	-14009
ປ້ອງກັນບໍ່ໃຫ້	-14010
ພວກເຮົາມີຄວາມ	-14011
ເລີ່ມຕົ້ນດ້ວຍ	-14012
▁ທ່ານຈະໄດ້ຮັບ	-14013
▁ເພີ່ມທະວີການ	-14014
ກ່ຽວກັບສິ່ງທີ່	-14015
ລະດັບຄວາມກ້ວາງ	-14016
▁ຂໍ້ມູນຂ່າວສານ	-14017
▁ທີ່ແຕກຕ່າງກັນ	-14018
▁ເງິນຝາກຄໍາວ່າ	-14019
▁ເພື່ອຮັບປະກັນ	-14020
▁ແຕ່ຂ້າພະເຈົ້າ	-14021
ລະບົບປະຕິບັດການ	-14022
▁ຄວາມຄິດສ້າງສັນ	-14023
▁ບັນດາວິສາຫະກິດ	-14024
ທັງຫມົດໃນທົ່ວໂລກ	-14025
▁ດັ່ງນັ້ນພວກເຮົາ	-14026
▁ພັດທະນາຊົນນະບົດ	-14027
▁ເປັນການຄ້າຫນ້ອຍ	-14028
%)	-14029
%,	-14030
/8	-14031
03	-14032
07	-14033
AB	-14034
Bl	-14035
CD	-14036
DR	-14037
HC	-14038
HP	-14039
LD	-14040
MB	-14041
TP	-14042
__	-14043
gn	-14044
sd	-14045
tl	-14046
ty	-14047
ос	-14048
ра	-14049
ຖາ	-14050
ັຟ	-14051
ເຝ	-14052
.11	-14053
.18	-14054
/01	-14055
/11	-14056
11,	-14057
136	-14058
160	-14059
307	-14060
:06	-14061
ATS	-14062
Biz	-14063
CHF	-14064
ICE	-14065
LAN	-14066
NET	-14067
ado	-14068
fig	-14069
fox	-14070
ika	-14071
ira	-14072
ket	-14073
mir	-14074
omo	-14075
ubl	-14076
url	-14077
wys	-14078
ຈູງ	-14079
ຈຽງ	-14080
ຊອງ	-14081
ປຶກ	-14082
ຣັບ	-14083
ຫວ້	-14084
ູ້ມ	-14085
ເປຍ	-14086
ແຄນ	-14087
ແອບ	-14088
ໂຊນ	-14089
ໄວກ	-14090
▁8.	-14091
▁DV	-14092
▁Dy	-14093
▁HG	-14094
▁Ja	-14095
▁Ra	-14096
▁Xi	-14097
▁br	-14098
▁ev	-14099
▁oz	-14100
▁pu	-14101
▁ຈູ	-14102
▁ໂຣ	-14103
▁ໂຫ	-14104
▁★★	-14105
2020	-14106
Site	-14107
adel	-14108
anes	-14109
aven	-14110
awei	-14111
bles	-14112
cent	-14113
ello	-14114
ends	-14115
ewel	-14116
iety	-14117
iger	-14118
imer	-14119
inth	-14120
king	-14121
opes	-14122
rint	-14123
rust	-14124
ules	-14125
unes	-14126
ysis	-14127
ຊ່າງ	-14128
ຖີ້ມ	-14129
ວກກີ	-14130
ຫາປາ	-14131
ັກທີ	-14132
ເຟີ້	-14133
ໂຫວດ	-14134
່າມີ	-14135
▁(51	-14136
▁***	-14137
▁04:	-14138
▁218	-14139
▁64,	-14140
▁Cad	-14141
▁FCC	-14142
▁Fac	-14143
▁IRB	-14144
▁Lib	-14145
▁MUM	-14146
▁Men	-14147
▁Pcb	-14148
▁Rub	-14149
▁TKT	-14150
▁Viv	-14151
▁Wei	-14152
▁fix	-14153
▁get	-14154
▁leg	-14155
▁one	-14156
▁was	-14157
▁ຊິບ	-14158
▁ທວດ	-14159
▁ປົບ	-14160
▁ຣົບ	-14161
▁ລອນ	-14162
▁ວານ	-14163
▁ແດດ	-14164
▁ແປວ	-14165
▁ແຮມ	-14166
▁ໂຍງ	-14167
▁ໄຮ່	-14168
anger	-14169
eball	-14170
elfie	-14171
esser	-14172
imber	-14173
inski	-14174
ittle	-14175
namfg	-14176
oress	-14177
rozen	-14178
ມິນນີ	-14179
ລະຍຸດ	-14180
ລາສາດ	-14181
ໃນພາກ	-14182
▁0.01	-14183
▁1960	-14184
▁1980	-14185
▁1998	-14186
▁2003	-14187
▁GAME	-14188
▁JACK	-14189
▁Need	-14190
▁Pill	-14191
▁ROHS	-14192
▁Rain	-14193
▁bing	-14194
▁chip	-14195
▁drum	-14196
▁hell	-14197
▁mail	-14198
▁nozz	-14199
▁orig	-14200
▁sand	-14201
▁taxi	-14202
▁ທໍລະ	-14203
▁ພໍໃຈ	-14204
▁ສັດທ	-14205
▁ເຊີຍ	-14206
▁ແປກໆ	-14207
arinet	-14208
fabric	-14209
icheng	-14210
ighter	-14211
valume	-14212
ກັບມັນ	-14213
ການຊື້	-14214
ການອອກ	-14215
ຂອງທໍ່	-14216
ຊອກຮູ້	-14217
ດິນຊາຍ	-14218
ຕໍ່ມື້	-14219
ບັນຫາກ	-14220
ບັນຫານ	-14221
ພັນຂອງ	-14222
ລໍາໂພງ	-14223
ຫົວຄິດ	-14224
ເປົ໋າກ	-14225
ເຫມືອນ	-14226
ໄດ້ໂດຍ	-14227
▁2010,	-14228
▁2011)	-14229
▁Final	-14230
▁Image	-14231
▁JBoss	-14232
▁Louis	-14233
▁Magic	-14234
▁Metat	-14235
▁Vegas	-14236
▁after	-14237
▁cloud	-14238
▁flute	-14239
▁ກໍາມະ	-14240
▁ລັດທິ	-14241
▁ລົດໄຟ	-14242
▁ສະດຸດ	-14243
▁ຫນ່າຍ	-14244
▁ເຂົ່າ	-14245
▁ເຈິ່ນ	-14246
▁ເຫື່ອ	-14247
▁ແລ້ວນ	-14248
atalyst	-14249
engzhou	-14250
itation	-14251
science	-14252
uploads	-14253
ການເທຣດ	-14254
ຂັດແຍ່ງ	-14255
ຂົນຂວາຍ	-14256
ຄວາມຍາວ	-14257
ຈົນເຖິງ	-14258
ທັງຫລາຍ	-14259
ທາງລຸ່ມ	-14260
ທຸກເວລາ	-14261
ບາງສ່ວນ	-14262
ປັດສະວະ	-14263
ປ່ອຍໃຫ້	-14264
ພະຍາບານ	-14265
ສູງກ່ວາ	-14266
ອາຍແກັດ	-14267
ອື່ນໆໃນ	-14268
ເດີມພັນ	-14269
ແມ່ນແຕ່	-14270
ໄລຍະຍາວ	-14271
ໄຮໂດລິກ	-14272
▁Anchor	-14273
▁Huawei	-14274
▁Keygen	-14275
▁Laptop	-14276
▁Safety	-14277
▁Taylor	-14278
▁Valent	-14279
▁Virgin	-14280
▁Xiamen	-14281
▁asylum	-14282
▁pretty	-14283
▁recept	-14284
▁triche	-14285
▁webcam	-14286
▁ກະທັ່ງ	-14287
▁ຂົງເຂດ	-14288
▁ຕາແມັດ	-14289
▁ບົດຂຽນ	-14290
▁ສົມມຸດ	-14291
▁ອະຄະຕິ	-14292
▁ແຕ່ການ	-14293
▁ແປພາສາ	-14294
▁ໂດຍໃຊ້	-14295
.06.2018	-14296
aminated	-14297
ethylene	-14298
ກັນກະທົບ	-14299
ຊີເອັນຊີ	-14300
ທີ່ຈະໃຫ້	-14301
ທົດສະວັດ	-14302
ບ້ານເກີດ	-14303
ປະຕູຮົ້ວ	-14304
ປະສົບຜົນ	-14305
ພຣະຄໍາພີ	-14306
ສະກັດຈາກ	-14307
ສະແດງຜົນ	-14308
ຫມູ່ບ້ານ	-14309
ອີກຕໍ່ໄປ	-14310
ເຂົ້າສານ	-14311
ເຊັ່ນກັນ	-14312
ໂຮ່ຈິມິນ	-14313
ໃນຊຸມຊົນ	-14314
▁Charger	-14315
▁Charles	-14316
▁Horizon	-14317
▁January	-14318
▁Stepper	-14319
▁Vintage	-14320
▁Wolford	-14321
▁Youtube	-14322
▁cheater	-14323
▁hosting	-14324
▁lottery	-14325
▁ການສົ່ງ	-14326
▁ຊື່ເຄມີ	-14327
▁ຊົມເຊີຍ	-14328
▁ທຸກຢ່າງ	-14329
▁ບັງເອີນ	-14330
▁ປາຊີຟິກ	-14331
▁ວິຕາມິນ	-14332
▁ສໍາຫຼັບ	-14333
▁ເຄົາລົບ	-14334
▁ເຕັກນິກ	-14335
▁ເບິ່ງຄື	-14336
▁ໄຮໂດລິກ	-14337
urization	-14338
ການຄິດໄລ່	-14339
ການຟື້ນຟູ	-14340
ຂອງຜູ້ຊາຍ	-14341
ຄວາມເຊື່ອ	-14342
ທີ່ກໍາລັງ	-14343
ພາລາມິເຕີ	-14344
ສາຍການບິນ	-14345
ສາມາດສ້າງ	-14346
ຫນ້ອຍກວ່າ	-14347
ເພື່ອເຮັດ	-14348
ເຫດຜົນທີ່	-14349
ແລະການຄ້າ	-14350
ແລະຂົງເຂດ	-14351
▁Industry	-14352
▁Platform	-14353
▁Security	-14354
▁passport	-14355
▁ການເມືອງ	-14356
▁ຄວາມເຈັບ	-14357
▁ຈຸນລະສານ	-14358
▁ທາດເຫຼັກ	-14359
▁ພຣະເຈົ້າ	-14360
▁ພີໄບເບິນ	-14361
▁ສົກກະປົກ	-14362
▁ສ່ວນທ່ານ	-14363
romagnetic	-14364
ການຈັດສົ່ງ	-14365
ຂອງທຸລະກິດ	-14366
ຂອງມັນແມ່ນ	-14367
ຄວາມສໍາຄັນ	-14368
ທີ່ສູງຂຶ້ນ	-14369
ບໍາລຸງສ້າງ	-14370
ປະຕິກິລິຍາ	-14371
ພັດທະນາໂດຍ	-14372
ມັນເຊື້ອໄຟ	-14373
ຢ່າງສົມບູນ	-14374
ສໍາເລັດຜົນ	-14375
ເນື້ອເຍື່ອ	-14376
ເລັກໂທຣນິກ	-14377
ແລະພວກເຂົາ	-14378
ໄດ້ຈັດຕັ້ງ	-14379
▁Countdown	-14380
▁collector	-14381
▁ຂີ້ເຫຍື້ອ	-14382
▁ຄວາມລະອຽດ	-14383
▁ຄຸນປະຫຍັດ	-14384
▁ວິສະວະກໍາ	-14385
▁ສະກັດກັ້ນ	-14386
▁ເຄື່ອງສີດ	-14387
▁ເດືອນມີນາ	-14388
▁ເຮົາສາມາດ	-14389
▁ແລະມັນກໍ່	-14390
▁ໄດ້ໃຫ້ການ	-14391
▁ໄຟອັນຕລາຍ	-14392
ຂອງກອງປະຊຸມ	-14393
ຂອງປະເທດຊາດ	-14394
ຄວາມສໍາເລັດ	-14395
ເຮືອຂ້າມຟາກ	-14396
▁Dewatering	-14397
▁generateur	-14398
▁ການຈັດສົ່ງ	-14399
▁ການແລກປ່ຽນ	-14400
▁ຂະຫນາດກ່ອງ	-14401
▁ປື້ມບັນທຶກ	-14402
▁ພົນລະເມືອງ	-14403
▁ສະນັ້ນຂ້ອຍ	-14404
▁ສະມາຊິກຂອງ	-14405
▁ໃນປະເທດຈີນ	-14406
ຂອງພວກເຮົາຈະ	-14407
ຊ່ວຍເຫຼືອລ້າ	-14408
ພົບປະແລກປ່ຽນ	-14409
ຫຼາຍດັ່ງນັ້ນ	-14410
ຮັບຜິດຊອບຕໍ່	-14411
ເປັນເຈົ້າພາບ	-14412
ເຮັດຄວາມເຢັນ	-14413
▁ການລົງທະບຽນ	-14414
▁ກຸ່ມບໍລິສັດ	-14415
▁ສາມາດໃຊ້ໄດ້	-14416
ຂົນສົ່ງສິນຄ້າ	-14417
ນະຄອນໂຮ່ຈີມິນ	-14418
ສົບຜົນສໍາເລັດ	-14419
ເປັນທີ່ຮູ້ຈັກ	-14420
▁ບໍລິສັດເຊົ່າ	-14421
▁ມັນຖືກນໍາໃຊ້	-14422
▁ວັນຄຣິດສະມາດ	-14423
▁ສ້າງຕັ້ງຂື້ນ	-14424
ຜູ້ຊ່ຽວຊານດ້ານ	-14425
▁ເຂົ້າສູ່ລະບົບ	-14426
▁ແລະຜະລິດຕະພັນ	-14427
ກ່ຽວກັບເວັບໄຊທ໌	-14428
ເພື່ອແກ້ໄຂບັນຫາ	-14429
ໄດ້ຮັບຜົນປະໂຫຍດ	-14430
▁ເພື່ອຕອບສະຫນອງ	-14431
ແລະຂະຫນາດຮູບຖ່າຍ	-14432
▁ການສັກຢາປ້ອງກັນ	-14433
08	-14434
EV	-14435
GA	-14436
RT	-14437
XD	-14438
jo	-14439
kt	-14440
mi	-14441
ti	-14442
tv	-14443
wh	-14444
xx	-14445
▁★	-14446
.27	-14447
.40	-14448
.57	-14449
.60	-14450
101	-14451
128	-14452
17)	-14453
21)	-14454
ASH	-14455
CSE	-14456
KGS	-14457
Mpa	-14458
ULL	-14459
ZHO	-14460
cin	-14461
emp	-14462
mar	-14463
mes	-14464
olo	-14465
oof	-14466
opy	-14467
wei	-14468
ຂົວ	-14469
ຄິວ	-14470
ຄຽດ	-14471
ຊອນ	-14472
ຊາບ	-14473
ປີ້	-14474
ຟອງ	-14475
ມືກ	-14476
ຣິສ	-14477
ວ່ງ	-14478
ເທກ	-14479
ເຟດ	-14480
ແບກ	-14481
ໄວໆ	-14482
ໄສ້	-14483
▁73	-14484
▁84	-14485
▁96	-14486
▁CI	-14487
▁CV	-14488
▁Kg	-14489
▁Lu	-14490
▁MN	-14491
▁Mu	-14492
▁es	-14493
▁ng	-14494
▁ກັ	-14495
▁ພວ	-14496
▁ວກ	-14497
▁≤0	-14498
-311	-14499
.0.3	-14500
.1.1	-14501
/300	-14502
Land	-14503
code	-14504
ever	-14505
iana	-14506
icks	-14507
iper	-14508
ista	-14509
izab	-14510
leti	-14511
omer	-14512
ຄື້ນ	-14513
ຕິກິ	-14514
ຖິ່ນ	-14515
ຖືພາ	-14516
ທ່ຽວ	-14517
ມ້ຽນ	-14518
ສອດຄ	-14519
ເທດຍ	-14520
ເພດຍ	-14521
ເຫີຍ	-14522
ແກຣນ	-14523
▁!!!	-14524
▁(15	-14525
▁(33	-14526
▁(5)	-14527
▁(86	-14528
▁+/-	-14529
▁1.4	-14530
▁19:	-14531
▁212	-14532
▁270	-14533
▁5.0	-14534
▁Apg	-14535
▁Att	-14536
▁Bei	-14537
▁CCC	-14538
▁DHL	-14539
▁DNA	-14540
▁Est	-14541
▁Fan	-14542
▁Jay	-14543
▁Jon	-14544
▁NCS	-14545
▁Pil	-14546
▁Ram	-14547
▁Rep	-14548
▁Tus	-14549
▁VPN	-14550
▁Vis	-14551
▁War	-14552
▁air	-14553
▁att	-14554
▁doc	-14555
▁esc	-14556
▁fre	-14557
▁has	-14558
▁lig	-14559
▁lin	-14560
▁pen	-14561
▁syn	-14562
▁zlp	-14563
▁ຍົດ	-14564
▁ດື້	-14565
▁ຕຶບ	-14566
▁ປອນ	-14567
▁ປຶກ	-14568
▁ປົນ	-14569
▁ພິກ	-14570
▁ລອບ	-14571
▁ອຽດ	-14572
▁ເປິ	-14573
▁ເວດ	-14574
▁ແມວ	-14575
▁ແອກ	-14576
▁ໂຟມ	-14577
acter	-14578
amide	-14579
angel	-14580
axies	-14581
crypt	-14582
earch	-14583
email	-14584
ganik	-14585
ifang	-14586
odiac	-14587
ontal	-14588
rites	-14589
stein	-14590
utsch	-14591
width	-14592
woven	-14593
ກັບໄປ	-14594
ຂອງສີ	-14595
ຕະລຶງ	-14596
ທຸກໍາ	-14597
ນ້ໍາມ	-14598
ປະການ	-14599
ປັດໃຈ	-14600
ຜະນຶກ	-14601
ຟໍເນຍ	-14602
ມັນມີ	-14603
ມີຢູ່	-14604
ຣາເອນ	-14605
ລົງໃນ	-14606
ລົດເມ	-14607
ວະແພດ	-14608
ສອງປີ	-14609
ຫລ່ຽມ	-14610
ເພດານ	-14611
▁1999	-14612
▁Acad	-14613
▁Acid	-14614
▁Arts	-14615
▁Boat	-14616
▁CCNA	-14617
▁Cake	-14618
▁Cred	-14619
▁Eric	-14620
▁Meth	-14621
▁Moto	-14622
▁Nozz	-14623
▁Ride	-14624
▁Tank	-14625
▁Team	-14626
▁Vict	-14627
▁fake	-14628
▁high	-14629
▁kids	-14630
▁neur	-14631
▁prop	-14632
▁stud	-14633
▁tele	-14634
▁zomb	-14635
▁ຊະບາ	-14636
▁ມົ້ວ	-14637
▁ອາວຸ	-14638
▁ອີຢູ	-14639
▁ອ່າວ	-14640
▁ເອິກ	-14641
▁ໂຄ້ງ	-14642
▁ໂງ່ນ	-14643
.16113	-14644
Design	-14645
atcher	-14646
bright	-14647
elling	-14648
ensile	-14649
escent	-14650
odcast	-14651
oltage	-14652
ometer	-14653
ิซละนด	-14654
ກະດ້າງ	-14655
ການາດາ	-14656
ຂອງເກມ	-14657
ຄາດວ່າ	-14658
ຊິກສາດ	-14659
ດີກ່ວາ	-14660
ຜ່ານໄປ	-14661
ມັນກໍ່	-14662
ຢູ່ລາວ	-14663
ລູກສາວ	-14664
ສານພິດ	-14665
ສີສົ້ມ	-14666
ຫລືບໍ່	-14667
ຮູບຊົງ	-14668
ແບັກທີ	-14669
ແປງການ	-14670
ໂດຍອີງ	-14671
ໃຈຮ້າຍ	-14672
ໃຫມ່ໃນ	-14673
ໃຫ້ທຶນ	-14674
ໍານັ້ນ	-14675
▁2005,	-14676
▁2016,	-14677
▁Angle	-14678
▁Broad	-14679
▁Mahar	-14680
▁Patti	-14681
▁Queen	-14682
▁Quest	-14683
▁Sound	-14684
▁break	-14685
▁cross	-14686
▁eBook	-14687
▁stuff	-14688
▁ກໍາມື	-14689
▁ຖາວອນ	-14690
▁ວີຊ່າ	-14691
▁ສະວິດ	-14692
▁ຮໍໂມນ	-14693
▁ແລະຈະ	-14694
,000.00	-14695
ilicate	-14696
izabeth	-14697
ຂັດແຍ້ງ	-14698
ຂົ່ມຂູ່	-14699
ຊະຍາກໍາ	-14700
ດ່ານັ້ງ	-14701
ທີ່ລະບຸ	-14702
ທີ່ໃຫຍ່	-14703
ນັ່ງຢູ່	-14704
ພິທີການ	-14705
ສາຍສົ່ງ	-14706
ຫລັກສູດ	-14707
ຫລ້າສຸດ	-14708
ອງປະຊຸມ	-14709
ຮູບແຕ້ມ	-14710
ຮ່າງການ	-14711
ຮ້ານຂາຍ	-14712
ເວບໄຊທ໌	-14713
ແລະນ້ໍາ	-14714
ໂດດດ່ຽວ	-14715
ໍຊິງຕັນ	-14716
▁20,000	-14717
▁Coupon	-14718
▁Disney	-14719
▁Floral	-14720
▁Hadoop	-14721
▁Marvel	-14722
▁NINGBO	-14723
▁Nevada	-14724
▁coffee	-14725
▁feeder	-14726
▁height	-14727
▁jacket	-14728
▁soccer	-14729
▁travel	-14730
▁ການຕອບ	-14731
▁ການໂອນ	-14732
▁ຂັບລົດ	-14733
▁ຕະຫລົກ	-14734
▁ນັ້ນກໍ	-14735
▁ນິ້ວມື	-14736
▁ນີ້ພວກ	-14737
▁ຜູ້ໃຊ້	-14738
▁ມັກເພງ	-14739
▁ສອງສາມ	-14740
▁ສະຫລອງ	-14741
▁ເລກທີ່	-14742
▁ແມ່ຂອງ	-14743
ດຸ່ນດ່ຽງ	-14744
ທີ່ເຈົ້າ	-14745
ນໍາໄປສູ່	-14746
ບັນດານໃຈ	-14747
ບໍ່ວ່າຈະ	-14748
ປຸກລະດົມ	-14749
ວິກິດການ	-14750
ວ່າມັນມີ	-14751
ສູນຍາກາດ	-14752
ຫມາຍເຖິງ	-14753
ອະໄວຍະວະ	-14754
ເກັບຝຸ່ນ	-14755
ເງິນເຟີ້	-14756
ເທື່ອຄົນ	-14757
ໃຫ້ບັນດາ	-14758
▁Angeles	-14759
▁Chengdu	-14760
▁Desktop	-14761
▁Edition	-14762
▁altcoin	-14763
▁cyclone	-14764
▁ກວມເອົາ	-14765
▁ກາງເວັນ	-14766
▁ກາລັກຊີ	-14767
▁ຂົ່ມເຫງ	-14768
▁ງ່າຍດາຍ	-14769
▁ຍ້ອນວ່າ	-14770
▁ປະກອບມີ	-14771
▁ປັກກິ່ງ	-14772
▁ພື້ນຜິວ	-14773
▁ຫຸ່ນຍົນ	-14774
▁ເຜີຍແຜ່	-14775
▁ເວືອງດີ	-14776
▁ເຮົາບໍ່	-14777
▁ແຕ່ເຮົາ	-14778
▁ແມ່ນໍ້າ	-14779
▁ໂດຍທ່ານ	-14780
▁ໂດຍຜ່ານ	-14781
ກັບເຄື່ອງ	-14782
ຂອງອົງກອນ	-14783
ຊ່ອງຫວ່າງ	-14784
ທີ່ມີອາຍຸ	-14785
ນັບມື້ນັບ	-14786
ບັງຄັບໃຫ້	-14787
ພອນສະຫວັນ	-14788
ມໍ່ໆມານີ້	-14789
ຫ່າງໄກສອກ	-14790
ຮູບແບບຂອງ	-14791
ເຂັ້ມຂົ້ນ	-14792
ເຊັ່ນນັ້ນ	-14793
ເພື່ອຄວາມ	-14794
ໂຄງການນີ້	-14795
▁Detector	-14796
▁Français	-14797
▁Hangheng	-14798
▁Terminal	-14799
▁dopamine	-14800
▁galaxies	-14801
▁ຂຶ້ນຢ່າງ	-14802
▁ຈໍາຫນ່າຍ	-14803
▁ສະບັບທີ່	-14804
▁ສີດໍາແລະ	-14805
▁ເຈົ້າຖືກ	-14806
▁ເຟີນິເຈີ	-14807
▁ແຕ່ວັນທີ	-14808
▁ໂປໂມຊັ່ນ	-14809
▁ໃນທີ່ນີ້	-14810
ການປະຕິວັດ	-14811
ການຫຸ້ມຫໍ່	-14812
ກໍາຫນົດເອງ	-14813
ຄິດຄໍາເຫັນ	-14814
ທຸລະກິດທີ່	-14815
ບັນດາບັນຫາ	-14816
ບົດຄວາມນີ້	-14817
ປ່ຽນແປງໄດ້	-14818
ມີຄຸນນະພາບ	-14819
ມືອາຊີບຂອງ	-14820
ຢ່າງຈະແຈ້ງ	-14821
າວິທະຍາສາດ	-14822
ເກີດຂື້ນໃນ	-14823
ເປັນຜູ້ນໍາ	-14824
ເສັ້ນເລືອດ	-14825
ເອື້ອຍນ້ອງ	-14826
ໃນກອງປະຊຸມ	-14827
ໃນຂະບວນການ	-14828
▁Elizabeth	-14829
▁Enanthate	-14830
▁Tailoress	-14831
▁Technical	-14832
▁extrusion	-14833
▁ການຕິດຕາມ	-14834
▁ການສໍາພາດ	-14835
▁ຄວາມສະອາດ	-14836
▁ຄວາມສົນໃຈ	-14837
▁ຜັນຂະຫຍາຍ	-14838
▁ຜູ້ຕິດຕາມ	-14839
▁ພາຍໃຕ້ການ	-14840
▁ເພື່ອຊ່ວຍ	-14841
▁ເມື່ອນັ້ນ	-14842
▁ແລະແນ່ນອນ	-14843
ຂອງທ່ານແມ່ນ	-14844
ຄວາມແມ່ນຍໍາ	-14845
ຊາວອົບພະຍົບ	-14846
ຕະຫຼອດຊີວິດ	-14847
ທີ່ມີຊື່ວ່າ	-14848
ບໍ່ດົນມານີ້	-14849
ລາຍຊື່ອີເມວ	-14850
ສວນສາທາລະນະ	-14851
ແຮງດັນໄຟຟ້າ	-14852
ໃນຕອນກາງຄືນ	-14853
ໃນພາກສະຫນາມ	-14854
▁Tianeptine	-14855
▁hoverboard	-14856
▁skateboard	-14857
▁ທີ່ພວກເຮົາ	-14858
▁ທີ່ຢູ່ອາໄສ	-14859
▁ທີ່ຮ່າໂນ້ຍ	-14860
▁ມັນເຮັດໃຫ້	-14861
▁ມີປະສົບການ	-14862
▁ເຄື່ອງເຮັດ	-14863
▁ແຕ່ພວກເຂົາ	-14864
▁ແລະຂ້ອຍໄດ້	-14865
ຂອງການນໍາໃຊ້	-14866
ຄະນະຊາວຫນຸ່ມ	-14867
ດັ່ງກ່າວແມ່ນ	-14868
ສ້າງຕັ້ງຂື້ນ	-14869
ອີເລັກໂທຣນິກ	-14870
ເນື່ອງຈາກວ່າ	-14871
ເປັນຜູ້ຜະລິດ	-14872
ເພີ່ມທະວີການ	-14873
ເລີ່ມຕົ້ນການ	-14874
▁2.6.4.16113	-14875
▁ນອກນັ້ນທ່ານ	-14876
▁ພ້ອມກັນນັ້ນ	-14877
▁ລາຍຊື່ອີເມວ	-14878
ທາງເລືອກໃນການ	-14879
ຮ່ວມມືລະຫວ່າງ	-14880
ເສດຖະກິດສາກົນ	-14881
ແລະການຄຸ້ມຄອງ	-14882
ໃນການຄົ້ນຄວ້າ	-14883
▁ການຂະຫຍາຍຕົວ	-14884
▁ລ້ານເທື່ອຄົນ	-14885
▁ເມື່ອພວກເຮົາ	-14886
ທາງດ້ານກົດຫມາຍ	-14887
ໃນລະຫວ່າງວັນທີ	-14888
▁ການເຊື່ອມໂລຫະ	-14889
▁ປະສິດທິພາບສູງ	-14890
▁ພວກເຮົາສະເຫນີ	-14891
▁ສິ່ງທີ່ຄວນຮູ້	-14892
▁ເຕັບປິ້ງມໍເຕີ	-14893
ກ້າວຫນ້າທາງດ້ານ	-14894
ສໍາລັບການນໍາໃຊ້	-14895
ຂອງພວກເຮົາສໍາລັບ	-14896
▁ຖ້າຫາກວ່າທ່ານມີ	-14897
AG	-14898
AW	-14899
BF	-14900
DE	-14901
Ds	-14902
MI	-14903
SH	-14904
TE	-14905
TT	-14906
Wh	-14907
gr	-14908
nb	-14909
ni	-14910
oC	-14911
pg	-14912
sl	-14913
tn	-14914
vo	-14915
ào	-14916
ຝ່	-14917
▁◆	-14918
▁	-14919
▁	-14920
!!!	-14921
-27	-14922
-36	-14923
00€	-14924
039	-14925
12,	-14926
20,	-14927
414	-14928
701	-14929
For	-14930
Ltd	-14931
NOV	-14932
SON	-14933
SQL	-14934
Sup	-14935
ben	-14936
bor	-14937
cal	-14938
cle	-14939
cnc	-14940
eep	-14941
eko	-14942
gee	-14943
gie	-14944
kle	-14945
opl	-14946
rix	-14947
ude	-14948
ຂືນ	-14949
ຂູດ	-14950
ຄັງ	-14951
ງັບ	-14952
ຕຸຍ	-14953
ຕົມ	-14954
ນິງ	-14955
ນຶກ	-14956
ບຣາ	-14957
ພອດ	-14958
ສາງ	-14959
ສົກ	-14960
ສຽບ	-14961
ຫວະ	-14962
ະລື	-14963
ແກມ	-14964
ໂມ້	-14965
▁".	-14966
▁71	-14967
▁PV	-14968
▁XH	-14969
▁ed	-14970
▁fr	-14971
▁jw	-14972
▁op	-14973
▁ຖູ	-14974
▁ອນ	-14975
74-8	-14976
77-6	-14977
High	-14978
Tags	-14979
URAL	-14980
ased	-14981
avan	-14982
bide	-14983
ebob	-14984
elle	-14985
enge	-14986
esto	-14987
held	-14988
idad	-14989
ilun	-14990
ites	-14991
ixel	-14992
loss	-14993
mill	-14994
odel	-14995
onto	-14996
oval	-14997
phen	-14998
rate	-14999
thon	-15000
uman	-15001
unds	-15002
untu	-15003
ways	-15004
ying	-15005
ກະວີ	-15006
ຈ້ອງ	-15007
ຊິນີ	-15008
ນລັງ	-15009
ສະລະ	-15010
ຫນວກ	-15011
ີມັງ	-15012
ແຈ່ມ	-15013
ໆຂອງ	-15014
▁(36	-15015
▁0.8	-15016
▁145	-15017
▁256	-15018
▁330	-15019
▁850	-15020
▁AMP	-15021
▁Are	-15022
▁Bak	-15023
▁Bet	-15024
▁Bos	-15025
▁Bud	-15026
▁CHE	-15027
▁CSG	-15028
▁Dun	-15029
▁ETC	-15030
▁Eva	-15031
▁Lao	-15032
▁MIU	-15033
▁NBR	-15034
▁Put	-15035
▁Rij	-15036
▁VOC	-15037
▁add	-15038
▁ent	-15039
▁tit	-15040
▁use	-15041
▁ທູ້	-15042
▁ນິກ	-15043
▁ບຽນ	-15044
▁ຝ່າ	-15045
▁ພວງ	-15046
▁ອັງ	-15047
▁ຮວມ	-15048
▁ຮັດ	-15049
▁ເດຍ	-15050
▁ເດ່	-15051
▁ເຟີ	-15052
▁ໂພກ	-15053
▁ໄພ່	-15054
1,000	-15055
Guang	-15056
Homes	-15057
Quick	-15058
admin	-15059
build	-15060
gmail	-15061
otian	-15062
ringe	-15063
sters	-15064
ຂໍໃຫ້	-15065
ທະວີບ	-15066
ທາລະນ	-15067
ນີ້ໃນ	-15068
ພະຫັດ	-15069
ພິບານ	-15070
ລະບອບ	-15071
ສູບຢາ	-15072
ຫຼ່ຽມ	-15073
ິດີໂອ	-15074
ເກສອນ	-15075
ໄປກັບ	-15076
ໄປຮອດ	-15077
ໄຟເບີ	-15078
▁Bing	-15079
▁FXCC	-15080
▁Just	-15081
▁Lady	-15082
▁Lego	-15083
▁MCSA	-15084
▁Mont	-15085
▁Priv	-15086
▁Rail	-15087
▁Saud	-15088
▁Snow	-15089
▁Swed	-15090
▁Walk	-15091
▁With	-15092
▁iPod	-15093
▁need	-15094
▁sign	-15095
▁time	-15096
▁turn	-15097
▁ຍ່ໍາ	-15098
▁ທະນູ	-15099
▁ສະນະ	-15100
▁ຫະລື	-15101
▁ຫຼາກ	-15102
▁ເຫລວ	-15103
▁ແຫລະ	-15104
▁ໄຟລ໌	-15105
Online	-15106
ervice	-15107
ຂໍເອົາ	-15108
ຈະເຮັດ	-15109
ຈໍາແນກ	-15110
ຕໍ່ກັບ	-15111
ທີ່ສອງ	-15112
ນີ້ຖືກ	-15113
ບຸນຄຸນ	-15114
ປະຫມາດ	-15115
ພາກກາງ	-15116
ພິທີໄຂ	-15117
ມັດທາຍ	-15118
ຢູ່ລອດ	-15119
ລໍາບາກ	-15120
ສະຖານະ	-15121
ສູ້ຊົນ	-15122
▁	-15123
າ	-15124
ນ	-15125
່	-15126
ກ	-15127
້	-15128
ດ	-15129
ງ	-15130
ເ	-15131
ັ	-15132
ອ	-15133
ະ	-15134
ມ	-15135
ວ	-15136
ລ	-15137
ີ	-15138
ົ	-15139
ບ	-15140
ສ	-15141
ທ	-15142
ຫ	-15143
ແ	-15144
ຍ	-15145
ຂ	-15146
ິ	-15147
ໍ	-15148
ຄ	-15149
e	-15150
ພ	-15151
ຕ	-15152
ຈ	-15153
ປ	-15154
,	-15155
ໃ	-15156
ື	-15157
a	-15158
.	-15159
o	-15160
ຮ	-15161
i	-15162
n	-15163
r	-15164
ໄ	-15165
t	-15166
ຊ	-15167
ູ	-15168
s	-15169
0	-15170
ຸ	-15171
l	-15172
1	-15173
ໂ	-15174
c	-15175
ຽ	-15176
ຜ	-15177
2	-15178
u	-15179
ຖ	-15180
ຢ	-15181
m	-15182
d	-15183
h	-15184
g	-15185
ຶ	-15186
p	-15187
:	-15188
S	-15189
C	-15190
ຼ	-15191
5	-15192
-	-15193
3	-15194
y	-15195
P	-15196
A	-15197
b	-15198
8	-15199
4	-15200
M	-15201
T	-15202
6	-15203
k	-15204
D	-15205
9	-15206
L	-15207
B	-15208
f	-15209
E	-15210
7	-15211
/	-15212
)	-15213
R	-15214
(	-15215
w	-15216
v	-15217
H	-15218
F	-15219
ຟ	-15220
I	-15221
ຣ	-15222
N	-15223
ໆ	-15224
G	-15225
O	-15226
W	-15227
x	-15228
V	-15229
?	-15230
"	-15231
U	-15232
K	-15233
ຝ	-15234
;	-15235
z	-15236
X	-15237
J	-15238
_	-15239
໌	-15240
“	-15241
!	-15242
”	-15243
j	-15244
Y	-15245
%	-15246
$	-15247
*	-15248
'	-15249
>	-15250
+	-15251
Z	-15252
&	-15253
q	-15254
–	-15255
Q	-15256
=	-15257
@	-15258
£	-15259
©	-15260
]	-15261
—	-15262
[	-15263
#	-15264
»	-15265
<	-15266
•	-15267
°	-15268
~	-15269
໋	-15270
໊	-15271
×	-15272
€	-15273
’	-15274
\	-15275
≤	-15276
é	-15277
{	-15278
}	-15279
`	-15280
ะ	-15281
น	-15282
★	-15283
®	-15284
	-15285
а	-15286
о	-15287
→	-15288
с	-15289
‘	-15290
ö	-15291
·	-15292
и	-15293
à	-15294
к	-15295
≥	-15296
±	-15297
ซ	-15298
ิ	-15299
ร	-15300
е	-15301
р	-15302
н	-15303
฿	-15304
เ	-15305
á	-15306
Φ	-15307
ล	-15308
ä	-15309
】	-15310
đ	-15311
【	-15312
т	-15313
ç	-15314
у	-15315
ด	-15316
โ	-15317
ต	-15318
′	-15319
ü	-15320
«	-15321
å	-15322
ó	-15323
Ω	-15324
л	-15325
●	-15326
¥	-15327
μ	-15328
б	-15329
в	-15330
ย	-15331
ế	-15332
ư	-15333
ก	-15334
จ	-15335
า	-15336
ạ	-15337
ñ	-15338
й	-15339
₪	-15340
₱	-15341
ม	-15342
←	-15343
ุ	-15344
ộ	-15345
ã	-15346
ь	-15347
ê	-15348
ท	-15349
✔	-15350
ຯ	-15351
â	-15352
ง	-15353
Ø	-15354
д	-15355
м	-15356
ệ	-15357
Ö	-15358
ô	-15359
ы	-15360
ả	-15361
ا	-15362
ấ	-15363
◆	-15364
	-15365
	-15366
ị	-15367
♪	-15368
어	-15369
ú	-15370
ă	-15371
х	-15372
ر	-15373
ي	-15374
อ	-15375
	-15376
ų	-15377
語	-15378
í	-15379
ب	-15380
ل	-15381
ส	-15382
ằ	-15383
本	-15384
ı	-15385
ş	-15386
У	-15387
Ф	-15388
ể	-15389
ớ	-15390
ữ	-15391
日	-15392
ة	-15393
ع	-15394
บ	-15395
ป	-15396
พ	-15397
ợ	-15398
√	-15399
국	-15400
한	-15401
β	-15402
г	-15403
ж	-15404
я	-15405
ї	-15406
ั	-15407
ไ	-15408
้	-15409
໑	-15410
ầ	-15411
ч	-15412
ว	-15413
ี	-15414
่	-15415
ố	-15416
中	-15417
	-15418
	-15419
è	-15420
α	-15421
φ	-15422
А	-15423
ụ	-15424
›	-15425
^	-15426
ė	-15427
š	-15428
з	-15429
ข	-15430
ề	-15431
ủ	-15432
□	-15433
度	-15434
ì	-15435
К	-15436
ห	-15437
ắ	-15438
ờ	-15439
ứ	-15440
č	-15441
ͧ	-15442
ю	-15443
ช	-15444
໗	-15445
ậ	-15446
⁄	-15447
文	-15448
§	-15449
Ş	-15450
ơ	-15451
σ	-15452
Ж	-15453
Л	-15454
О	-15455
п	-15456
ѕ	-15457
і	-15458
ฟ	-15459
ở	-15460
П	-15461
ъ	-15462
ổ	-15463
ừ	-15464
∮	-15465
♥	-15466
ツ	-15467
功	-15468
寸	-15469
尺	-15470
机	-15471
率	-15472
电	-15473
	-15474
	-15475
ř	-15476
ε	-15477
ι	-15478
В	-15479
С	-15480
ः	-15481
แ	-15482
໐	-15483
໒	-15484
↑	-15485
☸	-15486
➥	-15487
厚	-15488
轴	-15489
	-15490
🙂	-15491
Ç	-15492
Ü	-15493
İ	-15494
ž	-15495
ο	-15496
ρ	-15497
Б	-15498
Р	-15499
ҹ	-15500
ी	-15501
ค	-15502
ภ	-15503
ฤ	-15504
ู	-15505
ใ	-15506
☆	-15507
♣	-15508
料	-15509
最	-15510
版	-15511
送	-15512
라	-15513
스	-15514
오	-15515
😉	-15516
Ä	-15517
Å	-15518
ß	-15519
ù	-15520
ý	-15521
ğ	-15522
Š	-15523
π	-15524
И	-15525
М	-15526
Т	-15527
Х	-15528
ц	-15529
س	-15530
ษ	-15531
໔	-15532
໕	-15533
໘	-15534
ẽ	-15535
ỉ	-15536
ọ	-15537
ồ	-15538
ự	-15539
⊡	-15540
►	-15541
主	-15542
号	-15543
国	-15544
备	-15545
外	-15546
形	-15547
权	-15548
锯	-15549
	-15550
	-15551
	-15552
️	-15553
🎰	-15554
👍	-15555
¢	-15556
ŧ	-15557
́	-15558
ͅ	-15559
Χ	-15560
κ	-15561
λ	-15562
щ	-15563
ѧ	-15564
֧	-15565
و	-15566
र	-15567
็	-15568
ํ	-15569
໓	-15570
Ả	-15571
ặ	-15572
ễ	-15573
ỏ	-15574
ỡ	-15575
‹	-15576
⌘	-15577
│	-15578
☞	-15579
♡	-15580
♦	-15581
✓	-15582
刨	-15583
加	-15584
大	-15585
宽	-15586
工	-15587
径	-15588
挂	-15589
直	-15590
粤	-15591
速	-15592
重	-15593
雷	-15594
	-15595
	-15596
～	-15597
É	-15598
Í	-15599
ï	-15600
ò	-15601
ø	-15602
ā	-15603
ć	-15604
ē	-15605
ę	-15606
ĩ	-15607
į	-15608
ń	-15609
ũ	-15610
ū	-15611
Ž	-15612
ʁ	-15613
͡	-15614
ά	-15615
ν	-15616
ς	-15617
τ	-15618
ψ	-15619
Е	-15620
З	-15621
ф	-15622
ш	-15623
э	-15624
ј	-15625
Ҥ	-15626
ҧ	-15627
Ҵ	-15628
Ե	-15629
Թ	-15630
ե	-15631
ج	-15632
ط	-15633
ك	-15634
م	-15635
ن	-15636
ی	-15637
द	-15638
न	-15639
प	-15640
ह	-15641
ा	-15642
ि	-15643
া	-15644
ు	-15645
ನ	-15646
ื	-15647
໙	-15648
မ	-15649
ា	-15650
ẻ	-15651
ử	-15652
ἴ	-15653
₭	-15654
↩	-15655
∣	-15656
∥	-15657
⊥	-15658
▪	-15659
▲	-15660
◌	-15661
◩	-15662
◪	-15663
☼	-15664
✫	-15665
➡	-15666
⨯	-15667
オ	-15668
ラ	-15669
ー	-15670
仨	-15671
体	-15672
你	-15673
净	-15674
刀	-15675
切	-15676
削	-15677
包	-15678
卓	-15679
司	-15680
好	-15681
安	-15682
扫	-15683
政	-15684
明	-15685
片	-15686
琵	-15687
琶	-15688
生	-15689
申	-15690
私	-15691
策	-15692
简	-15693
红	-15694
转	-15695
隐	-15696
	-15697
	-15698
	-15699
	-15700
🇦	-15701
🇱	-15702
📱	-15703
🔥	-15704
🔧	-15705
¿	-15706
À	-15707
Á	-15708
Č	-15709
Đ	-15710
ł	-15711
œ	-15712
ś	-15713
ţ	-15714
ť	-15715
ŷ	-15716
Ÿ	-15717
Ǵ	-15718
ǹ	-15719
Ǻ	-15720
ə	-15721
ɹ	-15722
ʹ	-15723
˭	-15724
˹	-15725
̃	-15726
̵	-15727
͹	-15728
Δ	-15729
Ε	-15730
Ι	-15731
Λ	-15732
έ	-15733
γ	-15734
η	-15735
χ	-15736
ό	-15737
ύ	-15738
Г	-15739
Д	-15740
Н	-15741
Ш	-15742
Ь	-15743
Э	-15744
Я	-15745
ё	-15746
є	-15747
ѡ	-15748
ѳ	-15749
Ѵ	-15750
ѹ	-15751
Ѻ	-15752
ҡ	-15753
Ҫ	-15754
Դ	-15755
Հ	-15756
ա	-15757
յ	-15758
ն	-15759
շ	-15760
պ	-15761
վ	-15762
ր	-15763
ء	-15764
أ	-15765
ت	-15766
د	-15767
ف	-15768
ه	-15769
٪	-15770
ٻ	-15771
پ	-15772
ߋ	-15773
ं	-15774
क	-15775
ट	-15776
ठ	-15777
म	-15778
ल	-15779
ू	-15780
े	-15781
ो	-15782
्	-15783
ং	-15784
ব	-15785
ল	-15786
ਜ	-15787
ਪ	-15788
ਬ	-15789
ਾ	-15790
ੀ	-15791
ੰ	-15792
ગ	-15793
જ	-15794
ત	-15795
ર	-15796
ા	-15797
ી	-15798
ુ	-15799
த	-15800
ம	-15801
ழ	-15802
ி	-15803
்	-15804
గ	-15805
త	-15806
ల	-15807
ె	-15808
ಕ	-15809
ಡ	-15810
್	-15811
ญ	-15812
ถ	-15813
ธ	-15814
ผ	-15815
ึ	-15816
໖	-15817
န	-15818
ာ	-15819
်	-15820
ြ	-15821
ა	-15822
თ	-15823
ი	-15824
ლ	-15825
რ	-15826
უ	-15827
ქ	-15828
ខ	-15829
ញ	-15830
ប	-15831
ព	-15832
ភ	-15833
ម	-15834
រ	-15835
ស	-15836
េ	-15837
ែ	-15838
ំ	-15839
្	-15840
ẹ	-15841
Ẻ	-15842
ỗ	-15843
‐	-15844
„	-15845
※	-15846
₩	-15847
₴	-15848
↓	-15849
⇒	-15850
⇓	-15851
−	-15852
≈	-15853
≧	-15854
⋆	-15855
[...]
